#version: 0.2
Ġ e
q u
u m
e r
Ġ a
Ġ s
i n
i t
u s
Ġ qu
i s
Ġ p
a t
n t
o n
a m
Ġ c
Ġ n
a e
s t
Ġ d
Ġ m
r e
Ġ in
e m
i c
Ġ t
o r
u r
Ġ v
Ġe t
u t
Ġ i
Ġ f
e n
l i
Ġe st
o m
Ġ h
i m
e s
u nt
o d
e t
a n
a r
i d
o s
e c
u l
e nt
Ġn on
Ġp r
i a
i b
o l
u n
e d
Ġ re
qu e
Ġ l
Ġa d
o c
s e
u d
Ġqu od
a c
l l
a b
Ġ ut
a s
i us
i am
i on
Ġe s
Ġqu ae
er e
Ġs unt
o t
Ġd e
o p
Ġc um
i l
a nt
Ġ I
Ġa n
Ġs u
i o
Ġ E
ib us
Ġc on
Ġ A
Ġe x
Ġqu am
a l
Ġ S
Ġ C
e l
a g
Ġ D
om n
Ġm e
Ġd i
Ġes se
Ġ 1
Ġ omn
Ġ b
Ġqu i
e st
Ġd ic
en d
i h
t a
Ġa li
i ae
it at
Q u
i p
Ġp er
or um
Ġa ut
o re
t er
Ġf ac
Ġpr ae
r a
Ġ P
Ġ g
Ġi ll
r at
it ur
is t
i um
at ur
o b
ec t
Ġ Qu
Ġs i
i li
Ġs ed
n o
p er
Ġc o
om in
i r
Ġe n
Ġ N
Ġi p
qu am
en s
Ġh ab
Ġt u
Ġen im
Ġp os
c c
u it
e g
o st
Ġs c
i v
a re
u c
Ġe ius
Ġ M
un d
Ġqu id
Ġh oc
e b
Ġp ot
ar um
g n
ae c
Ġc om
Ġ 2
is s
Ġa p
Ġs e
an d
Ġ (
or t
Ġv er
Ġqu o
p t
Ġet iam
Ġip s
Ġt h
in a
č Ċ
Ġpos s
Ġ u
Ġa b
Ġaut em
a v
ih i
Ġv id
e ll
g o
f ic
Ġm ihi
im us
Ġ L
Ġs it
Ġ H
Ġ op
Ġv el
Ġi d
Ġe r
it a
er unt
Ġn e
ion em
Ġ R
Ġc a
c t
Ġa m
Ġa t
ĠD e
Ġ T
ul t
Ġ F
Ġan no
Ġpr o
Ġp ag
em p
l ic
Ġ Ġ
in g
Ġp ar
Ġt e
ih il
Ġc u
ion e
Ġpag ina
Ġin c
Ġali qu
is c
Ġap ud
er it
Ġv ol
Ġp l
et ur
Ġcon s
Ġ V
Ġi m
at us
r o
Ġth e
Ġn ec
Ġqu a
Ġn ihil
Ġqu ia
es s
Ġe a
li b
Ġt am
Ġm a
Ġe um
ib i
Ġm ag
un c
er t
ĠE a
ar i
Ġf uit
Ġpot est
us t
i g
Ġ un
Ġ B
Ġ G
Ġs ol
Ġ r
Ġt emp
Ġin t
. .
Ġa cc
Ġ o
Ġes s
u b
Ġpr op
er um
Ġsc r
Ġco nt
Ġ w
Ġcom m
in e
Ġe o
Ġm od
ul l
â Ģ
Ġs um
Ġat que
Ġh aec
re s
Ġ or
Ġf ili
ob is
Ġin ter
Ġf u
Ġs t
er i
Ġre s
ĠE t
Ġ lib
er at
t um
ore m
in c
e p
Ġh omin
Ġs ec
Ġ [
b i
Ġdi x
r i
Ġs ic
Ġp at
li g
Ġb on
f ect
0 0
in t
o v
a d
o qu
r an
Ġre g
e at
Ġan im
Ġa r
Ġ 3
Ġm in
en i
Ġ ita
r um
Ġ O
Ġc or
Ġc re
Ġt ibi
Ġomn ia
a p
Ġl eg
l es
at e
u pt
u li
er s
Ġn ost
und um
at um
Ġ "
it um
er is
Ġf ec
ĠI n
Ġne que
d e
unt ur
i ent
Ġv ir
at a
iss im
is i
Ġ1 9
ab ul
Ġo f
Ġa nt
Ġs p
Ġquid em
at is
Ġl oc
Ġe rat
Ġ ,
Ġ us
it er
Ġt er
Ġl oqu
Ġd ol
cc les
Ġqu is
ant ur
Ġn um
Ġs er
Ġinc ol
Ġe go
Ġ oc
Ġm an
Ġsu b
Ġp ost
Ġa ud
Ġm ult
ist i
Ġ U
Ġm ort
Ġca us
Ġa l
i fic
Ġ -
Ġ ob
l e
Ġips um
at or
end um
Ġin v
i or
Ġpr im
re m
Ġtam en
Ġd om
Ġomn es
Ġmod o
ĠĠ ĠĠ
es c
Ġscr ip
ur b
e o
p on
ĠD omin
ĠS ed
Ġn obis
Ġn os
Ġqu ibus
Ġvol upt
Ġincol arum
er o
Ġan n
it as
Ġmag n
i i
ent ia
Ġcu ius
Ġd u
er et
Ġim p
am us
ĠA n
ĠR om
Ġa g
av it
Ġs im
r is
is se
Ġess et
c h
Ġn isi
Ġsec undum
ud ic
al is
Ġn atur
Ġcomm un
x im
ion is
Ġaliqu id
u g
Ġqu em
Ġde b
Ġh is
at i
it us
d am
Ġg en
a ud
Ġa c
Ġs em
Ġver o
Ġ 4
Ġn ull
Ġa s
Ġ rat
Ġpar t
Ġan d
Ġv en
d ic
itat e
Ġi am
i is
Ġprae s
Ġer go
itat em
c ip
t us
Ġv it
Ġp ut
Ġv oc
Ġt r
il e
i re
Ġ urb
Ġ ist
i e
Ġe am
g itur
or m
Ġp ec
Ġre m
Ġant e
at io
on iam
r ae
p e
Ġill e
Ġt o
ĠN on
Ġco g
n e
Ġn unc
it t
l li
i unt
Ġt abul
ĠDe us
Ġ is
er n
Ġqu as
ent ur
Ġr erum
Ġsu per
s i
ia s
Ġhab et
Ġs an
Ġ Â
Ġex p
Ġre p
Ġca p
ic ae
u i
u x
and o
Ġ1 8
Ġip se
eb at
" \
Ġi udic
ant um
Ġe i
Ġc ur
ion es
Ġc iv
i at
Ġi lli
u ius
Ġam ic
Ġver b
"\ "\
st it
at em
Ġd isc
end i
d em
Ġdi v
Ġdix it
Ġi gitur
or is
er c
ore s
Ġap p
a li
Ġe ccles
Ġm al
Ġ âĢ
Ġn omin
Ġsic ut
it ud
en e
Ġd ec
Ġcu i
f f
ul o
ul um
u re
at ionem
ĠS i
ran c
em us
ĠQu id
e pt
Ġma xim
Ġd ed
Ġcom p
d it
Ġp op
Ġmort u
Ġill ud
h e
Ġqu oniam
Ġn ot
se qu
Ġd es
0 1
itat is
Ã ¦
Ġill a
Ġomn ibus
i ll
ing u
Ġme a
s um
an no
Ġsu a
ic i
Ġt ot
Ġint ell
Ġquo que
Ġe orum
Ġp u
in em
Ġ2 00
r am
re t
ub lic
r im
ic um
ic a
ent es
Ġ 5
Ġco gn
Ġmag is
Ġs ent
Ġtemp ore
er a
Ġdic itur
Ġ :
ĠQu od
ĠF ranc
Ġser v
o nt
Ġcon c
Ġh ic
Ġdi e
Ġe os
ir c
Ġre c
Ġoc c
d i
Ġomn is
itat us
Ġf ort
iss et
Ġposs unt
ent um
os c
Ġm ol
e li
Ġcaus a
Ġl it
Ġg rat
uc t
Ġscr ib
f fic
e x
Ġa ct
Ġcon f
qu id
Ġsem per
or i
, "
Ġus que
ĠRom an
Ġcor p
Ġ it
Ġc l
Ġs ine
Ġfac ere
Ġtu a
ĠC h
Ġs int
Ġill um
ĠA t
Ġv os
om en
v e
Ġp ublic
I I
Ġ Ð
Ġi ust
t in
Ġe l
o g
r aec
b us
Ġin f
Ġv iv
qu it
Ġf id
Ġpl ac
ic us
Ġsu o
Ġn am
Ġnum quam
ur a
Ġposs it
Ġprae c
Ġc ol
Ġse qu
Ġin s
Ġ '
Ġqu os
Ġf rat
ĠA m
Ġe is
ĠC om
Ġsi gn
Ġc ar
Ġmortu us
um que
or ibus
Ġips a
Ġl ingu
il is
Ġmin us
Ġ 7
ĠN am
Ġm at
Ġlit ter
Ġu bi
Ġper s
Ġf r
Ġdic it
Ġt en
Ġm is
ur ae
Ġde f
Ġcon v
Ġl ab
Ġcre d
Ġ 6
Ġprae ter
Ġs ibi
at ione
st ant
is p
Ġpr inc
Ġv obis
Ġsol um
Ġsu am
Ġ j
Ġs ae
Ġn ov
an c
Ġ J
Ġe p
Ġer it
as s
Ġf i
Ġs ap
Ġex c
Ġ2 01
or a
Ġpro v
Ġfec it
on g
ĠI ta
Ġbon um
Ġvid e
t o
Ġd oc
Ġcon sequ
u p
Ġop p
Ġop t
er m
Ġh uius
Ġcommun e
ul a
in is
od i
Ġde l
Ġb ene
Ġv is
Ġprae fect
ent iam
a ll
s it
o ed
Ġc irc
Ġquas i
ili a
.. .
Ġp a
an n
end a
ic et
Ġpr ob
Ġres pon
Ġmol est
it ia
Ġn eg
al e
Ġme um
Ġre d
o u
Ġali ud
t i
Ð °
Ġ y
ĠL at
od o
Ġc ae
Ġn omen
ent iae
Ġd omin
Ġt antum
Ġf orm
in o
ra v
Ġg l
Ġprinc ip
Ġvid etur
er em
ĠA r
Ġc ert
Ġ 8
Ġv est
ul ta
and um
Ġm em
Ġsum m
Ġprop ter
in i
ĠĠĠĠ ĠĠĠĠ
ĠDomin us
e a
un ct
Ġpar s
Ġcont ra
Ġfu g
ent i
i et
Ð ¾
Ġfac tum
it i
ar d
li us
ot h
on e
Ġal ter
Ġad h
ĠG raec
Ġu x
Ġs al
it e
re h
Ġn esc
ĠQu ae
Ġqua er
Ġnull a
g lic
u e
ic e
ul us
Ġpec un
Ġt um
ĠI s
. "
Ġe v
an s
) .
Ġa et
ent em
Ġ und
s us
im a
are t
Ġposs um
ar ia
Ġnatur a
Ġmaxim e
Ġre li
Ġvol unt
ĠDe i
Ġex t
i x
Ġe g
Ġ W
Ġqu ando
at o
Ġsu um
l um
t ut
Ġter ra
Ġsan ct
Ġim per
Ġm und
Ġt ran
p ic
ut a
Ġi us
Ġh om
er etur
Ġdic ere
Ġdi lig
itat ibus
Ġpraefect urae
Ġd uc
Ġnec ess
Ġv al
ul is
ed it
ĠQu i
Ġin g
ĠH oc
Ġill is
ĠDe o
es se
isc op
ep it
Ġt est
Ġ 9
Ġof fic
o li
v ers
ĠCh r
ect us
Ġs us
Ġill o
Ġ1 2
Ġab s
Ġcog it
Ġprim um
c r
glic e
Ġtemp us
Ġfili us
i os
Ġre bus
or d
Ġdi gn
Ġali quam
u v
Ġfac i
Ġsae pe
e qu
Ġintell eg
Ġcap ut
ĠCom itatus
Ġomn ium
Ġf am
e per
er b
Ġreg ione
Ġs atis
Ġpos se
Ġv ita
ut us
ĠA d
Ġre i
Ġex erc
Ġs ens
1 0
Ġt ab
ur um
ĠE ccles
Ġb e
"\"\ "\"\
Ġsap ient
o w
Ġh on
Ġm ut
Ġquae dam
Ġh um
er v
Ġv ic
Ġun um
Ġhab ere
Ġvir tut
ro g
ar is
Ġa it
Ġs aec
Ġacc ip
Ð µ
Ġhom o
Ġfac ta
Ġin quit
i qu
f er
Ġb eat
it iae
Ġme us
end o
t h
Ġcogn osc
Ġl ong
Ġhomin es
ĠM ar
Ġor d
e v
m n
Ġ1 7
ec ta
Ġtu um
Ġreli qu
t or
Ġi ure
ra d
i ens
Ġp et
Ġali a
Ġf ut
Ġ1 5
ĠE x
Ġi gn
Ġomn i
Ġ X
Ġm ed
Ġin d
Ġvit ae
Ġma ior
it is
Ġa ed
Ġtu am
Ġapp ell
Ġfi eri
ent e
ĠAm er
ion ibus
Ġi ur
cc e
Ġm ulta
ac t
m on
Ġc et
Ġst ud
p os
Ġvel it
a st
h il
io res
Ġips o
Ġloqu itur
Ð ¸
Ġsu p
it o
Ġpat r
em o
1 2
Ġver um
l y
ili um
Ġh anc
Ġcon i
d um
Ġ ull
p ect
Ġ |
Ġl aud
Ġ1 3
Ġtu us
Ġv eni
Ġhab ent
Ġf or
Ġh er
reh end
ra h
ĠP r
ĠH aec
er ent
Ġper tin
om odo
op h
Ġst at
ĠU t
Ġund e
Ġid em
Ġint el
Ġi is
ec um
ĠC um
Ġtu i
ĠC on
in de
Ġpr oc
Ġurb s
id it
ent er
ĠU n
Ġcon stit
Ġb ell
i f
Ġs en
in am
Ġi bi
Ġt im
Ġilli us
Ñ Ĥ
at h
st r
Ġ1 4
Ġdisc ip
Ġprov inc
Ġmolest iae
u um
Ġ1 1
Ġdol orem
it h
id e
Ġnomin e
Ġe m
Ġf l
ol l
ĠC ae
Â »
an a
Ġsu ae
Ġis ta
Ġintel lig
Ġ od
u per
Ġt ant
as c
Ġprop r
Ġfili i
a y
v it
in um
Ġm ens
ia nt
ĠDe um
Ġfac t
Ġw h
ĠF oed
Ġsub stant
A n
Ġann um
Ġeccles ia
Ġm un
im o
Ġist e
Ġp o
Ġex ist
Ġop ort
u erunt
Ġdom um
Ġali is
ĠL orem
p h
s a
v is
Ġs ac
ab o
Ġpl ur
erm an
Ġomn e
Ġer ant
" :
ent a
Ġp ul
Ġhomin um
ent is
l in
ent ibus
ĠS an
Ġl at
Ġ1 0
ĠQu am
Ġadh uc
Ġconsequ atur
ĠI ud
Ġprae dic
Ġacc us
Ġa qu
Ġa per
Ġm uli
Ġfac it
Ġloc o
Ġpot ius
ĠB r
Ġ k
Ġre x
Ġpl us
Ġpec c
Ġme am
Ġad m
av i
b it
Ġm or
Ġsu bi
Ġqu in
Ġ1 6
Ġdic ta
ã ģ
are nt
Ġsp ec
ur g
Ġtran s
Ġim m
ĠÂ ·
ĠI ll
c umque
Ġ K
or ia
io rem
Ġsi ve
Ġvolupt atem
Ġsign ific
Ġd isp
ĠQu is
f fect
um quam
it iam
Ġy ou
ir m
Ġcu p
Ġs oc
Ġd ub
an g
Ġlib er
ĠA b
eb ant
ĠP at
ĠO mn
i es
Ġop er
Ġun a
Ġre ct
il es
âĢ Ŀ
ili us
Ġid eo
ĠC iv
ari i
od ie
ĠA l
iv ers
Ġ ost
at ionis
al em
ĠM a
er es
Ġomn em
Ġmat er
Ġsu i
ĠCae s
Ġop us
t em
Ġa equ
it io
ĠT h
v er
h t
Ñ ģ
Ġ on
Ġa uct
Ġt unc
Ġnost ra
ĠA p
Ġde us
Ġg rav
Ġfu isse
ect um
1 4
Ġh e
an e
Ġopp id
u o
Ġips i
Ġw as
ĠâĢ ľ
Ġtam quam
Ġnost rum
Ġsim ul
an i
o unt
Ġsu is
Ġdi es
e que
en it
Ġomn ino
Ġfu erit
j us
s o
Ġaed ific
Ð ½
Ġp on
Ġsum us
er int
ac h
ĠAn no
n am
ĠI es
Ġtu ae
ĠG erman
Ġrat ione
Ġqu omodo
Ġad i
ĠSan ct
Ġd on
Ġcum que
Ġqu ant
ĠS ic
are m
itud o
Ġvolupt as
Ġpat er
Ġter ram
Ġm ov
as se
r ic
Ġd em
Ġd ist
Ġre gn
u erit
Ġn atus
Ġn emo
im um
ul os
Ġded it
issim e
Ġep iscop
x it
ar ium
Ġcont in
Ġita que
Ã ©
Ġbon a
issim um
E t
Ġdi ff
cr ip
l o
Ġm et
Ġmagn a
b ul
u et
in ae
eb am
Ġfac tus
Ġscrip ta
i z
Ġ Z
od em
an o
id er
an um
Ġth at
ĠI o
Ġposs imus
Ġverb a
Ġad d
Ġs ing
Ġex s
lib us
ĠFoed erat
un g
Ġut i
Ġloqu i
t ere
Ġc an
Ġh ac
Ġl uc
an us
l ar
Ġ li
il icet
Ġpart e
1 8
Ġd et
Ġ ult
Ġn oc
1 3
m a
t e
id unt
Ġqu antum
Ġp or
at ae
Ġhomin em
Ġrat io
ĠEccles iae
t r
Ġm il
Ġper fect
Ġcre atus
Ġpr od
Ġqu orum
Ġanim a
hil os
al es
Ġprae cip
Ġvolupt ate
I n
ĠI uli
% )
Ġquae st
en a
ux ta
Ġmal um
Ñ Ģ
in us
hilos oph
Ġcont r
em b
Ġsc ilicet
Ġin quam
Ġf it
li a
Ġdic tum
ĠP l
Ġsc ient
Ġpers on
Ġe ffic
Ġmod i
Ġtr ib
re g
ĠAmer icae
n um
itat u
av e
Ġess ent
Ġdol or
Ġaud i
i orum
ur i
Ġun ivers
Ġeccles iae
Ġf er
ĠFranc iae
1 1
Ġp ac
Ġaliqu a
and i
Ġant iqu
u a
v i
Ġqu ic
ic am
Ġad vers
Ġdu o
1 9
Ġlib ero
Ð »
Ġt rad
Ġcon d
Ġv ult
ent ium
ib ile
Ġdic o
ĠH ic
Ġverb um
ĠFranc icum
1 5
av erunt
Ġar g
Ġd um
Ġv et
Ġe arum
Ġqu Ã¦
Ġm on
Ġpr ius
Ġposs ess
Ġinv en
p lic
ĠR eg
Ġanim i
Ġprim o
a us
Ġ {
Ġe lig
Ġm ir
) ,
Ġ %)
ab it
ĠE r
Ġf al
Ġmult o
Ġc h
Ġut rum
Ġcons ul
Ġdeb et
l is
im e
Ġinv eni
Ġe d
le x
Ġquis quam
Ġcom itatus
Ġven it
Ġlingu a
iv i
Ġs a
Ġm and
Ġh unc
Ġdic i
Ġnec esse
1 6
Ġhab it
Ġpost ea
ĠE st
Ġm ot
ĠS p
Ġme lius
Ġcom itatu
Ġanim o
Ġob s
i atur
Ġh aud
Ġrat ionem
Ġeius dem
tere a
ĠDomin i
ĠIta que
erb um
Ġpul ch
Ġl ic
Ġann os
Ġf in
eb atur
Ġrespon d
An glice
n a
Ġe as
Ġc el
Ġam p
end am
Ġea dem
Ġar t
on is
ut um
Ġexp lic
Ġsequ itur
Ġfam ili
Ġp hilosoph
ĠP ro
Ġgen ere
ĠC ount
Ġhab eat
Ġaet ern
1 7
m o
Ġn ol
ul p
Ġsec und
Ġmis er
Ġt ert
ur us
Ġre v
ĠC an
Ġips am
Ġar bit
Ġsp ir
Ġ Ã
Ġin stit
Ġh odie
ĠN ihil
Ġim ag
Ġfili um
ĠRom ae
y pt
re d
Ġre f
ĠCount y
c ur
Ġa ll
at iones
Ġsc ire
Ġtu o
Ġrep rehend
Ġe cce
at ion
ut i
ab at
Ġex emp
at es
ĠA nt
ili o
Ġfid e
ĠCiv itatibus
ĠP h
eb it
Ġam et
qu i
Ġc r
Ġcol l
h ib
Ġt ur
Ġi uxta
Ġdic unt
Ġu el
Ġred d
ĠFoederat is
on em
ic ip
id i
Ġloc um
iv it
ic o
Ġsol uta
Ġcaus am
Ġdom us
y s
Ġl ae
Ġw ith
Ġme o
ĠÂ «
Ġpossum us
c e
Ġe odem
Ġill am
ali a
Ġb re
ĠP ost
Ġpro f
ic is
ĠP rae
and a
Ġtemp ora
Ġser mon
Ġcorp oris
ĠChr ist
2 2
in ta
ĠI d
Ġper m
k e
Ġb ib
Ġpar v
.. ..
itud inem
qu is
ĠA eg
Ġscrip t
Ġcog itat
? "
u is
Ġg aud
ens is
ar ius
Ġprae st
Ġpro fect
Ġmin ima
Ġun us
Ġhomin is
uet ud
Ġdic untur
Ġhab e
Ġcirc a
ĠA li
i gn
Ġd iss
id ent
Ġnatur ae
ĠIs rah
ĠIsrah el
Ġ .
er im
Ġa lic
Ġan g
Ġoport et
u ic
li m
ĠS c
"\"\"\"\ "\"\"\"\
l et
Ġpr om
Ġs o
on s
Ġat t
Ġaliqu o
Ġprim a
Ġimp edit
Ġpecun iam
ic h
ar io
Ġdic am
ĠN unc
Ġep ist
e h
on ium
end it
ess it
ĠAn glice
Ġneg ot
ĠĠĠĠĠĠĠĠ ĠĠĠĠĠĠĠĠ
l a
Ġc al
Ġquam quam
itat es
Ġ200 0
Ġman u
2 1
ent o
Ġloc utus
Ġhum an
Ġl ect
Ġdic endum
o x
ul g
Ġdix i
ac ob
Ġdic imus
Ġdol ore
isp an
Ġauct or
Ġde p
Ġfac iam
ĠT he
Ġcons uetud
Ġopt io
Ġe jus
Ġf inem
Ġven iam
eli m
m od
ul ae
Ġdic ens
Ġer unt
Ġdom u
Ġc ust
et is
Ġess entia
id em
Ġl ux
ant ium
Ġips ius
Ġdic t
Ġc op
Ġse x
Ġer r
Ġacc ep
Ġa v
Ġme ae
Ġdi ffic
Ġ2 0
Ġmort em
ĠAeg ypt
u res
ã ĥ
ĠC ur
ist is
Ġse pt
Ġter rae
l and
er ant
Ġthe y
" ,
Ġd il
ĠChr isti
m odi
ar t
Ġde i
Ġdi u
ĠÂ §
Ġexist im
Ġ &
Ġ umquam
ir i
Ġcl ar
Ð¾ Ð
Ġre cip
ĠI m
r os
Ġad v
Ġme i
o k
Ġh ost
) ;
ĠE go
Ġaliqu ando
Ġleg e
Ġcert e
Ġv ell
and ae
Ġmagn am
Ġsim il
r ob
it ionem
Ġl icet
Ġdi em
Ġpu gn
Ġelig endi
Ġvid entur
res s
\ /
Ġhomin ibus
Ġplac eat
Ġp ol
Ġl o
ĠI os
Ġmag ist
Ġnatur am
Ġdel ect
Ġgl or
Ġiur is
Ġbell um
Ġt ecum
ĠS t
Ġinc ip
ep h
Ġtabul at
Ġsup ra
Ġm y
ĠP et
Ġver a
Ġgen us
Ġux orem
X X
i arum
Ġv ig
ere b
ĠI nt
Ġsal ut
u ere
Ġe ff
Ġpotest ate
an u
o ur
li ae
Ġre per
Ġ2 2
Ġpa uc
p ar
issim a
Ġpop ulo
n is
Ġse u
Ġprop ri
Ġter r
Ġcorp us
Ġs per
Ġde inde
ĠC ar
ĠM ag
Ġal iter
it u
Ġm i
Ġin dic
iss ent
Ġhon est
Ġh ad
Ġtot um
Ġali o
Ġmult is
. ,
Ġd esc
ĠN ov
Ġpro xim
Ġmod um
ix it
ĠIes us
c us
Ġcon g
ip isc
Ġposs et
Ġvit am
Ġn ob
im ur
Ġ2 3
Ġacc id
Ġreprehend erit
r on
Ġd im
Ġper v
ĠP er
re n
ec es
ĠC at
Ġme li
âĢ Ļ
Ġlib ert
Ġfug iat
Ġu id
Ġpart es
Ġvoc em
Ġtu is
Ġ200 9
r ac
Ġv elim
Ġqu ot
ĠE p
. )
Ġp ae
Ġop in
unc ta
ĠIud ae
Ġcup id
a in
Ġsu cc
io eces
Ġpot entia
er am
al iter
Ġun o
2 0
ĠA s
ĠEr go
Ġp ort
Ġqua erat
Ġsumm a
emb ris
2 8
5 0
Ġm undum
Ġm itt
Ġips is
Ġma ius
Ġsus cip
ath ol
ul am
Ġali en
and em
Ġmult um
Ġcogit ari
Ġe qu
Ġn unt
ab itur
2 3
Ġl ac
ac cur
ĠA ut
ĠN ec
Ġquid am
Ġ2 4
Ġw e
Ġfu erunt
Ġiudic ium
n i
us s
ic t
accur ate
ect o
eb us
Ġn im
Ġd o
Ġali ae
Ġhab eo
Ð° Ð
i untur
Ġpr iv
Ġfac iunt
Ġlib ro
Ġput o
Ġfrat er
Ġdisp ut
2 6
Ġp ass
Ġin im
Ġf ur
Ġali i
Ġprae d
Ġcor r
Ġfort e
Ġgrat iam
Ġsa id
re nt
ul d
Ġsu os
ĠQu o
ĠQu ia
Ġvol o
II I
Ġarbit r
Ġ rog
Ġfort asse
Ġit erum
Ġpublic a
Ġdef in
2 4
u gn
ã Ĥ
in ct
at u
Ġprop os
Ġman us
p et
on d
ent us
Ġad ipisc
Ġth em
Ġtemp oribus
Ġtabul a
Ġten eb
p r
er us
at ibus
Ġc ulp
Ġf ere
Ġper ic
ep ta
Ġfr uc
Ġmem or
Ġprovinc ia
Ġrect e
Ġquae cumque
Ġfec isti
Ġlab ore
Ġquic quam
ul orum
Ġpu er
ĠUn de
Ã ¡
Ġe ffect
ur is
Ġi uv
ar iae
ĠD or
iss imus
Ġop era
Ġ19 4
' s
2 5
en ed
Ġut il
Ġpost quam
h et
on i
Ġper d
ir um
t u
Ġ <
Ġc as
Ġm ori
ion i
ĠA ug
Ġ2 6
Ġor atio
i it
n atus
Ġ ;
Ġa re
Ġn o
ant es
Ġali as
Ġ19 9
N am
Ġ /
Ġa est
ĠN eque
Ġdom o
er entur
an ae
iz ard
r as
Ġ q
Ġn ar
Ġm ecum
Ġnon dum
Ġinc idunt
h en
r b
Ġa ff
itat ionem
ĠL ib
ĠH ispan
Ġvir i
ĠSp ir
Ġm iss
Ġv i
ĠD av
ens i
Ġus us
Ġl ud
ĠH i
Ġpop ulum
Ġgrat ia
oth y
Ġfut urum
Ġa ug
Ġin i
Ġquod am
Ġfac ile
Ġquibus dam
Ġpop ulus
ann es
if est
Ġp ed
os s
ab is
Ġdi ebus
Ġpot uit
Ġaliqu od
Ġhomin e
Ġd am
Ġi ac
Ġf em
Ġg est
Ġann is
Ġas s
Ġpertin et
r ag
er d
ta re
Ġ2 5
Ġtest im
Ġl a
Ġfac ti
Ġloc us
Ġpu ell
Ġsent entia
Ġrespon dit
Ġnesc iunt
Ġval de
3 0
o od
Ġe u
er imus
re c
Ġh os
il em
lib et
Ġcor am
Ġnull um
Ġcog no
Ġsequ i
Ġs on
Ġde um
Ġann i
itud ine
Ġfort un
end us
ĠG al
Ġinter rog
Ġviv ere
Ġlingu am
l us
Ġs or
ic em
Ġf oed
ĠS ept
Ġvid ere
Ġsan e
Ġverb is
Ġlitter as
aret ur
l am
Ġp ret
es e
Ġag ere
Ġsent entiae
r u
ia l
Ġl ev
ion um
Ġsu as
Ġ2 8
Ġscrip tum
Ġurb e
Ġext ra
Ġs in
Ġca st
Ġam bul
ĠV erbum
ĠEt iam
Ġform a
ĠW izard
Ġ ra
it iis
Ġf ig
Ġsaec ulo
Ġconi unct
Ġn av
Ġm erc
Ġv eh
Ġi uc
Ġpublic ae
ĠAug ust
ĠDav id
ic orum
Ġh or
Ġre t
Ġad s
isc um
Ġma iores
Ġpat rem
Ġscrip s
ĠDomin e
Ġrep ell
Ġintell ect
ant ibus
ĠV ol
Ġnost ri
Ġd id
ĠA c
ĠP a
ĠN um
ost ol
Ġmult i
Ġurb em
Ġdiv is
N um
N on
ol og
Ġdiv ers
T he
p ici
Ġt a
Ġre lin
Ġme is
Ġlingu ae
Ġmund o
Ġoppid um
Ġd is
ul it
itat i
Ġper f
eper unt
k ed
Ġa ux
Ġn asc
Ġet si
Ġver s
Ġess em
issim i
Ġdu x
ĠâĢ ĵ
Ġcomp os
an ia
end is
Ġw ere
Ġpart em
Ġpraes ens
Ġcae lum
Ġher ed
Ġod io
ĠPro v
qu ir
it ae
Ġacc epit
y r
ol a
Ġill os
are s
ĠÂ »
u isse
qu a
Ġh uic
Ġpop uli
Ġtot a
Ġconv eni
Ġj ust
Ġull am
Ġexs pect
2 9
âĢ ¦
Ġanim ae
Ġcur a
r ip
am ur
Ġre lig
Ġad f
ĠC l
Ġvid eb
Ġar ch
Ġ3 0
Ġvide atur
en se
ul ator
ĠP om
in es
us c
Ġp al
Ġl e
Ġfili is
Ġof f
Ġman ifest
Ġcorp ore
Ġmuli er
Ġs ust
Ġf abul
ĠI I
ĠD ec
Ġmem oria
Ġsoc iet
p i
an is
Ġbon orum
Ġnull o
Ġ201 1
Ġadh ib
Ġign or
Ġp arum
et h
Ġl um
ĠI acob
Ġhab uit
Ġpat ris
ont e
. '
Ġf re
end ere
Ġposs id
Ġlab or
ur r
Ġ2 7
ert im
Ġor ient
Ġstat im
n it
Ġt ut
Ġsc h
Ġmund us
Ð º
Ñ ĥ
Ġa ffect
Ġf ore
en us
el li
ĠD ic
ĠP rim
ect etur
Ġth is
Ġdix erunt
Ġnost ro
f ac
r orum
en n
un quam
Ġre fer
ĠI p
ari is
Ġaud ire
Ġlitter is
ur am
id ie
Ġfid em
3 3
er os
on ia
Ġh ist
ĠI un
ĠI anu
Qu is
Qu id
Ġpar iatur
Ġaliqu is
ust r
Ġculp a
ĠDor othy
m us
r op
Ġin iqu
Ġdic is
Ġ2 9
ĠT um
ĠV id
Ġbon is
Ġleg em
Ġman um
ori os
Ġfrat res
2 7
Ġc ens
Ġde o
iv a
Ġquid quid
Ġmagn i
Ġmal a
Ġ201 0
Ġnesc io
Ġsubstant ia
Ġalic uius
p l
Ġm ar
Ġh ort
ar a
Ġre l
end ae
Ġar c
Ġcirc um
Î ¿
on iae
Ġd are
Ġv ia
Ġv ere
iss em
Ġaud ivi
Ġamic itia
Ġpecun ia
pect u
" ,"
r y
is ter
Ġt em
ac k
Ġu ol
Ġscrip sit
Ġsim plic
Ġtot am
ĠAt que
Ġord in
Ġdem on
Ġpossess ionem
e i
Ġc unct
Ġm er
ant e
Ġhab ebat
and am
Ġsol us
Ġas per
Ġcomp ar
Ġmil it
am p
Ġin de
ĠN ull
ĠM os
Ġ2 1
Ġbon i
Ġoffic ia
S ed
Ġ ro
op t
Ġu ero
Ġvid it
Ġreg em
Ġnost ris
ĠLat ine
Ġval et
Ġtant a
h o
ec it
Ġnon ne
Ġquam vis
Ġanim am
Ġinv ent
Ġas sum
ĠRoman i
Ġmund i
Ġmater ia
ĠProv inc
it ione
st at
Ġcons ectetur
Ġoc ulis
Ġsent entiam
quid em
Ġux or
h a
er g
Ġqu at
Ġm ent
Ġnon n
Ġb ut
iv e
Ġnum quid
Ġpraes ertim
ept um
Ġsae p
Ġsens us
Ġprovinc iae
ag e
Ġcons um
Ġs y
Ġp arent
Ġquae s
Ġan imus
Ġfac iat
Ġfac ilis
Ġreg is
Ġfec i
Ġtur p
Î ±
um b
Ġa gn
Ġn at
Ġv inc
Ġf el
ab ile
Ġtemp oris
Ġ19 7
Ġquis que
Ġlitter a
' t
qu od
Ġqu ar
Ġh i
ul c
00 0
Ġnum ero
am en
Ġh a
Ġ19 6
Ġdomin us
- -
3 2
Ã Ń
ut e
ec h
ent ius
Ġquae so
Ġprop het
Ġcont ing
D e
o h
r in
u am
at ores
et e
ĠM ed
Ġante a
ĠLat ina
Ġlae t
3 6
Ġpr imus
Ġde v
io re
ĠN e
Ġsc el
Ġprincip io
Ġarg um
Ġcust od
Ġ isti
Ġf und
ĠC ic
Ġper pet
Ġprae t
ep s
Ġcre atur
abul ator
Ġplac et
ĠQuam quam
Ġdiff er
crip t
g u
l ator
t he
it am
Ġc rim
ĠI tem
ĠD ol
Ġb est
ĠQu a
uc h
Ġpl ane
eni que
Ġist o
cr ib
Ġv iam
Ġv ix
ec im
ĠE cce
Ġposs int
Ġca pt
Ġfec erit
Ġdu ae
Ġeccles iam
Ġalter um
Ġaest im
Ġini ur
Ġv ac
Ġl ex
Ġad ul
Ġpot es
Ġdol ores
ĠU rb
bul ator
Ġpor ro
Ġn ati
que b
ĠS unt
Ġdic at
Ġsc io
Ġfili os
Ġamp lius
Ġintellect u
n on
und a
Ġgen er
ĠâĢ ĺ
Ġprincip ium
ĠPat er
qu o
qu ae
Ġex per
rat us
Ġcons ilium
Ġus u
Ġpa uper
Ġsal v
Ġsus c
Ġpropr ium
ĠIos eph
Ġh ave
Ġcon dic
ĠP ar
Ġcom ed
Ġciv itatis
Ġdec em
ont ific
Ġexerc itationem
Ġcet eris
ĠIud a
a z
e as
Ġ one
Ġd ata
Ġconc ed
ĠEccles ia
Ġpropr ia
r us
er emus
Ġs emp
im i
ĠS a
ra re
Ġanim al
Ġpraes id
Ġproc ess
Ġuti que
u ae
Ġqu are
oc rat
ĠC or
itat um
Ġaliqu em
Ġtestim onium
er ed
Ġs he
Ġp h
ul e
ĠE pic
Ġvid eri
ig ht
Ġ3 3
Ġal b
Ġsign um
ĠInt er
ĠIanu arii
i ebat
Ñ ĭ
Ġ Î
Ġt res
Ġf iat
Ġvid eo
Ġpart ibus
Ġdist inct
H aec
Ġa quam
Ġv ul
os e
ab atur
ili bus
Ġhab emus
Ġver itatis
Ġsit um
Ġvir um
Ġante quam
Ġmis it
ĠBr it
Ġsubi ectum
Ġost end
Ġregn um
Ġutrum que
e ant
o y
ã Ģ
ab ilis
ĠI am
Ġprae m
Ġg rad
Ġpro fic
res sus
Ġpecun iae
Ġaqu ae
c om
Ġre stit
Qu od
Ġam b
Ġpotest atem
int i
Ġcel eb
Ġm us
Ġt andem
Ġv im
et a
Ġhomin i
Ġnost er
Ġpost ul
Ġgen eris
Ġput as
Ġit em
Ġtest am
Ġecclesia st
Ġfre qu
r ibus
in d
ul li
Ġper t
ĠQu are
ĠL uc
ĠT u
Ġfili o
Ġloqu or
Ġpraes es
Ġurb is
Ġvolunt atem
Ġing en
C C
] .
Ġb ened
Ġcor de
Ġas c
Ġfr om
c um
Ġ ...
Ġp ere
Ġt ac
Ġt alis
Ġf e
Ġh arum
ant ia
ĠA g
ĠC ap
ĠF ac
Ġst ult
Ġnomin a
Ġten etur
Ġcet era
Ġdub it
Ġang el
Ġcomm od
Ġmagn um
Ġ 0
ur re
an iae
Ġquae que
Ġde pos
Ġcons ec
Ġamic itiae
Ġfug it
Ġvolunt ate
Ġsac erd
ĠOmn ia
ĠEp iscop
ĠBrit ann
in ist
at orum
Ġi r
ab unt
Ġfec erunt
Ġbene fic
eper it
Ġcorr upt
Ġsemp iter
! "
E x
Ġn unquam
re di
en iti
ĠE n
ĠC athol
ĠR h
ug h
ire t
Ġciv itate
itud inis
ĠIs rae
2 01
à ´
it ias
on om
Ġf est
en im
es imo
ĠE ur
Ġb land
Ġali us
Ġacc ed
Ġel eg
Ġsuscip it
u isti
Ġp e
ta v
Ġpl en
Ġcaus ae
Ġ201 2
Ġull a
i oc
r ib
Ġa u
Ġp en
id erat
av erit
Ġpl ures
Ġor b
Ġdes ider
Ġ200 8
Ġscrib ere
Ġhuius modi
i u
Î ½
Ġqu e
at am
Ġd en
ab ant
ĠR es
Ġcons ilio
Ġtabul ato
Ġact um
": "
ĠProvinc ia
um us
Ġt ra
or sus
ĠS al
si gn
"\"\"\"\"\"\"\"\ "\"\"\"\"\"\"\"\
Ġs il
in qu
ut o
et iae
id ere
ĠI t
ĠDe inde
Ġbon o
Ġ19 8
Ġob l
Ġgen erat
Ġoffic ium
Ġoffic iis
Ġfut ura
Ġmens is
Ġprofect o
i endum
m at
Ġm ore
Ġco epit
Ġhab es
Ġqua d
Ġma iorem
Ġcomm odi
Ġ3 6
Ġvir tus
Ġal t
ow n
Ġsing ul
ĠIm per
S i
in ibus
om e
Ġpot erit
erunt ur
ĠDomin o
Ðµ Ð
k a
Ġd orm
ic arum
id erunt
Ġpr os
ant em
Ġali am
Ġtabul as
Ġverb orum
Ġel ect
Ġquaer itur
ĠCaes ar
ĠIuli i
ĠIsrae l
at ionibus
on um
Ġali um
ĠV en
Ġcont em
Ġloc is
Ġexp ed
Ġdes erunt
Ġ200 7
di gn
Ġcae lo
Ġquin que
ĠPom pe
Ġf lum
Ġsu ffic
Ġen s
Ġhab itat
ĠL ut
Ġpl ura
Ġcons ol
Ġfu isset
ri x
ad e
ior a
Ġcomp l
Ġvirtut e
Ġind ig
Ñģ ÑĤ
Ġsecund o
Ġrelin qu
l ud
Ġ ot
Ġin u
Ġt oll
Ġse p
Ġfili ae
ĠO r
Ġmal e
Ġnot a
Ġocc up
Ġpraec epta
ĠAr ist
Ġfaci em
Ġbe atus
Ġglor iam
h or
Ġpr ud
Ġcons ider
Ġma li
Ġprop e
Ġinter p
ad em
Ġ3 4
Ġser mo
ĠAn g
Ġiudic io
Ġded isti
Ġact u
Ġel it
Ġsign a
Ġexc ept
Ġdomin e
ĠPr inc
ang eli
Ġan c
Ġfac ult
ĠM in
erum que
Ġar m
Ġsub s
Ġciv itatem
Ġnot are
Ġiust itiam
Ġquaer ere
Ġreliqu a
ĠOmn es
" .
3 9
Ġc ib
Ġc ant
ur sus
ĠS im
ens um
Ġposs ib
Ġcre dit
ill a
Ġopt ime
Ġlong e
iant ur
p s
Ġd ioeces
ur o
Ġf irm
Ġb y
eb antur
Ġver itatem
Ġqua erit
Ġmin or
Ġtr ia
Ġciv itas
Ġmaxim a
ret ur
Ġscrib is
Ġsumm um
ĠGerman iae
¿ ½
ï ¿½
Ġ ?
Ġd atur
ic ula
iam us
Ġsc it
Ġsol a
Ġsec um
Ġleg atus
Ġsp ect
Ġsen atus
Ġerr or
ab am
al a
Ġali os
Ġop ere
Ġnost ram
itt le
Ġcl am
Ġiust o
Ġinf in
Ġext rem
ĠCon s
Ġpol it
ĠEur op
. [
3 7
Ġin st
im ae
ol d
Ġde x
ĠE s
ĠA f
ag inta
ĠM at
Ġop erat
Ġ3 9
ĠDomin um
Ġiudic es
ĠRoman ae
ĠAt t
Ġconv ers
mod um
a pt
Ġ iter
Ġh as
Ġre lic
il iter
Ġposs im
ĠL a
Ġun ius
Ġsol v
Ġpat re
Ġ18 5
Ġconf irm
Ġiust itiae
Ġform am
Ġfaci es
Ġtab ern
3 5
å İ
re at
Ġv end
Ġg oth
Ġap ostol
Ġmin ist
Ġ19 5
Ġconc ess
Ġiust us
Ġplur ibus
l eg
ol is
ud i
Ġfac ilius
Ġthe ir
Ġess entiam
Ġput amus
ux it
Ġdef end
Ġoper am
Ġbre v
Ñ ĩ
ar n
ĠS to
ĠC al
ili i
Ġetiam si
Ġips orum
Ġsol lic
Ġw ill
Ġoc uli
oth er
Ġev eni
Ġnecess itatibus
Ġgoth ica
t is
Î ¹
er rim
Ġn ata
im is
ĠS ec
Ġdic eret
ĠR e
Ġun am
âĢ Ķ
Ġor i
ill e
ĠJ im
Ġcae l
Ġsapient ia
Ġobs erv
Ġ x
ae d
Ġd enique
Ġill ae
Ġtu as
ĠM ihi
Ġo ut
Ġscrip si
Ġrep et
Ġdixit que
Ã¦ c
Ġcirc iter
Ġbeat ae
Ġadi uv
Ġfide i
Ġiuc und
p p
Ġs h
am e
ĠS am
Ġg entes
Ġpat et
ĠSanct i
Ġult ra
Ġscient ia
Ġcupid itate
c i
o ut
Ï Ħ
ar s
Ġde lic
ĠA cc
ĠP ot
ob us
Ġips os
Ġven erunt
Ġpraes entium
Ġserv us
Ġy our
Ġeg et
Ġimper ator
Ġabs ol
Ġvirtut is
str uct
Ġfruc tum
Ġveh em
g e
is it
ot a
ot e
issim o
Ġserv i
Ġfid es
Ġdoc tr
Ġdel ectus
Ġaper iam
Ġspec ies
ĠMa ii
Ñ ı
Ġf iunt
ĠU bi
Ġob i
Ġnull am
Ġpart icip
Ġiust itia
Ġsus pic
Ġquant o
Ġexplic abo
Ġprofic isc
h at
s u
Ġ ort
li v
Ġpr on
Ġl ittle
ĠI II
ĠT er
ĠG en
res si
ĠRoman a
Ġfrat rem
Ġgl ad
ĠMar t
Ġod it
ĠIll e
Ġadvers us
Ġmiser ic
Ġsucc ess
tu or
åİ ¿
0 5
r ig
Ġs omn
Ġc ult
Ġsed es
Ġca d
ĠT ur
Ġpro hib
Ġint ra
Ġcomm end
ĠIn f
Ġus um
Ġapp ar
Ġact us
Ġlitter ae
Ġsapient iae
Ġrev ert
Ġdemon st
c irc
Ġ lig
it ium
em ur
ut is
ab antur
ĠP ol
Ġu p
Ġinc om
Ġea que
Ġprop ort
Ġmort e
Ġscrip tor
Ġtot ius
Ġpublic am
A d
u us
u imus
à «
er ta
at im
on ae
Ġm oribus
ip p
ĠP ers
Ġleg it
Ġdom i
ali um
Ġrec us
Ġnoc te
Ġmeli or
3 4
u as
u isset
ä ¸
er ibus
Ġf a
Ġex ter
Ġcons erv
ub ern
Ġ3 7
Ġann orum
Ġgen era
Ġded uc
e am
x imus
Ã ¢
Ġ Q
Ġs oli
it es
Ġpr orsus
Ġprae terea
ĠP is
ell um
ert um
ert ur
âĢ ī
Ġfili a
Ġinter fic
Ġleg es
Ġcommun ia
Ġrec ord
Ġalter a
ĠChrist us
Ġsalut em
e atur
Ġe dit
it ter
Ġc ot
ur as
ĠC ol
Ġse par
Ġdix imus
Ġant ep
Ġsan gu
Ġmal o
Ġlitter arum
Ġvest ra
Ġsens u
Ġmut ationem
Ġappell atur
Ġmun icip
Ġlo queb
Ġhist or
Ġsaep ius
Ġprocess us
A t
o gn
Ġ om
Ġc ess
Ġh orum
oc k
ĠS cip
Ġill ic
ĠN ost
Ġcons c
Ġcons pectu
ro w
Ġsum pt
Ġoc ulos
Ġimp et
Ġvoc abul
Ġist ud
Ġcomp rehend
Ġsubstant iae
Ġadd uc
r ia
id a
ere st
Qu ae
âĢ ľ
Ġmort ui
Ġdeb ent
Ð¸ Ð
Ġveni re
Ġsubstant iam
Ġvell e
Ġvig inti
pici atis
u itur
er ius
Ġa eg
Ġn em
Ġd y
Ġin dign
aec ati
ĠH el
Ġbon us
Ġreg um
Ġnost rae
Ġtr act
Ġ18 6
Ġamic i
Ġpraec epit
Ġconsequ untur
Ġdel eniti
Ġduc imus
Ġaqu a
Ġtrib un
Ġfal sum
Ġsacerd ot
Ā Ā
Ġ z
er er
Ġs is
Ġm ente
ab le
ab ilia
Ġcon dit
ĠS uper
Ġper itus
ell a
Ġpl erumque
Ġacc ept
Ġor n
Ġmagis ter
Ġconc lus
ĠX V
Ġunivers a
o uld
Ġe nt
Ġt urb
Ġi i
Ġf all
ent r
ol us
Ġqua eris
Ġanim um
ĠO z
Ġdu od
Ġdu as
itt ere
Ġpu eri
di u
ĠRoman us
Ġpers pic
Ġnov um
ĠIta liae
Ġepiscop alis
ĠVol upt
i erunt
o f
Ġs ese
on es
ur sum
ut io
Ġcon fic
Ġill orum
Ġhab eb
ĠM o
ĠM irum
ĠL eg
Ġmin ime
Ġleg is
Ġmult ae
Ġel ectus
erm in
Ġmem in
Ġfug a
Ġfact ionis
Ġpo en
Ġinvent ore
' ,
it y
Ġc ec
or g
ol ae
ĠM ult
Ġmag no
ust ra
res c
Ġleg ibus
de o
issim os
Ġ4 0
Ġtr ig
Ġded i
Ġlab orum
Ġnov i
Ġmem b
Ġabs c
Ġpecc atum
ĠAli quam
ĠRh od
n s
r ius
v ent
it or
Ġn ub
Ġm ont
Ġv ox
Ġi re
Ġh im
Ġl ine
Ġu ir
Ġvid et
Ġag it
Ġag itur
Ġbell o
Ġdiscip uli
Ġaccus amus
Ġadm inist
âĢĿ .
ĠAl p
Ġmot us
ĠSpir itus
Ġquat tuor
3 1
4 8
n atur
w ay
Ã ¨
Ï Ĥ
Ġ ur
at ore
Ġm om
Ġt y
ut ionem
Ġi f
Ġh ae
ia c
Ġprae f
ĠP ontific
ect i
Ġu erbum
Ġvid es
Ġpro eli
Ġ3 8
Ġnomin is
Ġocc as
Ġj udic
Ġalter ius
ĠZ eb
Ġperson ae
Ġterr arum
Ġpae ne
Ġinterp ret
circ o
Ġ os
Ġex ig
Ġper cip
Ġprae pos
ĠN o
Ġint eg
Ġimp ed
Ġvoc atur
ĠâĢ ¢
ĠCom m
Ġaccip ere
Ġmed io
Ġpac em
Ġpropri e
P D
g a
Ġ Y
Ġm entem
Ġre tin
se l
Ġdi g
iss a
ĠF ilius
Ġpat ri
Ġ3 5
ient ia
Ġnull us
Ġocc ult
Ġmol l
Ġcert um
Ġaet ate
ĠX X
ĠPr op
Ġpae nit
Ġpere g
ĠCathol icae
u eris
Ġd ur
Ġsc i
Ġam ore
Ġaliqu ot
rav it
ĠIll ud
ĠIo annes
Ġspir itus
ĠÂ» Â»
Ġassum enda
Ġmiseric ord
d a
er ere
Ġn oli
re ct
Ġt it
ĠI st
el es
Ġper fic
ĠR uss
Ġfu erint
Ġsp es
Ġvolupt atum
Ġcae li
Ġcogit are
Ġimag o
Ġlect orum
Ġfruc tus
. âĢĿ
Ġqu arum
Ġp res
Ġin qu
ĠC uius
Ġu oc
ert e
Ġvir o
Ġist is
icum que
Ġact io
Ġwh en
nam icus
Ġfal sa
ĠPrim um
C um
a u
Ġqu um
Ġp ig
Ġg ubern
ĠQu int
ens io
ĠM an
Ġvol umus
pon itur
Ġmagn us
Ġverb o
Ġnot ae
Ġscrib am
Ġlab orios
ĠGraec i
ĠZ en
Ġart ific
Ġadipisc ing
m en
s ent
Ġ uit
Ġs at
at orem
on a
Ġm ilia
ac ulum
Ġsu ff
ĠD em
Ġco ep
Ġsit a
Ġam or
ĠF eb
Ġor atione
Ġfili orum
Ġinter dum
Ġ18 7
Ġciv itates
Ġdec re
Ġepiscop us
Ġcond ita
Ġtert io
Ġsust in
Ġagn osc
4 4
H oc
p pe
Ġa f
Ġc ern
Ġm erit
em or
en is
ib ulum
Ġad eo
Ġdi erum
Ġfac ie
ra ph
ect ae
Ġloqu untur
Ġob lig
Ġinv icem
Ġcommun is
Ġdisc ess
ĠÐ ¿
Ġfid uc
Ġpatr ia
Ġcoll eg
ĠĠĠĠĠĠĠĠĠĠĠĠĠĠĠĠ ĠĠĠĠĠĠĠĠĠĠĠĠĠĠĠĠ
Ġconsuetud ium
ĠPet rum
Ġtrig inta
' .
E R
Ï ĥ
Ġdic atur
rat um
iv um
ĠV el
ĠV erum
Ġqua ereb
Ġcont emp
Ġmin ister
issim is
Ġser m
Ġman ibus
ior ibus
Ġsim ilis
Ġmaxim um
Ġgl oria
Ġvolunt as
Ġtab u
Ġsignific at
Ġsermon em
Ġsept em
Ġadipisc i
Ġdy namicus
Ġ ore
er as
is us
Ġp isc
Ġv ale
ĠE v
Ġcon stat
ĠS equ
Ġqui ppe
Ġu b
Ġvid emus
ell ae
Ġacc ess
le v
Ġpublic us
Ġplac uit
Ġpers piciatis
Ġconv enit
ĠAmer ica
Ġbland itiis
4 0
n us
n ae
Ã ³
Ġs od
at os
im entum
ar ch
ol e
Qu i
Ġtemp or
Ġlib ri
Ġ3 1
Ġsp em
Ġvoc e
Ġiudic ia
Ġconc up
Ġcar n
Ġhon or
Ġbeat um
Ġtim e
ĠCaes aris
lar itas
Ġfortun a
qua quam
L orem
f or
m in
Ġqu oc
Ġp re
Ġc entum
Ġd issim
Ġf ing
an quam
ab iles
ĠI ust
ĠP y
rat a
ect ura
ĠV ir
ert us
Ġdol orum
Ġvolupt ates
Ġdu os
Ġ4 8
Ġpec uli
Ġcap it
Ġocc id
10 3
Ġsaec ulum
Ġord ine
Ġquaest io
Ġalb um
ĠInf eri
I V
p lex
Ñ Į
Ġquod dam
ĠE l
Ġdic entes
Ġg r
Ġsc imus
Ġab und
ĠT emp
Ġqua ero
Ġnihil o
Ġint r
ad modum
Ġloc i
ior is
Ġdu obus
Ġdec lar
Ġocc ident
Ġconv ert
Ġdomin o
Ġvic tor
Ġord inem
Ġadvers um
Ġparv a
Ġdam n
S a
b at
m an
ut em
ĠA lex
Ġg reg
ob iscum
ĠN umquam
Ġhab etur
ĠM et
Ġab i
ĠB o
Ġexp et
Ġtot o
Ġfrat ribus
Ġabs que
Ġpraecip ue
Ġfamili ae
Ġarbitr or
Ġrepell endus
Ġadul esc
Ġdistinct io
A r
U t
c ta
o us
r it
Ġ á
Ġd ap
Ġin itio
Ġt ale
ar c
ĠD uo
ing s
Ġmult os
Ġimp rob
ug g
Ġamic us
Ġit in
Ġviv it
Ġmat rem
Ġvide antur
Ġvis um
Ġvest rum
Ġdign um
ast i
ĠOmn is
Ġorient alis
Ġdap ibus
4 6
m odo
t ae
v ol
Ġ *
ic os
Ġi ub
Ġl ap
ab or
no w
ĠN emo
Ġr id
Ġcont ro
ĠIn s
Ġinv id
Ġapp et
Ġintell ectus
Ġcred o
Ġopp os
aria nt
l ed
Ġ â
Ġ Ñģ
in s
on ius
Ġv entur
ant i
ĠS y
Ġfac iet
ens es
Ġposs is
Ġanim ad
Ġsp onte
Ġvolupt atibus
Ġimp l
Ġimp oss
Ġdeb eat
Ġ4 6
Ġ18 9
ept us
Ġnecess aria
Ġsapient iam
Ġluc em
Ġpulch ra
Ã «
Ï ģ
in arum
on us
em ent
li um
li am
Ġh odi
ar b
ec onom
Ġpr ot
Ġre quir
Ġfac eret
Ġne quaquam
ult us
Ġist am
Ġdiv id
ure ka
Ġocc urr
Ġpraec ed
Ġins ip
Ġux ore
Ġsanct i
Ġexerc itus
Ġstud io
Ġull o
Ġfact ae
Ġdet ermin
tr ib
Ġhos p
Ġlaborios am
Ġserm one
r ud
Ġh uc
ib ilis
ĠI V
Ġsu av
ĠD ixit
Ġb l
ĠQu omodo
Ġco uld
ens a
Ġhab ens
ĠM ich
und em
Ġu er
Ġu pon
Ġid circo
Ġo v
Ġo ur
Ġ4 5
Ġas ked
Ġamic um
Ġamic is
ĠâĢ Ķ
ĠMar c
Ġher es
Ġspec ie
Ġquant a
Ġed uc
Ġpropri et
Ġnob iscum
Ġcas u
Ġuol unt
Ġcunct is
ĠFeb ru
3 8
I T
l ina
n ull
Ġqu alis
ut ae
an am
ab untur
Ġex hib
Ġse e
Ġquo ad
ĠF l
Ġcons ili
ĠG all
Ġdix isti
Ġpat i
Ġnum erus
Ġsim ili
Ġsim ile
Ġ4 7
Ġist um
Ġexc ell
Ġopt imum
Ġpatr ibus
Ġinveni re
Ġsermon um
Ġhabe ant
Ġepist ulam
Ġsimil iter
ĠLut etiae
e unt
s c
Ġ å
in dic
Ġc uncta
Ġad mon
ac e
Ġcon stant
ili ae
Ġquid quam
Ġu erum
Ġo lim
Ġprop terea
Ġfu erat
inc idunt
ug ht
Ġapp are
Ġpa ulo
Ġpatr iam
ĠAp r
Ġcogitat ione
ĠEurop ae
? ?
D atum
I ll
b or
n unt
r ot
Ã ®
Î µ
Ġa eque
re p
an os
ul as
ac ed
op le
ĠS u
ĠQu oniam
Ġver itate
Ġam are
Ġint o
Ġint erest
Ġw ould
Ġinter ret
ĠO ct
Ġnum erum
Ġtr ist
Ġnot um
sum us
Ġgrat iae
Ġsequ untur
Ġcognosc ere
Ġwh ich
ĠÃ ¥
Ġcong reg
ĠIun ii
4 9
Ġn atum
Ġm alis
ur n
Ġan y
ĠC ont
Ġhab eret
Ġvid ebatur
ro und
Ġlib eri
Ġ3 2
eni re
Ġaud it
Ġquem admodum
Ġciv itatibus
Ġvehem enter
Ġmoll itia
8 6
b y
o que
Ġt incidunt
Ġv obiscum
om et
un e
Ġde orum
Ġali orum
ĠP ic
ĠQu em
ĠN omen
Ġth ere
Ġr ursus
avit que
Ġdeb itis
itt en
Ġ18 0
ĠâĢ ¦
Ġel oqu
Ġmot um
Ġauctor itate
Ġpol lic
Ġarch it
Ġcontro vers
2 00
I ta
m e
v ert
Ġe at
Ġqu ale
Ġm are
Ġin n
Ġb apt
Ġprae b
iss um
ĠT ro
ĠF ort
Ġpl eb
ĠV ale
Ġlib ris
ĠIn c
ĠRom am
Ġtabul is
Ġgrat ias
Ġnov a
Ġmolest ias
Ġprincip es
ĠSanct um
Ġquic quid
ĠPrae terea
T h
i rat
k ing
in n
ab ilem
Ġb r
est as
Ġver itas
ell us
Ġsol et
Ġacc eper
Ġmod us
Ġst ip
Ġdol oribus
Ġcaus is
Ġserv um
Ġpraec ept
Ġsapient e
Ġtant o
Ġmun us
Ġscient iae
Ġprius quam
Ġspir itum
ĠChrist o
ĠNull a
f ul
us quam
Ġc athol
Ġf ab
id um
ia b
ab ili
ant is
al d
ĠS um
ĠS it
ĠS em
ĠS ol
Ġvid i
Ġid que
Ġpro g
Ġpar ia
ĠV er
Ġinter f
ient es
ator is
pon ere
Ġvit ium
Ġtabul ae
Ġcap ite
Ġfrat re
ĠIta lia
inis ter
Ġdil ect
Ġeffect um
Ġrepell at
Ġlum en
ĠCic er
ĠAlex and
v erunt
Ġe quidem
in as
Ġc at
li o
Ġad or
Ġcon struct
Ġprae tor
ĠN os
Ġpos itum
eb o
Ġsol o
Ġar d
ĠO m
Ġrep udi
Ġpop ul
ĠAt hen
Ġquaer imus
Ġing eni
Ġpo ena
ĠAl b
Ġinven itur
Ġmemor iae
Ġcorrupt i
. ]
i em
å ¸
ic es
Ġv ex
ar g
ar unt
ul erunt
ed ere
Ġsu orum
Ġcon p
ĠS ch
Ġper c
Ġprae v
ĠL e
Ġor ationem
Ġlib rum
Ġlib enter
ĠO b
Ġmult ip
Ġprim is
Ġquem quam
Ġsem en
Ġocc aecati
Ġact ionem
Ġconv en
Ġsap iens
Ġreli quit
Ġvirtut em
Ġsubi ecto
Ġregn i
Ġexemp lum
Ġprof ess
ĠChrist um
ĠAegypt i
Ġmiss us
ĠAc adem
Ġparent es
l are
m et
p at
Ġe dic
Ġp rec
Ġf un
li d
Ġde fic
iss es
ĠH ab
ĠR ep
Ġr om
Ġacc idit
fect um
fect us
ient iam
Ġ19 0
ĠRom a
Ġexp l
ill um
Ġrec ta
Ġconf us
Ġfr uct
ass et
Ġaet atis
Ġdilig enter
Ġfaci endum
Ġbeat a
Ġoppid o
Ġaetern um
ioeces is
Ġeveni et
Ġori unda
4 7
8 8
Ġs ort
Ġqu al
or qu
id es
ul lius
ia lis
ot us
ĠI dem
Ġb elli
Ġdic amus
Ġvid erunt
ell o
Ġam at
ĠB ut
ĠB ib
Ġprop on
Ġdix erit
Ġfec isse
Ġloqu ar
Ġcommun i
Ġgen uit
Ġiudic em
Ġdiv ina
erc ule
Ġdomin um
Ġpo et
ĠIes u
Ġpropos itum
Ġperic ulo
Ġsy ll
Ġimposs ibile
i que
s ec
Â «
Ã ¶
Ġ )
er alis
us que
Ġp ict
Ġn usquam
Ġd a
Ġd own
Ġm end
Ġv indic
oc h
il li
ĠC n
Ġdi i
Ġposs ent
ĠT ar
Ġcu b
Ġcons ist
ep iscop
Ġaud iv
Ġamic o
Ġdisc ere
ill am
Ġdilig it
Ġpertin ere
Ġadm itt
Ġli gn
Ġdiffic ult
Ġcogno vit
ĠDec embris
ĠUrb s
ĠIt al
ĠOct ob
I ac
a k
m i
ae pe
Ġm ense
Ġin p
Ġin ius
Ġad dit
ag ina
atur a
ir l
Ġsc is
Ġab iit
ĠL ab
Ġam ant
Ġdix isset
Ġaud ivit
Ġmagn ific
Ġscrib it
Ġj am
ĠAr ch
Ġsanct um
Ġsaec uli
ĠAmer ic
Ġpertin ent
Ġmor s
ĠK al
Ġdisp os
Ġcr ud
Ġsper o
Ġexped ita
l u
Ġd at
Ġin sign
Ġt w
Ġv ulg
ar iam
ion s
und o
ĠL ig
Ġer ud
Ġer ga
ĠT ex
Ġlib eris
Ġcuius quam
Ġpraeter itum
ĠJ oh
Ġprov ident
Ġneg leg
Ġform ae
ĠGraec iae
ios um
Ġk itten
Ġoper ibus
ĠMa xim
Ġcontr aria
Ġmir um
Ġlic eat
Ġprofect us
Ġcust odi
ĠIp sum
Ġcreatur a
Ġdex ter
Ġconcup isc
Ġhodi ern
E st
r om
Ã ª
Ġi ura
ĠI bi
ĠS ocrat
ĠQu ibus
Ġpot erat
Ġne f
Ġqua dam
Ġo econom
res sa
Ġor ig
Ġreg e
Ġtr ibus
Ġsan cta
Ġamic os
Ġamic itiam
Ġcui que
ram mat
Ġinf irm
Ġcar itas
Ġdoc t
Ġvis us
ĠLat in
ĠLat inam
Ð¾ Ð»
Ġimper ium
Ġlaud antium
Ġstat u
Ġfl ag
Ġplur imum
Ġpor ta
ĠIuli us
Ġalien um
Ġaux ilium
Ġpe ople
B ut
M ont
e k
i episcop
m is
s h
ï ¼
Ġ =
Ġf inis
en c
od uct
ac ta
Ġcon dem
Ġper hib
Ġfac io
Ġprae par
Ġver y
Ġu is
Ġne x
ĠV est
Ġint ent
Ġreg es
ator ibus
ior i
Ġcomp et
Ġ200 6
Ġconf it
Ġpraec lar
Ġsumm am
Ġintelleg ere
Ġstud ium
Â» .
Ġfer re
Ġsecund a
Ġperv en
erus alem
Ġdid ic
Ġasper natur
ĠRes pon
ĠAlp ibus
1 00
e org
Î »
Ġp ess
ic ta
Ġv iae
Ġh ora
ar th
un a
Ġl aus
ĠE ureka
Ġquam diu
ĠS erv
Ġb ec
Ġg ra
ĠN orm
eb as
ĠH odie
Ġvol uit
ĠV al
Ġcomm emor
ov e
Ġsem el
pe x
Ġdiv itiae
Ġapp aret
ĠÐ ²
Ġnam que
Ġprinc eps
ĠJ es
Ġ201 6
Ġsumm o
Ġev er
Ġing redi
Ġdolorem que
Ġaccus antium
Ġscient iam
Ġpauc is
Ġnim is
Ġnim ium
ĠFebru arii
O mn
p a
s w
Ã ł
Ġe c
er r
Ġa er
Ġa ur
in k
Ġp ap
or y
im am
Ġre vers
Ġde os
al t
Ġdic as
Ġsc iam
Ġer o
ĠT e
Ġpl ant
Ġtemp orum
Ġess es
Ġfili am
Ġdu plic
ĠRoman um
Ġfr ig
Ġexerc itum
Ġmet u
Ġalic ui
Ġglor iae
Ġped es
ĠSept embris
Ġpret ium
Ġtra dit
, '
d en
p ecta
Ġa urum
Ġm isi
ic k
ic ulum
Ġv ad
Ġi b
Ġh inc
os um
el is
end as
Qu am
Ġfac ias
itur us
Ġsi g
Ġu erb
ĠL ingu
Ġreg no
issim ae
Ġtr ium
Ġsanct ific
Ġdon ec
ĠIo h
Ġli ke
Ġperfect um
Ġtert ium
Ġincip it
Ġtestam entum
Ġcontemp l
l em
m um
Ð ²
in ia
Ġc it
Ġn ut
Ġet c
Ġi oc
Ġf at
an em
ĠD el
Ġdi ut
est ig
atur um
ĠQu in
ĠQu ot
ĠH en
Ġinc red
ĠB el
Ġres ist
Ġleg ere
Ġvir g
ĠAn d
Ġdes ign
Ġserv it
Ġcar o
Ġcar nis
Ġord o
Ġmuli eres
Ġimm o
Ġdub ium
Ġref ert
Ġperm itt
Ġdiffic ile
Ġclar am
Ġlo ok
Ġutil itatem
Ġconting it
ĠPontific atus
Ġinterret e
4 5
t io
Ġa go
Ġn upt
Ġn ou
re icae
Ġin h
Ġt alem
Ġv inum
id o
os a
il lim
ĠE rat
ĠS ex
ĠD uc
itat io
Ġprae stant
itur um
Ġhab ebit
Ġat tin
Ġpotest as
Ġcont ent
Ġreg io
Ġleg atum
Ġfec isset
Ġag ain
Ġexp ugn
Ġcur ae
Ġiust um
Ġubi que
Ġgl ori
Ġbe en
Ġvirtut es
Ġappell antur
ĠTh reicae
Ġmand ata
Ġauctor itatem
Ġhonest um
Ġeffect us
Ġlum ine
ĠNost ri
Ġpig let
ugg y
å¸ Ĥ
5 9
F ranc
u f
Ã ¼
É Ļ
Ġ }
Ġs ta
Ġc av
Ġn ow
st in
Ġd ere
Ġv ari
Ġi ud
Ġf o
Ġf av
el icet
Ġg irl
und us
and us
Ġer am
Ġte x
Ġcons ent
ĠB or
Ġint u
Ġar b
ient em
Ġloc a
Ġob tin
Ġcuius que
Ġdeb ere
Ġdeb emus
Ġmortu um
Ġlat ine
Ġmemor iam
Ġpuell a
ĠAugust i
Ġcib um
4 1
] ,
d in
e um
h em
i ebam
r upt
Ġ æ
Ġs ome
Ġf ine
ar o
Ġad opt
ac tus
Ġdic ant
ip sum
Ġfac is
Ġprae di
ĠP or
Ġg entibus
Ġam oris
isc i
ĠB eat
Ġdeb etur
Ġexp rim
Ġ5 0
Ġcogn itionem
Ġrec eperunt
Ġcl er
Ġel em
Ġpa st
Ð° Ð½
Ġvest ri
ĠGraec e
Ġoffic io
ios us
Ġfam ilia
Ġmaior a
Ġveni unt
Ġsen ect
Ġwh o
Ġdub io
ĠCaes arem
ĠAp ostol
Ġoppid a
Ġmet us
ĠReg es
ĠNov embris
Ġteneb ris
Ġiuv en
Ġhor se
ĠNum quid
Ġrecus andae
Ġom itt
ĠHel v
ĠNorm ann
n es
á ½
Ġe undem
er ae
Ġn ig
Ġd atum
ut ione
Ġf ons
ar ing
ot um
ant iam
Ġsu us
Ġcon cip
Ġdic ebat
Ġper g
Ġsi ue
Ġpos uit
iv is
Ġpot entiam
Ġvid eretur
Ġne quit
Ġam o
Ġor ationis
ient ibus
Ġob liv
Ġprim am
Ġ18 8
Ġind uc
Ġcet eri
Ġk now
Ġtrans l
ĠSic ut
Ġdesc end
Ġlibert atem
Ġvi ol
Ġquar to
ĠSto ici
ĠRhod ano
Ġarchit ecto
Ġrepudi andae
? '
C h
C laritas
H ic
I X
N ihil
b urg
n er
z e
Ã ´
is que
Ġp asc
Ġc resc
Ġin m
Ġt ene
ol est
ĠS yr
ĠC unt
Ġali ena
Ġg entium
ĠM al
Ġth an
Ġinc id
Ġcons ult
ĠV os
Ġo ver
ĠO p
Ġman et
Ġman cip
Ġsub t
Ġist ius
ern ia
og raph
raec e
Ġcred unt
Ġneg at
rav erunt
Ġintelleg o
Ġdiscip ulos
Ġem pt
arent ur
Ġcr uc
ĠSept entr
ĠPis o
Ġnem inem
Ġsuff rag
Ġquoc umque
Ġanimad vert
Ġconstruct io
n ic
p agina
Ġ ï¿½
on am
Ġt ali
Ġt anquam
od um
Ġcon u
Ġex st
ĠD i
ĠP hil
ĠT unc
ĠV I
Ġtemp lum
Ġw ay
Ġres urre
ri end
Ġdom est
Ġact ione
Ġmat rim
Ġten ere
Ġsens um
Ġhum ana
Ðµ Ð½
Ġcognosc it
Ġdiscip ulis
Ġadm irat
ĠIll a
ĠCaes are
ĠAp ud
Ġmil itum
Ġaetern a
Ġtert ia
Ġnegot ium
XX X
Ġra p
Ġsch ol
Ġnonn ull
Ġduod ecim
A l
a i
h er
Ø §
Ġa iunt
in ium
Ġv an
en ce
Ġh unt
as i
ĠC irc
Ġtu os
ĠM ont
und ia
Ġu i
ĠH om
Ġsol is
Ġint ro
ĠEt enim
Ġcor d
Ġpart ic
Ġrem an
Ġcl aus
Ġinf ra
Ġcred ere
anc e
Ġfi eret
ann is
Ġred uc
ard ia
Ġalter i
Ġalter o
Ġvirtut ibus
Ġmed ia
Ġsup plic
Ġpatr iae
Ġost endit
Ġprod uc
Ġspir itu
ĠPrae s
ĠAegypt o
Ġmagist rat
Ġfoed us
Ġpron unt
Ġloqueb atur
ĠÂ»Â» Â»
I acob
a ur
a il
l end
s on
Ä ģ
Ġe ae
qu ire
it ionis
Ġp ud
st er
ant o
ĠE um
ĠS ent
Ġdic endi
Ġg reat
ĠV ide
Ġsol ent
Ġsp on
Ġdu xit
Ġvit ia
Ġdes in
Ġrec ed
Ġconf er
ĠRoman orum
ĠÐ ¸
ĠÐ ½
Ġcol lig
Ġvide amus
Ġdoc et
Ġgl orios
Ġev en
Ġeg estas
Ġnecess arium
Ġdign issimos
Ġconstit u
Ġaqu as
Ġmuli erem
Ġperson a
ĠThe od
Ġvell et
Ġproxim o
ĠHispan icum
Ġnasc itur
ĠVid etur
Ġconsum m
Ġfel ic
Ġfrequ enter
ĠTur c
H E
a h
c a
y l
Ġa us
Ġp un
at er
on io
Ġd ulc
un que
ab us
Ġb uggy
ip ot
Ġg et
ĠN esc
und i
Ġim b
Ġlib ros
ri ed
Ġsp e
Ġimp ort
Ġcui quam
ill ae
Ġintell ex
Ġexc us
ĠAr v
Ġsanct orum
Ġaccip i
Ġign is
Ġproc ed
Ġconstit uta
Ġquant i
ĠLib ero
Ġsor or
Ġsimplic iter
Ġdiffer entia
ĠSa x
ãĢ ģ
ĠSec undum
ĠMart ii
ĠTex iae
8 2
H ispan
b o
d uc
f t
y ri
Ġ +
it em
is h
Ġp ell
ae mon
or s
an orum
ol o
Ġut untur
Ġsu ad
ĠA ustr
el s
el y
Ġvid elicet
ĠL ectura
ĠT usc
Ġsol e
Ġleg i
Ġnatur alis
Ġcommun ic
Ġac ta
Ġpart im
Ġnomin atus
Ġdec lin
Ġpu erum
ĠRoman is
ĠÐ º
ĠJ ud
ĠGraec is
Ġius sit
Ġtest is
Ġreliqu um
Ġpet i
Ġquaest ionem
qui esc
Ð¾Ð ²
Ġteneb rae
ĠCic ero
Ġpen itus
"\"\"\"\"\"\"\"\"\"\"\"\"\"\"\"\ "\"\"\"\"\"\"\"\"\"\"\"\"\"\"\"\
Ġadminist rat
e y
m ent
r isti
t ur
or ium
ar ibus
ol um
Ġcon st
ĠS in
ĠC amp
ip s
omin us
ĠH e
ĠH uius
ĠF ret
ĠG eorg
ad a
Ġanim alia
Ġfec imus
Ġincol ae
Ġimp os
Ġ4 4
Ġvolunt atis
ios e
Ġvirtut um
Ġconi ung
Ġcoll oqu
Ġdil ectus
Ġdim itt
ĠMos es
Ġiniur iam
Ġquad rag
Ġcot idie
' m
5 6
7 0
] [
d o
d om
m ata
r ium
w e
er no
Ġqu andam
at ium
Ġc aec
ae n
Ġt alia
ol v
Ġut ile
ĠA ene
ĠS en
ĠS ac
ĠS ab
ĠD um
Ġb ack
Ġfac to
ĠP ap
Ġg ign
Ġg ood
iv ae
ĠM C
Ġpot eris
Ġpot entiae
Ġth en
ĠH eb
ĠH uic
Ġvel ut
Ġess entiae
Ġcomm ut
Ġsp lend
ĠNon ne
sequ i
Ġintell ectum
ĠAt qui
Ġinf orm
Ġux ores
Ġsal tem
Ġintelleg i
Ġconstit uit
Ġfl uv
ĠAb rah
ĠPat rem
ĠSanct us
ĠPl ac
ation i
ĠPet rus
Ġargum entum
ĠOctob ris
Ġcondem n
Ġiud ex
h n
Ġe andem
ic as
ic tus
Ġv icus
es per
ec erunt
ent issime
ant a
ĠA em
Ġb arb
Ġper fer
Ġg o
Ġg rammat
Ġpot uerunt
Ġab out
ĠL ud
ĠF uit
ĠĠ Ġ
Ġloc uti
Ġnum er
Ġoc ulus
Ġoc tav
Ġcaus as
Ġ4 9
Ġexp ect
Ġcap ere
Ġamic orum
Ġact iones
Ġconf ess
Ġinf eri
Ġcred imus
Ġnov am
iti arum
Ġabs ur
pos s
Ġfor o
Ġproc ul
ĠPat re
ĠIes um
Ġcontin entur
Ġpor no
Ġcel erit
Ġcoll oc
Ġperic ulum
Ġpal am
Ġpauper t
Ġpolit icarum
Ġaf ter
Ġsod alis
Ġcarn em
Sa int
Ġsimili que
Ġappare at
ĠArv ernia
I C
V I
a x
e f
p ed
à µ
at ius
Ġc are
Ġn ud
ent ior
il y
ant iae
ĠE odem
Ġb eni
Ġper cus
Ġfac iant
Ġg er
Ġpos ita
Ġsc and
iv id
Ġeius modi
Ġvid eat
ĠL oth
ĠL ev
ĠR erum
ub i
Ġcont end
Ġsec us
Ġreg i
ĠO cc
Ġillum in
Ġdomin i
Ð¾ ÑĤ
Ġveni at
Ġmun ere
ĠTh om
Ġsing ulis
Ġprod est
Ġnol ite
Ġeff ug
Ġtem per
Ġexcept uri
Ġinst rum
Ġdemonst rat
ĠPic ardia
P r
P rae
b a
c is
u erat
v en
Ã ¤
Ï Ģ
Ġ other
Ġqu int
Ġc erta
Ġd ile
Ġm o
Ġv ixit
Ġf iant
ar er
un iae
ac i
ĠA ct
ĠC et
ĠC ui
ĠD om
itat a
eb unt
Ġse ver
Ġposs em
Ġam itt
Ġvol uerunt
ĠB al
Ġreg ionem
Ġman s
Ġnos se
Ġrat iones
Ġurb ibus
Ġmal ed
Ġ5 6
Ġconc ord
Ġins ula
Ġrespon sum
ĠGraec os
Ġius ta
ios a
Ġmed ium
Ġproc ur
Ġmens es
Ġsac ram
ĠAl iter
ĠAp oll
Ġpac e
Ġmi ra
Ġlac rim
Ġnar rat
Ġfig uras
Ġperf ecta
Ġro go
Ġsempiter num
ĠNo e
Ġmultip lic
Ġattin et
ĠBor uss
A T
O R
t on
v a
Å į
á »
Ġin est
Ġv o
Ġet enim
ĠA quit
ĠC r
Ġb eg
Ġpot ui
ĠF T
Ġma j
Ġres pic
ran g
Ġar ma
uli el
ient e
Ġvir is
Ġdol ere
Ġoc to
Ġrat ion
Ġurb es
Ġapp lic
Ġpu ero
Ġdef unct
Ġbene vol
Ġnesc it
Ġev angeli
Ġtran se
Ġhon ore
Ġhon orem
Ġ17 9
Ġign osc
Ġoport ere
Ġcan on
ĠPl at
num er
Ġlic ebit
Ġamp l
Ġdesc rip
Ġlac us
ĠPa ulus
Ġasc end
Ġá ¼
Ġaudiv imus
ĠNormann ia
Hispan ice
7 9
@ Ą
A li
P ost
p ot
s ed
ä »
um entum
Ġs ter
Ġn ulli
Ġm ox
Ġm onte
ar y
Ġl eo
ac tum
ab imus
ĠD iet
Ġme as
Ġb oy
itat ur
ĠP raec
Ġsed is
uc ibus
Ġth es
ĠT amen
isc us
ust rat
Ġfu i
Ġlib erum
Ġdix isse
eni ens
Ġman ere
Ġsem et
Ġpraes entia
Ġput ant
Ġvoc ant
Ġsuper b
Ġdiv itias
Ġdes iderat
og all
ĠJ o
sit an
Ġcert o
Ġimper ii
Ġconi ug
ĠCon f
ĠAp p
Ġdist ingu
Ġtrib u
Ġpac tum
Ġvet ust
Ġmot u
Ġpraest are
ĠIm mo
Ġsimil itudinem
Ġmanifest um
Ġvul go
à« ¨
Ġmom enti
Ġfiduc ia
ĠApr ilis
by ter
Ġcrud el
Ġcelerit er
Ġbeni gn
4 3
A R
U S
h on
m itt
o ec
p ta
y c
Â Ń
Ì Ħ
Ù Ī
at to
Ġc ito
Ġc ave
Ġm entis
Ġt rah
ar ic
ib ilia
ĠC umque
ĠD ie
Ġco eperunt
eb amus
Ġver bi
Ġips ae
ĠH is
Ġat trib
Ġpl ena
Ġcre at
Ġfec eris
Ġvir os
Ġven isset
Ġput a
Ġvoc avit
Ġcomp ut
ĠRoman os
Ġmis eri
Ġlong ius
Ġmed ioc
Ġstud ia
Ġintellig i
Ġintellig ere
Ġpecc ata
Ġimm ort
ĠIuli a
Ġmon st
aus e
Ġhabe am
Ġnunt ia
Ġcas us
Ġgest a
Ġnav ig
Ġaffect us
hor se
Ġbapt iz
ĠOm ne
ĠMC M
4 2
5 7
C ur
I N
y d
Å ĵ
Î º
Ð ¿
ä º
Ġe le
Ġs ag
Ġc entes
Ġd abo
or ta
or sum
en um
es iae
un ae
ant er
el a
Ġb ore
ĠQu ir
ĠM aria
and is
Ġ( -
Ġu en
Ġcu jus
Ġreg ionis
eris que
Ġloqu imur
Ġinv oc
Ġprim og
Ġmagn ae
Ġmagn itudo
Ġput at
Ġcur sus
Ġciv ium
Ġeccles iis
Ġsent ire
ĠFranc icus
Ġgrat is
Ġcl ass
Ġ7 0
Ġpers uas
Ġfr ustra
Ġconv iv
Ġopp ugn
Ġprob are
ĠMar cus
Ġord inis
str u
Ġwh ere
Ġdisp lic
Ġrect um
Ġpon d
Ġdem um
Ġhabit avit
ĠPost ea
Ġatt end
Ġaccep imus
Ġhost es
ĠCat ala
ĠSpir itum
Ġarch iepiscop
Ġnat os
ĠCap ut
ĠEn n
Ġsubs ist
Ġextrem um
Ġdoctr ina
E T
E go
b l
s al
t y
u erint
w ard
Ä «
Ð ´
Ð ¼
Ġ Ä
Ġ é
Ġ umb
at ia
on o
Ġm atur
Ġf ra
Ġf rum
id erit
Ġad sum
ac ium
Ġut inam
io us
ĠS oc
ĠS aepe
Ġme os
Ġomn ipot
Ġdic endo
ĠQu ando
ĠN isi
ĠM ulta
und e
Ġver ius
ĠL ae
Ġer is
Ġun quam
ep i
issim am
Ġman e
Ġob t
rem us
Ġ4 3
ont o
di xit
Ġins id
Ġfr u
reh ens
Ġsanct us
Ġimper io
Ġing ressi
oli a
Ġdign itate
Ġexerc itu
pect um
Ġcup io
Ġliber os
Ġmater iae
Ġtrad idit
Ġrev oc
ĠAnt ioc
ĠPh ara
ĠPh aed
Ġav ar
Ġfem inae
Ġdemon str
Ġmer idi
Ġadul ter
ÑģÑĤ Ð¸
ĠPrinc ess
Ġinfin itum
ĠCatala uniae
r ica
u er
w h
Ñ ħ
it orum
am entum
Ġm uch
Ġv as
Ġh ere
Ġh Ã¦c
ul arum
ĠE z
ĠD ioecesis
Ġme orum
ta x
ĠQu orum
ili or
Ġposs ibile
Ġvel is
Ġr u
ine at
ull y
ap h
ĠAn glic
ĠAn nis
Ġsim ilia
Ġsim plex
Ġ4 1
Ġven erit
ĠÐ ļ
Ġpraec eptum
Ġlingu is
Ð¾ ÑĢ
fer re
Ġmaior is
ĠCon c
Ġtant ae
ĠFoed eralis
Ġperson am
Ġfamili ar
Ġrev el
Ġimag inem
Ġbib endum
Ġgaud io
Ġcal am
Ġconsuetud o
Ġopin or
pr ice
rin sec
Ġfa ucibus
6 0
f ore
x erunt
Ġa ffic
is e
Ġp iet
Ġn a
Ġn it
Ġn uper
Ġm ust
Ġin quis
ut rum
Ġi unct
Ġf riend
ent orum
Ġad u
ĠE m
ĠP ort
ĠP ublic
ect io
ir st
iss emus
Ġvol ut
Ġpl an
ĠV II
ĠB est
Ġacc ur
Ġcont um
Ġcomm itt
ran s
ap p
ĠU N
Ġob iit
Ġpraes um
Ġvoc ari
stit it
Ġsicut i
Ġpop ulos
Ġserv os
Ġgrat um
Ġfrat ri
Ġdoc uit
ĠLat inae
Ġsaec ula
Ðµ ÑĤ
Ġlong um
Ġtant i
Ġpo eta
Ġmov etur
Ġeffic itur
Ġch risti
Ġmand atum
Ġpulch errim
Ġrespond ens
Ġredd ere
Ġperm an
Ġgaud ium
Ġnegot io
Ġconsuetud inem
Ġcop ia
Ġinim ic
Ġpuell ae
Ġmerc ed
Ġamb ig
Ġcontem n
Ñĩ Ð°
Ġcael orum
Ġproport io
@Ą ą
O N
e z
g uis
m ae
Ġ $
it os
Ġc od
re e
re al
Ġin op
or p
Ġv ade
Ġpr odi
il itate
Ġan sw
ĠE ph
ĠC am
ĠC erte
Ġtu orum
Ġvid imus
Ġvel uti
ess et
Ġma ll
Ġma de
ari os
ĠB er
ĠG uliel
Ġcomm ent
Ġnost i
Ġpraes entem
Ġvoc es
Ġiudic are
Ġdes id
Ġ5 7
Ġsent io
Ġserv o
Ġscrib o
Ġviv unt
Ġcar ne
Ġdef ens
th ag
ĠCon sequ
Ġpropr iam
ĠPat ris
Ġaudi erit
Ġphilosoph us
ation um
Ġexemp lar
Ġdiss er
Ġepist ula
Ð¾Ð ¼
Ð°Ð ¿
Ġnar r
Ġra dic
Ġir r
Ġpossib ilia
Ġobi ectum
Ġmunicip ium
T or
Ġ unt
Ġqu icumque
Ġc am
em pt
ur p
Ġf erm
ar m
Ġad t
ot ae
ĠA ch
Ġdic eretur
end os
Ġhab eri
ĠM e
ĠM olest
Ġap t
ĠL u
erit as
Ġvol uerit
Ġcons iderat
Ġr ob
Ġprop inqu
Ġsub l
Ġaud ac
Ġag endum
Ġist ae
Ġciv es
ĠRoman o
Ġing ressus
Ġaccip it
iens is
Ġind ivid
Ġmaior ibus
Ġfor nic
Ġadm ir
Ġsubi ecta
Ġaequ um
Ġluc et
Ġantiqu a
Ġphilosoph iae
Ġdiss ensio
ĠAegypt um
Ġhonest e
Ġ/ /
Ġcast ra
Ġfig ura
Ġiuc undum
rop ter
Ġbenefic ium
ĠImper ii
Ġantep on
ĠMo ys
Ġpoen am
Ġquadrag inta
ĠEz ech
6 7
E cce
d u
m ut
r ici
v el
Î ·
Ġ urg
Ġa ure
Ġs ati
in vent
Ġp ign
Ġc ent
Ġf ont
li ed
Ġh ercule
Ġquod cumque
ĠI gitur
ĠA v
ĠC ant
Ġg re
ĠM us
Ġquo quo
Ġu ide
Ġu iu
ĠF ab
Ġaliqu i
Ġcons on
ĠV is
Ġun i
Ġint us
Ġacc om
Ġnost ros
ient iae
rem o
Ġsim iles
Ġ4 2
Ġpraes enti
Ġput et
ux erunt
Ġdiv in
Ġcorp ora
Ġ6 9
Ġux oris
Ġdign a
Ġbeat i
Ġpet ere
An no
Ġvet eres
Ġpossess io
Ġfal s
Ġart is
Ġalien o
Ġ194 6
ĠGal li
Ġsin ist
olog iae
Ġnasc untur
Ġconveni re
Ġsociet atem
Ġiniur ia
ĠArist ot
ĠAf ric
Ġpereg rin
. :
C om
I t
y n
Ġ Å
qu ot
is iones
Ġp om
Ġp ontific
Ġc and
st i
Ġt ol
or am
Ġf ung
Ġh el
ed i
Ġad eptus
il itatis
ĠC o
ĠC el
Ġb is
Ġfac erem
no v
eb is
Ġver sus
Ġvid isset
ro ugh
Ġbon ae
Ġmult as
Ġdu abus
dic t
Ġmaxim am
entes imo
ĠÐ ´
Ġten et
Ġ201 3
Ġopp rim
Ġprincip ia
Ġsanct o
Ġduc e
Ġnecess ario
Ġbe fore
Ġlong a
Ġlaud em
Ġfor sitan
Ġsen atu
Ġpropr io
Ġmun era
ĠGerman ia
Ġdon um
Ġprod uct
Ġeffic it
Ġfin ibus
Ġaccep i
Ġvell em
ren ae
Ġdefin itio
Ġno uit
Ġdis per
Ġlaet itia
ĠEpic uri
rius que
ĠInferi ori
Ġinn oc
ĠAquit ania
b est
r arum
r icus
w n
Ġ ë
Ġ Ã¦
Ġs ect
Ġs tare
it iones
on ii
Ġt ang
li x
id ium
ent iis
Ġre dem
ac ula
ot o
il itas
ĠI ap
ĠE bor
Ġex aud
Ġper se
Ġill uc
ect or
Ġsc iat
ĠM iss
Ġquid d
Ġcom e
ĠH er
ĠV III
Ġma iorum
ĠEa dem
ĠB urg
Ġw or
âĢ ĵ
Ġinter esse
Ġres id
Ġlib erat
Ġpat res
ĠIn de
Ġdol oris
Ġman sit
Ġ- -
Ġcommun em
Ġurb icula
Ġciv is
Ġdec ern
Ġ5 9
ĠÐ ¾
Ġcol or
Ġpers ec
Ġpraeter ita
Ġvide or
Ġconsequ i
Ġpraefect us
Ġduc ere
Ġfaci atis
Ġfaci ebat
Ġvic t
Ġull um
Ġconstit utum
str uc
Ġpraedic atur
Ġquin qu
ãģ ®
Ġaequ o
Ġsing ula
Ġperfect io
Ġexemp lo
ĠPh ili
ĠPost quam
ĠAs s
Ġcorr ig
pr oduct
ĠIp se
Ġquar tum
Ġgrad us
Ġpert urb
ĠEs se
ĠJoh n
ĠPhaed rum
V III
h i
n de
t es
t ing
Ġe b
Ġs el
Ġs imus
Ġp eperit
on ensi
Ġd er
Ġf ast
en na
id ae
Ġl ectus
ab ar
ĠE ius
ĠA ud
ĠS el
Ġdic ebant
itat ione
ens em
Ġhab itus
ĠM il
ĠM aced
Ġpot erunt
Ġver t
ĠT ert
ĠT orqu
Ġinc on
ĠV ic
Ġor ta
Ġres crip
ĠO pt
ĠO ffic
Ġfec erat
Ġter m
ug iat
Ġexp os
Ġrep lied
Ġocc ur
eli um
eli us
Ġins ulae
Ġmem ini
Ġsal us
ĠUn ivers
Ġepiscop i
Ġcontr ario
Ġtur pe
quis que
Ġlux ur
âĢĻ .
Ġdivers a
âĢ¦ ]
Ġdev or
Ġvul n
Ġceleb r
Ġorb em
ogn osc
Mont real
ĠJes us
poss ibile
Ġvolut pat
Tor onto
E S
G raece
l ant
l av
y m
y mn
Ð ±
Ġe y
Ġs urg
Ġqu est
at ed
Ġt ard
Ġv ar
im ini
Ġl orem
Ġut riusque
il itatem
ĠE quidem
Ġper i
ĠP al
Ġg em
no x
Ġhab entur
iv o
ĠM erc
Ġpot ens
Ġpot issimum
Ġer ip
Ġpro i
Ġcons ens
Ġma y
Ġma ximus
ari orum
ig h
ĠG rat
Ġacc essit
Ġmin orem
eni unt
Ġmult itudinem
Ġinv estig
rae sent
Ġciv ibus
Ġnomin ibus
Ġdes ert
Ġfort itudo
Ġconf id
ĠAt h
Ġiust ific
Ġfrat ris
Ġalter am
Ġaet atem
Ġsatis fac
Ġsens ibus
Ġdiscip ulus
Ġdiscip lin
Ġmater iam
ver ter
Ġgrav is
Ġfin es
Ġrespond ere
Ġbre vi
ulg ate
Ġcong ue
Ġfem ina
ĠGal liae
eth er
Ġquaes itum
Ġph ys
Ġminist rorum
ĠOz ma
ĠMich ig
ĠAbrah am
ĠLud ov
ĠLoth aring
Ġprimog en
5 1
8 0
A P
C on
M an
c ere
k s
r id
u jus
v m
á ¿
Ĩ ĳ
Ġa ere
it avit
Ġp urg
Ġc m
Ġc ame
Ġm ari
Ġh eb
et um
ec c
ent u
ac ti
Ġut ero
ĠS us
Ġcom pon
iss is
av erat
Ġcons ilia
ĠV all
ig it
ĠB ene
Ġst up
Ġcor rum
Ġnum eri
Ġag am
Ġpraes c
Ġhabet is
Ġdisc ed
Ġit s
Ġcl ari
Ġform as
Ġcert us
Ġnecess itate
Ġreliqu erunt
Ġdiscip lina
Ġintellig it
Ġtrans f
ĠCiv itatum
Ġcontin et
lo ad
Ġpac to
Ġobs ec
Ġparv ulus
Ġang ust
Ġaccid ens
ĠHi er
Ġaug ue
Ġvalet ud
Ġcrim en
Ġcontem pt
Ġantep os
Ġabsc ond
ĠVir g
Ġoccident alis
ĠQuir ites
Ġcontum eli
Ġansw ered
5 3
8 9
D ixit
H e
L ib
M ar
b e
c o
r uc
s an
u os
Ġe arth
Ġa way
Ġc en
Ġd abit
Ġd ial
Ġm ores
Ġi ra
Ġi ratus
Ġf oll
ar us
ol it
Ġre di
ĠS il
ĠD isc
Ġdic emus
ta vit
Ġg essit
Ġeius que
av eris
Ġop eris
ĠR em
Ġam orem
ĠT HE
ĠF al
Ġpar iter
Ġpar oec
ro nt
ĠB on
Ġw ood
Ġor nam
Ġinter c
Ġar tem
Ġleg imus
Ġdol o
Ġsem in
Ġdec ess
Ġpu p
Ġ5 1
ĠÐ Ĺ
Ġ7 6
Ġmat hem
Ġdoc ere
Ġpa x
ĠAr g
Ġsanct ae
Ġtran si
Ġmut are
Ġconi uncta
Ġwh at
Ġexist imo
Ð½ Ñĭ
Ġvult is
Ġamp li
Ġcop iae
Ġcong ru
Ġperv enit
Ġequ um
Ġaux ili
Ġmilit es
Ġpraet orem
ĠEpic urus
Ġflum en
Ġcael est
Ġty ran
Ġpres byter
ĠAcadem iae
Ġsyll ab
ĠHelv et
ĠMCM L
ĠUN IT
A b
N unc
P rim
R es
i k
v s
Â §
æ ľ
Ġa ustr
Ġs m
Ġp eper
on y
Ġt ales
Ġv ent
Ġv ine
Ġi rac
en as
li go
ib ili
Ġcon l
ĠC ato
Ġb as
Ġb ro
ip so
orum que
Ġfac imus
ĠN ap
Ġhab itum
Ġhab ebant
av imus
Ġvid ent
Ġid one
ĠR ec
Ġim it
Ġpotest is
ĠG u
Ġter ris
Ġloqu etur
Ġloqu eris
Ġsub ito
Ġmult arum
Ġinv enit
ĠâĢ Ŀ
Ġnomin i
ene x
Ġcomp lex
Ġpublic e
Ġquos dam
Ġ6 0
ĠJ os
Ġ201 4
Ġconsequ ens
Ġing red
Ġdign itatis
ĠMar iae
ecta re
Ġstud iis
Ġstud ebat
ĠPr imus
ĠCon stant
ath ed
Ġspec iem
Ġpulch r
Ġfamili as
Ġscript is
Ġpraest o
Ġatt ing
Ġmagist ratus
Ġvig il
Ġdivers is
Ġsociet as
Ġingen io
Ġdex t
ĠQuint us
ĠIns ula
Ġcontrovers ia
Ġfra ud
Ġmathem at
( '
G erman
I nt
L at
W e
a se
a libus
h y
i atum
j ect
m p
t am
Ä ĵ
ç ļ
Ġ um
Ĭ ¤
Ġp anem
Ġn orm
Ġin numer
Ġv ici
Ġf orum
Ġf undum
en ae
ar it
ul ch
un icip
Ġre st
Ġut itur
ĠI up
Ġex pon
ĠS ub
Ġdic ti
Ġper dit
itur a
atur us
Ġco h
Ġco unt
omin e
Ġhab ui
ĠM on
Ġver ae
Ġth ese
ĠR eli
Ġca ll
Ġinc lud
Ġma iore
Ġ[ âĢ¦]
Ġreg iones
Ġar s
Ġoc ulorum
Ġsub d
Ġmult itudo
Ġmort is
Ġdom ibus
Ġag unt
Ġto g
Ġrep ugn
Ġdisc ern
Ġded ic
Ġmortu o
Ġdes per
entes que
Ġ5 2
Ġ5 4
Ġcogn itione
Ġmis erum
isp rud
ass us
Ġvest ig
ĠGraec ia
Ġsens it
Ġpet o
ast er
Ġsac ra
ĠQuis que
Ġhe ad
Ġcontin uo
emb er
Ġmand uc
Ġepist ulae
Ġfaciam us
Ġnim irum
Ġaff irm
Ġcogno vi
Ġperpet uum
ĠInter rog
Ġbened ic
ĠEpiscop us
Ġdioeces is
Ġedit ae
Ġproeli o
ĠEv angeli
ÑĩÐ° ÑģÑĤÐ¸
Ġunt il
ĠÐĹ Ð°Ð¿
' ll
) :
7 7
U M
V II
² ł
å ħ
ì Ĭ¤
í Ĭ
Ġ ç
um entis
Ġs inc
it ibus
Ġm eret
Ġm ill
Ġm art
et us
an y
Ġl en
ab iliter
il d
ĠC re
Ġb ig
Ġb ea
Ġdic tus
Ġper sequ
Ġg raec
Ġco eper
iv us
Ġquid dam
eb ar
ĠL and
Ġop ponitur
ĠG a
Ġinter v
Ġres p
Ġreg ibus
Ġar ti
ap ropter
ĠIn d
Ġter min
Ġal bus
Ġpart is
Ġput es
ern a
Ġrep raesent
Ġdiv inum
Ġ5 3
Ġplac ere
Ġvis a
... ]
Ð¾ Ð½
ĠGraec orum
Ġnesc iebat
Ġeg reg
Ġdilig entia
Ġ9 8
Ġdign us
Ġbe ing
Ġaccip iat
Ġmed ic
act enus
Ġtim ere
Ġprovinc iam
Ġplur ima
Ġgrav ius
Ġpon it
Ġdiff erunt
Ġult imum
Ġcond imentum
Ġart ic
Ġexemp la
Ġaccep ta
Ġpauc a
Ġcogno v
ĠMos ellae
com p
Ġacced ere
Ġanc illa
ĠProp ter
Ġpereg r
ĠPy renae
ĠAthen is
Ġpraev aric
ĠSocrat es
ĠÐĹÐ°Ð¿ ÑĩÐ°ÑģÑĤÐ¸
²ł ìĬ¤
íĬ ¸
²łìĬ¤ íĬ¸
A N
N isi
P l
S c
S ic
b er
s k
s ic
Ñ İ
å ®
Ġa round
it le
Ġqu er
Ġqu alem
Ġc amp
Ġd iab
or c
Ġv esc
Ġi act
ar r
id ia
oc a
ĠA dam
al itas
ĠS int
Ġ1 00
Ġsc ito
ĠM is
Ġu al
av is
Ġvid entes
ĠF ilium
Ġr ub
Ġprop in
Ġinter n
Ġlib era
oqu in
Ġreg ionum
Ġar te
Ġcre ata
esc it
Ġven erat
Ġvit io
Ġsan guis
Ġcap i
Ġded erit
Ġcorp or
Ġcar itate
Ġ7 9
Ġnov it
Ġfi x
Ġprov id
Ð° ÑĤ
oth ec
Ðµ ÑĢ
Ġem end
Ġintellig itur
Ġplur is
Ġon us
ĠSic ilia
Ġsermon es
Ġbib ere
Ġhabe atur
Ġquot idie
Ġaux ilio
Ġorient ali
Ġro om
Ġnonn umquam
Ġingen ium
Ġsil v
ĠAtt ico
Ġrelic ta
Ġhistor iae
ĠScip io
Ġline a
PD F
Ġoccident ali
Ġlign um
ĠLig eris
Ġbec ause
Ġvo ice
Ġprodi erunt
Ġë ²łìĬ¤íĬ¸
ĠLotharing ia
Ġaustr alis
5 5
E N
I tem
f ully
h ed
h op
l ine
p end
Ã ²
Î ¼
Ñ Ĩ
Ø ±
á º
Ġ ul
Ġs ursum
Ġp rem
Ġc ed
Ġn ullius
Ġin ut
Ġt al
Ġv esper
Ġi un
ec ess
Ġquae sumus
il a
Ġsu re
ĠC a
Ġb o
Ġali arum
ĠP os
ĠN az
Ġpot ero
Ġth rough
Ġu era
Ġab b
Ġvid erit
ell e
ĠL ond
ĠR ub
Ġpar iet
Ġcons ue
Ġr ust
Ġmod erat
res sum
eri es
00 3
Ġvir orum
Ġaud io
ĠU r
Ġprim ae
Ġmagn itudine
Ġdu orum
Ġag rum
Ġdeb eo
itud ines
ure d
Ġdes ertum
Ġ200 5
Ġpraec lare
Ġnov em
Ġfam a
Ġind ustr
Ġiur isprud
Ġ| |
Ġlat inam
Ġpraedic antur
ang u
ĠCaes ari
Ġon ce
Ġexs pecta
ĠFoederat arum
Ġperfect ionem
Ġquaest iones
Ġeffic ere
Ġconsul es
Ġobs c
Ġgaud eo
Ġunus quisque
Ġsept u
Ġ194 5
Ġvideb itur
Ġpossid et
Ġlabor avit
ãĢ Ĥ
Ġtestam ento
Ġangel us
201 5
Ġmemb ra
sel f
Ġpap a
8 4
P age
W hat
c uius
f l
i ani
p sit
s ur
x i
y p
Â °
Ñ Ī
à ¤
Ġa ir
Ġs enex
in orum
Ġp unct
am a
Ġd ari
Ġm ass
Ġin an
Ġt el
Ġt ulit
Ġv ias
Ġv ariis
Ġi uli
en o
es ima
ec i
ul atus
Ġpr ol
Ġre dit
oc r
ĠI ov
ĠA qu
ĠD es
Ġdi rect
rat i
quam ur
Ġhab erem
eg et
iv am
und is
eb itur
Ġpot erant
Ġvid etis
Ġop eri
ĠT ub
ĠF orm
Ġcons id
Ġcons pic
ĠB as
Ġcont entus
Ġst atum
Ġpat itur
Ġsp ons
Ġloqu ere
Ġman y
Ġcuius dam
di et
ĠAt lant
Ġpers u
Ġexc it
Ġopt imus
Ġrespon de
Ġ8 0
ard in
Ġeg ressus
Ġ12 9
Ġdign itatem
ĠAd m
Ġaccip iunt
Ġiur id
Ġpertin uit
ĠUn um
Ġaper t
Ġon ly
ĠSanct o
Ġmov et
Et iam
Ġcontr arium
Ġinven erunt
Ġphilosoph i
Ġaetern itate
Ġnol o
ulp a
Ġimag in
Ġnegot ia
Ġclar itatem
Ġmy ster
ĠCar olus
Ġproxim um
ĠAut em
Ġinim ici
Ġ199 9
Ġfortun ae
Ġtem pt
Ġasper iores
Ġment ionem
Ġgrad u
Ġconsec utus
Ġplen um
Ġorb is
ï¼ Į
Ġaccur ate
e atus
h el
o ught
u ia
v ille
z a
å ı
Ġ à«¨
er re
re st
Ġin esse
ic ia
ic ere
Ġv ulp
ut ionis
Ġf irst
li ane
om an
Ġes c
ĠE lis
Ġex am
Ġex itum
ĠC ast
ĠC oll
ĠD ion
Ġdic es
ist ae
ili am
Ġsed ul
Ġhab entes
eg o
ĠM er
ĠM el
ĠH ist
ĠH ung
ĠF r
Ġr is
Ġtemp est
Ġmod is
Ġst ell
Ġst ill
Ġsec utus
ĠO c
Ġdeb uit
Ġrat ionibus
Ġven io
Ġist uc
Ġiudic ii
Ġdiv inae
ali z
Ġcogn itio
Ġpublic um
Ġviv endum
Ġdicit is
Ġj uxta
Ġcae ter
Ġimper diet
Ġnecess itas
ow ed
Ġvirtut i
Ġfut uri
Ġpul v
Ġmor itur
Ġoper atus
arem us
tr ue
Ġvult us
ĠReg num
Ġscript ores
Ġhabe amus
Ġcal c
Ġhost ium
Ġsimil itudo
Ġpugn a
Ġaccid erit
âĢĻ ,
Ġuid etur
rent ur
Ġson um
ĠGal lia
Ġsch ola
Ġscel ere
Ġbest iis
Ġvac ua
ĠIoseph us
Ġecclesiast icae
Ġau f
Ġappar uit
Ġconclus io
Ġuir tut
Ġpercip i
Ġmisericord iam
ĠInferi oris
?? ??
Ġingeni i
Ġdexter am
Ġperhib eret
Ġmatrim onium
Ġcord is
Ġarchiepiscop us
invent ory
Ġaccom mod
ĠBurg undia
çļ Ħ
. Â»
P ro
h ing
i ata
n g
Ã ±
Ġ `
Ġa ures
Ġs ab
am enta
Ġm ob
re ad
or n
Ġi ung
Ġf il
Ġh ii
Ġh actenus
os i
Ġad ept
ĠE sa
ĠS ap
Ġdic etur
Ġg ess
Ġse em
Ġab omin
Ġer ub
Ġca li
Ġaliqu os
isc ere
ĠB ab
ĠG ar
Ġcomm ov
Ġinter dic
Ġreg ula
Ġinv enta
Ġprim i
Ġnos met
Ġag i
Ġput are
Ġvoc at
Ġtabul ar
Ġcap iunt
Ġcur r
Ġciv ili
Ġeccles ie
Ġnomin avi
Ġnot itia
Ġcred id
Ġ6 6
Ġpraeter ito
Ġopp ort
Ġvest ibulum
Ġux ori
Ġval ere
Ġbeat am
ev o
ĠX I
ĠX II
Ġcet er
Ġconi un
Ġod ium
Ġadi ung
ric es
Ġli m
Ġantiqu ae
Ġexplic at
Ġimag ines
Ġcr as
ĠIos ue
Ġdesc rib
ĠCat il
ĠIudae i
Ġlev is
ĠCl aud
ĠPom pon
Ġmilit ibus
ĠVen et
ĠPot est
Ġtribun alis
ĠIust o
Ġintr od
Ġcompet it
ĠIoh annes
rinsec us
Ġiurisprud entiae
8 5
A m
S t
f ex
h uc
l er
Ù Ħ
å Ī
Ġ osc
Ġe unt
Ġe quit
in ii
is on
nt abul
ae qu
ae que
Ġd iam
Ġt ellus
Ġv ect
om m
Ġh eri
os se
ec erit
ul aris
ib le
Ġre de
Ġre nunt
Ġl us
Ġad ol
ĠI deo
ĠE os
Ġex itus
ĠC ali
Ġfac ite
Ġg row
rat ur
ĠM ort
arum que
iss ae
Ġver am
Ġvid ens
Ġvid eris
Ġvid endum
Ġvid ete
ĠL ong
ĠH inc
Ġne pot
ĠT ibi
ĠF inn
Ġpl or
Ġcons u
Ġcons crip
Ġma ke
Ġr ight
Ġor ator
Ġinter fect
Ġmult orum
ĠU s
Ġinv is
Ġag imus
Ġag ri
Ġas pic
Ġis dem
Ġsuper ius
Ġconc lud
Ġdie i
Ġinf er
Ġdicit e
Ġ6 3
Ġexc og
ĠIta liam
Ġdoc tor
ĠGraec a
Ġaet as
Ġext ran
Ġoffic ii
ios i
erb a
Ġexerc it
Ġreliqu is
Ġtrans fer
ĠGerman icus
Ġcontin u
Ġtrib ul
Ġobs cur
ĠÃ ł
ĠAnt onius
Ġhuman itas
Ġauctor itas
Ġproxim e
Ġmeli orem
Ġutil itatis
ĠSpir itu
ĠHi erusalem
Ġret t
Ġscrips isse
Ġoff end
Ġsust ent
Ġrefer re
Ġsaep issime
Ġturp is
Ġinu en
Ġfacult atem
Ġdatur us
Ġperspic ere
Ġabsc on
Ġinterf uit
Ġfruct u
Ġtw o
Ġschol am
ĠFret o
àµ į
ĠAntioc h
ĠPhili pp
Ġarti fex
ĠDion ys
C an
d isc
i ed
i atis
p it
s unt
s ch
t t
t en
v id
é ĭ
Ġs ur
Ġs urre
Ġqu icum
Ġp end
Ġp urus
Ġn ationes
Ġd uct
re v
or io
Ġf as
ent io
ĠE o
Ġquam uis
ĠC aec
ĠC ras
Ġb u
Ġb el
ip at
ter um
Ġfac illim
Ġprae tere
ra que
itur g
Ġpos uere
eb untur
Ġpot uerit
av a
Ġsit us
Ġne ver
ĠF ilio
Ġpro fer
ert i
Ġsol ebat
Ġr isus
Ġr hon
ull a
inc eps
Ġbon am
Ġreg im
Ġleg o
Ġleg ata
Ġnost rorum
Ġ19 18
Ġman uum
Ġinv entum
Ġann us
Ġann unt
entia s
Ġvoc atum
Ġcur am
Ġeccles iarum
Ġdec imo
Ġtot us
eli x
Ġplac e
Ġpraec eper
Ġsign is
Ġcar m
Ġ7 5
Ġ7 7
Ġvide os
Ġprob arent
Ġ8 9
ĠQuae dam
ĠIs a
ĠIs ra
Ġdilig entissime
Ġval eat
Ġ12 0
Ġvic tus
ĠEx erc
Ġmaior i
Ġbell a
Ġsac ri
Ġmuli eris
Ġimm ut
ĠSanct ae
Ġmov eri
Ġepiscop o
Ġsing ulos
Ġult ima
ĠPl ato
Ġpulch rum
Ġaetern am
Ġref eruntur
Ġredd et
Ġbre vis
Ġprom itt
Ġdep rec
ĠMag ni
Ġaccid ere
Ġlac inia
Ġiac et
Ġfoed eris
The y
Ġconveni at
ĠCl od
ĠPrim o
opt ion
Ġment itum
ĠBritann ia
Ġcompl ect
Ġprud entia
Ġsangu ine
Ġaeg rot
ĠComm un
ĠIst e
Ġdiscess imus
Ġvictor ia
eunt e
Ita liane
Ġnex us
Ġperfer endis
Ġquint o
atto os
ĠEnn ius
ĠGuliel mus
6 4
A L
E D
I o
T emp
a uit
b um
i Ã¦
l at
n iae
y les
Î ¯
Ġ \/
Ġa st
in os
in ati
Ġqu ere
Ġqu ales
on ec
Ġc hil
Ġd ia
Ġm edit
Ġm ille
Ġin j
em a
ut ate
Ġi l
Ġf erunt
Ġf ert
Ġf oris
un s
Ġl et
op ere
ĠS at
ĠP hilosoph
Ġg e
Ġill ust
ĠQu os
ĠN or
eg it
ost oli
Ġquo libet
Ġposs emus
Ġab est
ĠH a
Ġop es
ult ur
emp e
Ġaliqu ae
Ġvol ui
ĠB av
ĠB ellum
ĠG ab
Ġacc eperit
Ġor itur
Ġst r
eri is
eri que
ad es
eni at
Ġleg ati
abul a
Ġaud ita
Ġaud itum
ill is
Ġ5 5
Ġscrib endi
tin am
Ġins ulam
Ġmat re
Ġmat ris
Ġ201 5
up id
Ġred dit
Ġdilig ere
Ġduc es
Ġcognosc itur
Ġfact urum
ount ain
Ġantiqu os
Ġinveni untur
ĠId us
Ġhabe as
Ġcop iis
Ġpauc i
Ġopin ione
Ġpuer os
ĠHispan iae
Ġiac ulis
Ġrel ati
Ġbened ict
ĠEpiscop i
Ġir asc
Ġort us
Ġoccas ionem
ĠZen onem
ĠÐ¿ ÑĢ
Ġoccurr it
Ġinsip iens
Ġov es
ĠFort asse
Ġmend acium
Ġdiut ius
Ġpiglet s
ĠPor ro
ĠThom as
Ġredem pt
Ġwood en
ĠâĢĿ .
unicip ia
Ġvulp utate
C or
M ag
b r
b ut
f orm
g g
Ã İ
Ð ·
Ù ħ
æ Ĺ
Ġs et
in io
Ġp us
Ġp are
on ice
Ġc epit
Ġn or
Ġn erv
Ġd ay
Ġm os
Ġin itium
ut am
es is
od e
id is
id am
Ġl ug
Ġad im
ac um
ot am
il eg
ĠA ure
Ġex cip
Ġex ilium
al itatem
ĠD an
ĠP o
ĠP ont
Ġg ens
ect is
Ġco el
Ġhab erent
Ġsc itis
are d
Ġpot uisse
Ġver i
Ġver ec
Ġam en
ĠT ri
ĠF ilii
Ġma er
ig er
ĠG o
Ġcont urb
Ġcomm erc
Ġinter im
Ġfu imus
Ġst atus
Ġsec ret
ient ium
Ġloqu atur
Ġquis quis
Ġput em
ali ae
Ġsent iat
Ġcol ore
Ġ6 5
Ġexc els
Ð° Ð»
ĠLat inum
ĠAr ab
Ġ8 6
Ġvest ris
enti arum
reh endi
Ġtran sit
Ġius su
Ġdilig entius
Ġintelleg it
Ġsaec ulorum
Ġaccip e
Ðµ Ð»
Ġbeat e
Ġconstit ui
Ġpropr iae
Ġpo enit
âĢĿ ,
Ġaudi erunt
Ġunivers is
Ġantiqu is
Ġrespond erunt
Ġconsuetud ine
ok s
ĠNov i
Ġopin io
ĠPa ulo
Ġexspect o
Ġiniqu itatem
Ġquat enus
Ġfel is
Ġha eret
ĠUrb es
Ġdepos itum
Ġpros unt
ĠPrinc ip
ĠSim iliter
Ġspect at
Ġextrem a
Ġlig ht
Ġmisericord ia
Ġgr and
Ġpraecept is
Ġexpl or
Ġincred ibile
Ġfo und
Ġmira retur
Ġthes a
ĠBer ol
ĠSel ectae
Ġsedul itatem
Ġrhon cus
Ġchil d
8 7
I d
P er
R om
b erg
t orum
u at
Ã º
Ġs k
in ius
at ch
Ġc ense
ae t
Ġd isi
Ġm iles
Ġt et
Ġt ul
Ġt ent
Ġt end
Ġi ei
li qu
im os
ul pt
ul ari
un uch
Ġad esse
ac ulo
Ġde est
ĠI X
ĠC red
el op
Ġb et
Ġdic enda
Ġfac inus
ĠP D
Ġco erc
iss us
Ġvid isti
ĠL am
ĠL ic
ĠH anno
Ġam is
Ġpag inam
ĠV erg
ĠV ultur
ĠG l
Ġsol emus
Ġacc eperunt
Ġcomm odo
Ġreg ionibus
eni et
Ġcre de
Ġloqu endi
Ġloqu aris
Ġpost eri
Ġmagn is
eret is
Ġag ric
Ġquem que
Ġac quir
Ġeam que
Ġrem itt
Ġdiv es
Ġmal orum
Ġpop ulorum
Ġserv are
Ġten u
all y
... )
Ġrespon di
Ġquaer eremus
Ġdign i
Ġlaud e
if y
Ġfact is
Ġplur imi
Ġadm odum
Ġspec ial
Ġexs ist
Ġeffic i
Ġsecund am
Ġsermon is
Ġparv um
Ġindic ia
Ġequ us
Ġinim icus
ĠLib er
Ġgest arum
Ġsor orem
Ġdid ici
Ġconveni unt
Ġmulier ibus
Ġaffect um
Ġmar itus
Ġvere or
Ġparent ibus
Ġpraesid io
Ġmus icae
Ġgenerat iones
ĠImper ium
ĠPompe ius
ĠOr din
Ġtabern aculum
Ġsangu inem
Ġfall ac
Ġhabeb is
Ġitin ere
ĠDixit que
Ill ustrat
Ġib idem
ĠLingu a
ĠHen ricus
Ġnig rum
Ġomnipot ens
Ġferm entum
ĠMolest iae
Ġsati et
Ġey es
Ġmeret ric
Ġpersu ad
Ġiei un
Illustrat ion
6 9
A C
C ar
G en
M a
O L
d es
f act
g ypt
i erit
p ere
r oc
t ol
Ð ³
Ø ª
â Ĩĳ
Ġ ol
Ġe uis
Ġe lev
Ġe unuch
it ion
it etur
us a
at as
on dam
Ġc erv
Ġc iu
ae v
or iae
Ġf unct
Ġf ront
Ġest is
id us
Ġpr idem
ia li
ol ite
Ġre n
Ġl ep
ĠI udic
Ġan other
ĠE li
Ġex h
Ġex im
ĠS o
ĠS PD
ĠC ass
ĠC aus
Ġdi rig
ore nt
ore et
Ġill as
Ġsed em
ĠR ex
ĠF or
Ġaliqu ibus
Ġess emus
Ġor o
lig ht
Ġcor da
ap e
Ġmult itudinis
Ġcuius cumque
Ġdeb es
Ġtr in
Ġexp edit
Ġ200 2
Ġconf und
ĠCh ana
Ġpublic o
Ġplac erat
Ġmis era
Ġnov ae
Ġsap ere
up ta
Ġpa ulum
Ġprincip ibus
Ġ8 5
Ġintelleg itur
ĠEccles iam
Ġstud iorum
ast is
Ġsup pon
Ġwh ile
": [
Ġaqu arum
Ġquin ta
Ġdisp ens
Ġoper atur
Ġpon ere
Ġpon itur
Ġdon a
crip tum
Ġnoc tem
Ġcond idit
Ġvult um
Ġarg entum
ĠReg ni
Ġch ar
Ġmiser os
Ġredd idit
Ġscript ura
Ġso on
Ġglor ific
Ġincip iunt
Ġopin ionem
Ð°Ð ·
Ġarbitr ium
Ġhist oria
De us
Ġpraem ium
Ġsuffic it
Ġoperat ionem
Ġconcess um
Ġimperator is
ĠXV I
Ġpraepos ita
Ġinqu antum
Ġuit a
Ġmerit o
Ġstip ul
Ġedic tum
ĠTar rac
ĠAmeric anus
Ġaur ibus
Ġcit ius
ĠBel g
Ġresurre ct
ĠÐ½ Ð°
Ġtranse unt
Ġcentes imae
German ice
Ġseptu aginta
ĠBab yl
Ġeuis mod
, [
5 2
Y ou
a ut
i atio
p iter
x erit
Ġe ach
Ġp as
Ġc ried
Ġc athed
Ġn atae
ae us
Ġm ur
re tum
Ġt un
Ġt ort
or us
ur s
Ġv arius
Ġh end
es ne
an ne
ar k
ar am
ia re
Ġl up
Ġl arg
Ġde g
Ġde pon
ĠS T
ĠS atis
Ġme h
Ġdi is
Ġb en
Qu o
ĠP op
ĠM ess
Ġquid que
Ġab st
ĠH ort
ĠH eli
Ġne ar
ĠT en
ĠT im
ult um
ĠF rat
Ġpro ut
Ġpro inde
Ġinc end
isc e
Ġvol ebat
Ġcons ilii
ĠV oc
Ġpotest atis
ĠB a
ĠB onum
Ġr het
Ġprop ius
Ġeo que
Ġsec uri
Ġ[ ...]
Ġanim arum
ĠO st
Ġcre avit
Ġleg itur
Ġloqu eretur
Ġoc t
esc ere
Ġimp le
Ġimp rim
Ġag at
Ġcommun iter
Ġvoc ibus
Ġrem iss
Ġciv em
Ġciv ile
ĠQuid quid
Ġmortu is
Ġdes unt
ret iva
Ġcogn ita
Ġsent iam
Ġsent entiis
Ġocc idit
Ġfort is
Ġscrib erem
Ġcorp oribus
Ġcl aud
Ġpraec l
Ġins c
Ġ6 1
Ġvide amur
all is
Ġprob atur
Ġmolest um
Ġvest ram
Ġev enit
Ġ9 9
Ġdign itas
Ġsapient em
Ġlong us
Ġappell ant
Ġiur i
Ġsup p
Ġsen ator
Ġ14 0
Ġintellig entia
Ġmens a
Ġpecc ato
Ġsignific ant
Ġsignific atur
Ġost ium
Ġdon avit
Ġdist rib
ĠIo ach
Ġluc e
Ġprod esse
ĠPl anc
Ġref orm
Ġhuman ae
Ġsimil em
ress ed
Ġmagist ri
Ġquodam modo
Ġped ibus
Ġpret io
ĠIacob us
Ġvinc it
Ġhi em
Ġdiffer entiae
Ġasc endit
ĠPompe i
Ġdoctr inam
Ġsuccess or
Ġvocabul um
Ġnem ini
ĀĀ ĀĀ
ĠVolupt atem
ĠSu ec
Ġservit utem
ĠDiet ae
Ġbore ali
ĠAristot eles
Ġantepos uerit
ĠEsa u
disc retiva
ĠHanno ver
ĠChana an
6 3
E ntabul
P ater
c on
f e
h inc
p ost
p ublic
v o
v ariant
Ï ħ
å ľ
Ġ old
Ġe idem
Ġa e
Ġs ud
Ġp oll
on ibus
Ġm ost
re pt
em in
ic ulo
im enta
et i
Ġl ar
Ġad j
Ġcon j
Ġb all
Ġper u
Ġg ent
ĠN ob
ens us
ens ium
Ġhab uerit
Ġcom per
Ġu ere
Ġvid ero
Ġvel int
Ġer os
Ġpro u
ĠB O
Ġsol es
Ġr ip
Ġprop er
Ġw eb
ient is
isi i
Ġsp oli
esc unt
Ġnatur ale
Ġcommun ibus
Ġrat ionis
Ġpart ium
cip it
Ġrep ut
Ġmal itiae
Ġdec ret
Ġmaxim o
Ġmagis que
Ġsent it
Ġocc isus
Ġgrat issimum
Ġinf am
Ġinf eros
Ġfid el
Ġmis erunt
Ġ6 8
Ġnov issimo
ĠGraec ae
Ġeg it
Ġeg ressi
Ġquando que
Ġsaec ulis
ev er
Ġfut uro
Ġ15 0
Ġveni ret
Ġsen atum
Ġ11 9
Ġlat ina
ĠBr utus
Ġpecc are
ãģ Ħ
ĠK ans
ĠQuis quam
Ġsoc iis
Ñģ Ðº
Ð½ Ð¾
Ġadi unct
ĠIo as
Ġluc tus
Ġperson is
Ġfer endum
Ġquic k
Ġsa x
Ġexplic ari
let um
Ġaccep isse
ĠCur abitur
Ġsept entr
Ġhost ibus
Ġdelect at
Ġvig esima
Ġsalut is
ĠMag na
Ġquot iens
ĠIudae os
Ġmitt o
Ġfur or
Ġfur tum
pr op
Ġperd uc
Ġmori ens
Ġson us
Ġinterrog avit
ĠAugust us
Ġcens es
ĠMos en
Ġnonn ulli
Ġfacilis is
Ġpraet ore
Ġfest in
Ġhabitat ores
Ġincom mut
Ġcomprehend erunt
Ġcec idit
Ġcoep i
Ġsustin ere
Ġpisc es
ĠCont ra
ĠVest ibulum
Ġever y
Ġtrium ph
ĠCirc a
Ġabsur dum
Ġobsec ro
ipat et
ĠTarrac onensi
7 8
O V
e ff
m ag
r erit
v es
z i
Ã §
ä ½
æ Ī
æ ĸ
Ġ !
Ġ #
Ġ >
Ġ ~
Ġs w
Ġs ord
Ġs ho
Ġqu endam
Ġqu ondam
Ġp est
Ġc Ã¦
Ġc anc
Ġd ant
Ġin l
ic iam
Ġv endit
Ġf ate
en ia
om ach
od y
an as
ar on
ib iles
Ġut er
ĠI us
ĠA ll
Ġex stitit
ĠS cript
ĠD iv
Ġme arum
Ġdic et
Ġdic erem
ĠP oss
ĠN obis
Ġhab uerunt
ĠM D
ĠM or
ĠM ass
Ġver is
Ġu ult
ĠL aced
ĠH ae
ĠH omin
ĠH unc
ĠT re
Ġinc ogn
Ġpl ag
Ġpl erique
ĠV t
Ġthe olog
ĠG re
Ġw al
Ġst ir
Ġlib entius
ĠO l
Ġus quam
Ġincol um
Ġob v
Ġag untur
Ġac quis
Ġpraes entibus
Ġvoc antur
Ġrem ov
Ġexp ul
Ġdisc rim
Ġapp os
Ġconf ite
ĠÐ ¼
Ġeis dem
Ġpraeter mitt
Ġvis it
Ġrespon s
Ġneg are
Ġcae lis
Ġsumm e
Ġfug ere
Ġsal vi
Ġimper atore
Ġ9 0
Ġsus p
10 88
Ġhum ani
Ġfut urus
Ġign em
Ġcet eros
if end
Ġ14 9
Â» ,
Ġmun eribus
ang abo
Ġost endere
Ġauct ores
ĠIo annis
Ġcond itum
Ġart es
ation alis
ĠPrae sent
Ġdiss ol
ĠSc io
Ġnegot ii
Ġdict ae
ereb at
ĠPer ipatet
ren s
Ġsucc ed
Ġmitt ere
Ġsin u
Ġcast ris
Ġret urn
Ġscrips isti
Ġta libus
Ġhered em
Ġjust o
Ġprophet a
Ġdiffer entiam
ĠDol or
ĠCor ne
Ġamb o
Ġstult us
Ġau fer
Ġsep ultus
Ġanc illam
Ġanc illae
Ġx x
ÏĦ Î¿
Ġort um
Ġcad ere
Ġlig ula
ĠSuper ioris
Ġur na
Ġfiduc iam
ĠCicer onem
Ġprofess or
Ġconsist it
Ġflag iti
ogall ice
Ġele ifend
Ġsinist ram
ĠIup piter
orc erer
Ġhend rerit
A s
C H
N ec
S al
V ol
c em
c unque
f ort
h oc
h ere
j a
n ia
o or
r iv
s am
s et
t itle
Ġa str
Ġs ide
Ġp arem
ae ter
Ġd aemon
Ġm it
Ġm ix
Ġm aris
em iae
ur arum
Ġi ug
Ġf ict
Ġpr Ã¦
Ġad p
Ġut endum
ion alis
Ġde inceps
il v
ĠI N
al s
ag es
Ġper ag
ra w
ĠP u
ĠQu apropter
Ġco ha
ir o
ĠN ic
iss o
Ġap ta
Ġth ings
ell is
ell am
ĠL us
ĠH erm
ĠT r
ĠT est
Ġpar a
Ġpar ata
Ġcons oc
ĠB en
Ġr ursum
Ġcont ig
âĢ º
Ġfili as
Ġst rep
Ġres c
Ġlib id
Ġbon os
Ġmin ores
Ġmin imum
Ġleg ato
Ġof fer
Ġaud iunt
ĠU tinam
Ġcaus arum
Ġal lig
ii i
Ġdeb eant
Ġvit uper
Ġput andum
Ġtr ip
Ġist orum
Ġrem ot
Ġtabul arum
Ġcap ta
ux i
Ġdiv inam
Ġdec ima
ill us
Ġscrib as
Ġsequ atur
Ġcar ere
Ġpraeter itis
Ġred ire
ino esiae
Ġsumm i
ĠGraec o
Ġnesc imus
Ġquaer enda
Ġdilig at
Ġdilig unt
Ġrei ecta
Ðµ Ðº
Ġ15 9
ĠEx c
ĠX en
ĠUt rum
Ġmens ibus
ĠIll inoesiae
Ġauct ore
Ġregn avit
Ġmet rop
Ġcan is
Ġpossess ione
ĠReg ione
Ġcel er
Ġphilosoph orum
Ġspir it
Ġinstit utum
Ġexemp lis
Ġtur n
Ġcogitat iones
Ġhuman is
Ġhuman itatis
Ġdict is
Ġsex to
Ġerr ore
Ð¾Ð ¹
Ġadv entum
ĠIos iae
Ġmeli ora
Ġlibert ate
ĠAs ia
Ġequ o
Ġpass us
Ġiuv ent
ĠHispan ia
Ġson o
Ġsy n
Ġturp ius
Ġprophet ae
Ġcreatur ae
Ġbest iae
Ġcapt us
Ġsusc epit
ĠCor p
Ġbenefic io
iret ur
Ġot ium
Ġarm is
Ġquaerit is
Ġinfin ita
ĠMat er
Ġbrev iter
Ġincom mod
ustra li
ĠDem ocr
ĠSequ anae
Ġspecie i
ĠAustr iae
ĠAss yri
Ġcali dum
ĠGar go
ĠCali for
ĠPD F
Ġeunuch i
1088 36
6 2
6 8
= =
C ap
D U
D or
D ol
I am
c it
g er
h ac
h ab
l t
p ro
s erunt
t ione
u el
y ou
Ã ¥
Ï Ĩ
ç Ķ
Ĩ gypt
Ġp i
Ġn is
Ġm orem
Ġm enti
Ġin stant
ic tum
ic esimo
ut iones
Ġf us
Ġf ul
li othec
om o
Ġh and
os us
Ġpr ior
Ġre us
Ġl es
ab itis
Ġut raque
ĠC y
ĠC as
Ġb ac
Ġali bi
Ġprae pon
Ġhab ita
Ġpos ui
uit u
Ġsc ulpt
aec enas
Ġ( ...)
Ġth ose
Ġth ought
Ġvid erentur
ĠL oc
ĠL itter
ĠR ect
ĠT ib
Ġpar atus
Ġinc or
Ġinc lin
Ġinc ertum
Ġqua erunt
ĠB eatus
ĠG ad
Ġcont ul
Ġw ord
Ġinter sit
Ġres pectu
ri i
Ġdu p
Ġdeb it
Ġnull ae
Ġvoc ati
Ġrem ed
Ġamic itiis
Ġmal us
ici endis
Ġ5 8
Ġrec essit
Ġrec ognosc
Ġmol lis
Ġgrat a
Ġlab orem
ass em
Ġprov oc
Ġvide am
Ġdel eta
Ġsanct is
Ġfaci ens
Ġaccip itur
th at
Ġreliqu i
ĠEx emp
Ġign omin
act io
Ġtim ore
Ġsubstant iis
An d
Ġpul s
Ġlat ere
Ġ10 9
Ġpraedic ta
Ġ16 9
ãģ §
Ġauct orem
Ġaedific avit
Ġadi ut
Ġult rici
Ġvet us
Ġconsul atum
Ġphilosoph ia
ĠÃ Ĩgypt
Ġexemp l
ĠAnt e
Ġdep ut
Ġrecip iunt
Ġmagist rum
Ġiuris dict
Ġpropri is
ĠMag ister
Ġaccid entia
Ġlibert atis
ond er
Ġconiunct io
Ġjust itiam
Ġrelig ionis
Ġrelig ios
Ġvideb antur
Ġsociet ate
Ġmar it
ĠNull am
Ġquaes ita
Ġgener ale
Ġexper i
Ġfrequ ent
ĠEn im
ĠSal v
ĠAng liae
ĠPrinc e
Ġrelic tum
Ġvend idit
Ġiucund ius
Ġcot idi
Ġturb a
Ġcec iderunt
ĠMult i
Ġventur a
Ġtrist itiam
Ġbr ach
Ġdifficult ate
ĠCamp ania
Ġsag itt
Ġmeridi em
Ġadu ers
Ġcount ry
ĠPyrenae orum
ĠAtlant icorum
éĭ ¼
ĠBO X
ĠLaced aemon
Ġultrici es
' ;
' ve
6 1
7 3
I S
I ron
N o
V ulgate
e us
f r
n ec
p rae
r ing
w horse
´ ì
Î ¬
Ñ Ħ
Ġe quis
Ġm ig
Ġm ach
em ini
Ġt or
Ġt op
ur ia
Ġv illam
Ġh erb
od us
ar ias
id s
id io
ec un
ib ilem
Ġre ad
Ġl una
Ġad nunt
ac umque
Ġut ilia
Ġde a
Ġde esse
Ġde orsum
Ġsu gg
ĠE am
ĠE orum
ĠS atur
ĠS ine
el uia
Ġ1 12
Ġb ov
Ġdic eres
ĠP ac
atur ae
ĠM angabo
Ġse v
Ġips as
Ġop pon
Ġne w
ĠR ob
ĠR hen
Ġca dit
ĠT ol
isc o
Ġpl erisque
Ġacc edit
Ġmod est
ĠEt si
Ġlib ere
inc ta
Ġdix erimus
ri que
ĠO ri
Ġnost ras
ient i
Ġ19 19
Ġant ec
Ġloc orum
Ġsub ic
Ġsub lim
Ġal tare
Ġinv as
Ġdom ic
Ġimp ud
Ġcommun es
Ġdeb eret
Ġput atur
Ġvoc as
Ġurb ana
Ġcap ita
Ġapp rob
itud ini
Ġdec ed
Ġact is
ĠCh al
Ġel abor
Ġlitter am
Ġcred idit
Ġcred iderunt
Ġ6 7
Ġpraeter quam
Ġj us
Ġ201 7
Ġ201 8
Ġopt ima
Ġprob ari
Ġy e
Ġgl ass
Ġprincip iis
ĠAr t
ĠAr du
ĠĠĠĠĠĠĠĠ ĠĠĠĠ
Ġnesc i
Ġdilig entiam
Ġ9 4
ĠChr ys
Ġsapient is
Ġhon oribus
Ġmut ari
ĠX XX
Ġaed ibus
pos uit
Ð¸ ÑĤ
Ġem an
Ġaper ta
Ġk e
Ġliber orum
Ġaequ alis
Ġaedific ia
Ġadi uncta
crip ta
Ġpraecip io
Ġeffic iunt
Ġtrad itum
Ġinven iri
Ġconsul em
Ġhabit are
Ġfin d
Ġphilosoph is
Ġaetern itas
Ġref ertur
ĠAli quid
Ġcal um
Ġhuman itate
Ġdil uv
Ġhost em
Ġreper ire
Ġreper iuntur
Ġproxim i
Ġlibert as
Ġ194 7
Ġvi res
ĠHi erem
Ġla oreet
Ġsententia s
Ġhered itatem
yr r
Ġfabul ae
Ġtut el
Ġtem ere
Ġargum enta
ĠDol ab
ĠDol orem
Ġcapt iv
Ġcondic io
Ġpraesid ium
Ġpert ineat
ĠSal om
Ġobl itus
Ġconcess a
itter et
Ġvocabul a
Ġpaenit entiam
Ġdecre tum
ĠSem per
enc ia
Quam quam
Franc ogallice
ĠSax oniae
ĠAem ilia
Ġillumin at
Ġbeg an
ĠMoys es
Ġnorm am
Ġmill esimo
Ġadol esc
Ġsacri fic
Io annes
Dor othy
" ;
1 000
A p
A nt
C ic
D P
E r
H X
e fac
i en
n ot
o ugh
r iae
v al
w w
Ã ¹
Ä Ļ
Ù ĩ
Ġ ÑĤ
qu ia
it ionibus
Ġp ur
Ġp anis
on ias
Ġn ox
Ġn au
ae i
Ġm ou
Ġin sequ
Ġt eg
Ġv ali
ut er
Ġi anu
Ġf ar
Ġf ov
om a
Ġh il
im as
es i
ar at
ul are
Ġpr ist
Ġpr av
ot t
Ġde stit
ĠS e
ĠS orcerer
ĠC ain
el unc
ag og
ĠD rus
Ġali unde
Ġali oquin
rat io
Ġco ur
ĠN eg
ens ibus
Ġpos uerunt
eg oria
Ġsc iunt
ina vit
Ġu est
Ġne qu
ĠR est
Ġam ari
Ġsol eo
.. ...
Ġacc um
ri or
Ġreg ina
ĠO I
Ġfec erim
Ġvir go
abul um
Ġsp elunc
Ġter re
Ġaud isset
Ġmult itudine
Ġmagn itudinis
Ġcuius libet
Ġag as
Ġnatur aliter
Ġdeb itum
Ġvoc um
Ġpec ora
Ġcap iat
Ġcur sum
Ġdiv itiarum
Ġdec lina
Ġnot itiam
ill o
ĠQuod si
Ġserv is
Ġrec ept
og le
Ġ7 1
Ġ7 3
Ġ7 8
Ġdef l
Ġdef endere
Ġcred ibile
Ġj e
Ġpraefect ura
Ġprob ata
Ġmolest us
ĠAr c
Ġvest ro
ĠGraec us
Ġund ev
Ġtran qu
Ġtest es
ĠAd huc
Ġcognosc i
Ġappell avit
Ġconi ur
Ġstat ua
Ġfl am
Ġpraedic atum
ĠBr ute
Ġmov eatur
Ġperson arum
Ġvet erum
Ġmon aster
Ġhabit ant
ĠEst ne
Ġhabeat is
Ġnol uit
Ġinstit uta
Ġscire t
Ġbib it
Ġang eli
Ġprom pt
Ġcop ias
Ġsex aginta
Ġclar a
Ð¾Ð ´
Ġterr itor
ron ae
Ġperv enire
Ġ< /
Ġdam num
Ġveh icula
ĠAugust inus
Ġfabul am
urr it
Ġtut o
Ġsch olae
Ġarc am
Ġperpet uo
Ġsusc it
Ġpostul at
Ġitem que
Ġden unt
ÐµÐ ¼
Ġcant us
ĠAf rica
Ġapostol ici
ĠCal v
Ġsomn o
Ġindign um
Ġpeculi o
Ã« l
Ġdivid itur
sh op
Ġoctav o
Ġfriend s
Ġmerced em
Ġirr itum
Ġpign us
Ġtog ether
cuius que
ĠIov is
Ġintrod uc
Ġconsu libus
ĠIsra Ã«l
Ġrelati ue
ĠBerol ini
. ;
5 4
A ct
H odie
M unicipia
V ariant
c id
d us
k r
l ow
p iam
Ã »
ç ´
Ġ è
um enta
Ġa em
Ġa ustrali
Ġs ob
in ed
Ġp el
Ġp ress
Ġc ari
Ġc he
ae um
st or
Ġd ot
Ġd arem
Ġm asc
Ġv aria
Ġv ariant
Ġi ri
Ġf ertur
an ct
ar ked
ia le
ed e
Ġl iter
Ġl unae
Ġad itus
ll y
Ġde stin
ĠA x
Ġex ire
ĠS er
ĠS ov
ĠC ity
ag or
ĠD a
ĠD u
Ġdic antur
Ġdic erent
Ġfac erent
Ġprae stit
ĠP tol
Ġg ymn
ĠQu asi
per et
Ġco eperit
Ġhab enda
Ġtu arum
Ġsc iendum
Ġpot u
Ġap pe
Ġab stin
ĠH ac
ĠH anc
Ġid est
Ġne quam
ĠR ei
ĠT it
Ġinc ho
Ġnihil um
ig i
ĠG er
Ġsol am
Ġr um
ine ant
Ġleg at
Ġleg ionibus
Ġsp atio
Ġincol unt
Ġpost ulo
Ġpost remo
Ġob nox
Ġag g
Ġag is
Ġgen erum
Ġac ies
Ġas inum
pe xit
Ġnunc up
ern um
Ġciv itatum
Ġdec et
Ġcomp rob
Ġserv ire
Ġconc ub
Ġconc ept
Ġviv ific
Ġsequ ens
Ġins cript
Ġcar itatem
Ġcar din
Ġten uit
Ġten eri
Ġcred entes
Ġ6 2
Ġ6 4
Ġexc lud
Ġopp ress
Ġopt imi
Ġprob atum
Ġprob ationem
Ð° ÑĢ
Ġ8 2
Ġ8 4
Ġ8 7
reh ensum
Ġeg redi
Ġnecess itatem
Ġreliqu os
Ġmed iae
act ae
Ġpatr on
if ex
Ġtim or
ide as
Ġaccus are
Ġtrans g
Ġtrans m
Ġost endam
Ġaedific ata
Ġadi un
Ġmov e
Ġepiscop um
Ġdet est
Ġpraecip ua
Ġdum tax
Ġfin ita
Ġart ibus
Ġbre ve
ĠThe y
Ġdiu ers
ĠCar thag
Ġindic at
ĠIudae is
Ġmitt am
Ġpraed ia
Ġcompos itum
Ġrelig ionem
Ġoff ens
Ġarc u
Î¿ Î½
Ġcrim ine
ĠPar s
ocrat icae
Ġbened ixit
Ġdubit amus
Ġindig entia
Ġtoll itur
ĠEurop a
ĠTer ra
ĠCol osse
ĠXV III
Ġperspic uum
Ġur bi
ĠY ou
Ġretin ere
Ġpaenit et
Ġabund antia
ĠInc olae
Ġcathol ica
Ġfab ric
Ġpoet ae
Ġorig inem
Ġsig no
Ġuerb a
Ġinh abit
Ġvari et
Ġmagistrat ibus
ĠNesc io
Ġpercus sit
Ġbenevol entiae
ĠPhara o
Ġbea ut
Ġtort or
Ġincor rupt
Ġdumtax at
? Â»
A S
A ut
C o
I f
K i
L a
L ingu
T hat
b is
c l
g et
i ur
i ol
i eri
n y
r ari
r icae
u k
v ae
v eg
x isti
Ã ¬
Ä ĥ
Î ³
Î ´
Ġ ÑĢ
er y
it ch
is erit
Ġp ub
Ġc arum
Ġc ith
Ġm ountain
Ġt ag
Ġt ell
Ġv t
Ġh app
Ġh ujus
im ed
et er
et iam
Ġnon o
ed o
Ġre qui
Ġad l
Ġad est
Ġde str
ĠI lli
Ġcon atus
ĠS aec
ĠC ot
ĠC upid
omn e
Qu ia
ĠP od
ĠP ag
ĠP lin
Ġg ot
ist it
uc ius
ĠM oy
Ġse ipsum
ĠL ex
ĠH am
Ġer imus
ĠR ev
Ġpar lam
Ġtemp lo
Ġcomm or
Ġinter fectus
Ġpat rum
Ġpat ef
Ġanim os
ĠO n
ĠIn dic
issim as
Ġ19 20
Ġ19 33
Ġus e
Ġloqu ens
Ġoc ulo
Ġsub j
Ġmult us
rem a
Ġscrip to
Ġdu i
ĠAn sel
Ġag enda
Ġac erb
Ġas sign
Ġven eris
Ġtabul am
Ġsuper ior
Ġrep per
Ġeccles ias
Ġmal itiam
ĠâĢ ¹
Ġnot andum
Ġpu erit
Ġcogn itum
ĠFranc icae
ĠFranc iscus
Ġconc epit
Ġrec uper
Ġgrat ul
Ġconf ec
ĠRoman iae
Ġcorp ori
ĠCh ar
Ġviv i
Ġviv at
Ġplac itum
Ġfr ug
Ġlab oris
Ġnov o
Ġnov us
ard us
Ġev ac
Ġduc em
Ġcogit o
ĠMar tin
Ġ17 0
act is
Ġveni entem
Ġplur imis
Ġaqu is
Ġaper te
Ġpecc atorum
Ġmor ta
ãģ «
Ġsignific are
Ġaequ ales
ĠTh en
Ġpon am
Ġdiff in
Ġdiff ert
Ġcontr ist
Ġinven imus
Ġinveni at
Ġinstit utus
Ġinstit utis
Ġcogitat ur
Ġprom otus
Ġerr orem
Ġsept imo
Ġrecip it
ĠPet ro
Ġuid eri
Ġdisput are
atu or
Ġlud um
Ġambul are
Ġmerc es
Ġvers antur
Ġfabul a
Ġfabul as
ĠDec isiones
Ġignor at
Ġmer uit
Ġfe w
Ġfest um
own load
Ġflum ine
Ġflum inis
Ġsuffic ere
Ġunius cuiusque
Ġproficisc itur
ĠPers arum
Ġtit ulum
Ġgubern ator
Ġdecre ta
ĠĠĠĠĠĠĠĠĠĠĠĠĠĠĠĠĠĠĠĠĠĠĠĠĠĠĠĠĠĠĠĠ ĠĠĠĠĠĠĠĠĠĠĠĠĠĠĠĠĠĠĠĠĠĠĠĠĠĠĠĠĠĠĠĠ
Ġvale as
ĠAlexand er
Ġdexter a
Ġoeconom iae
ĠLatin os
Ġrevers i
Ġomitt am
ail able
"\"\"\"\"\"\"\"\"\"\"\"\"\"\"\"\"\"\"\"\"\"\"\"\"\"\"\"\"\"\"\"\ "\"\"\"\"\"\"\"\"\"\"\"\"\"\"\"\"\"\"\"\"\"\"\"\"\"\"\"\"\"\"\"\
Ġdile xit
Ġdefunct us
Ali quam
ĠSoc iet
aph ys
Dixit que
ĠJos eph
Int er
comp are
Ġmass a
OV E
cem odi
ĠSov iet
7 4
? âĢĿ
C ont
O M
O h
a it
c or
d iv
e amus
h es
k en
n unc
o z
p g
s orum
s ilv
u atur
w s
Å Ļ
á ĥ
Ġ Ø
Ġ Ã©
Ġe no
er ra
Ġs eg
Ġs ay
in ar
it ania
us ce
at iva
nt ur
Ġn atu
Ġd aret
Ġd rag
re xit
Ġt an
Ġt attoos
Ġf atum
ec imo
ul es
Ġpr a
ol s
Ġre nov
Ġre iciendis
Ġl og
Ġl iturg
ud um
ac ia
Ġut atur
Ġut rique
ĠI b
ĠI on
ĠI an
ĠI uv
Ġsu ch
al itate
ĠC ong
ĠC laritas
el us
ĠD ico
est a
Ġprae dit
ĠP enn
Ġg entem
ĠQu antum
Ġhab itura
iv oc
ĠM ath
Ġpot ent
Ġcom es
Ġse i
ĠL aud
ĠH Ã¦c
erunt que
ĠDe f
ĠT am
ĠT rans
Ġinc lus
Ġaliqu et
Ġpl uv
ĠV nde
ro que
Ġma uris
ĠB ulg
Ġsol itum
Ġr ock
Ġo wn
Ġw r
Ġw ell
Ġsum itur
Ġfu issent
eri ora
erat ionem
Ġbon itatem
ap hat
Ġleg unt
ient ur
Ġsp atium
Ġloc up
Ġus urp
Ġloqu endo
Ġsub m
Ġsub ter
Ġaud eo
Ġob sequ
le vit
Ġinv entus
Ġscrip tus
Ġnull is
Ġven ias
Ġvit iis
Ġto ok
Ġsuper iorem
Ġsuper ioribus
ui que
Ġcur are
Ġciv itati
Ġdec ip
Ġdec eat
ĠQuid am
Ġded isse
Ġmortu a
Ġdes er
Ġsent iunt
Ġconc ilium
Ġrec ens
Ġrec epit
Ġscrib itur
Ġscrib endum
Ġiust i
Ġviv entem
Ġfi et
Ġfi ebat
Ġmolest ie
Ġcert iorem
Ġvest er
ĠGraec iam
Ġquaer endum
Ġev ident
Ġaet atibus
Ġ9 7
Ġtab ell
Ġhon ores
ĠX III
Ġaed es
Ġ11 8
Ġem ere
Ġfact io
Ġdub itatio
Ġon line
Ġoppid i
Ġaedific avi
ĠIo ann
Ġdet rah
Ġpac is
ĠPost um
Ġdiss ent
Ġalic ubi
Ġlect ores
Ġdep end
Ġaccep isti
Ġexistim es
ĠIudae orum
ĠNec ess
Ð°Ð º
Ġpraed est
Ġdefin itionem
Ġdefin itione
Ġutil itas
Ġ199 1
Ġped em
Ġret ro
Ðº Ð°
Ðº Ð¸
enn io
ĠIp sa
ĠNull us
Ġ197 4
quae que
ĠAg rip
Ġpe ius
ÐµÐ ¹
Ġpros per
ĠPompe io
Ġfacult as
ĠMin ore
Ġoperat io
arn ationis
Ġdelic iis
ipp us
Ġinterfic ere
Ġmont em
Ã³ n
Ġitin era
ins ula
Ġcongreg ati
Ġpraeclar a
Ġgra ve
ĠLingu ae
ĠQuot quot
Ġadopt ionem
Ġpraedi orum
Ġsenect ute
Ġanimadvert i
Ġaus us
ĠJud a
Ġscand aliz
Ġmatur itatem
ĠCant u
Ġhel p
Ġredi it
ĠDisc ip
ĠLond inii
ĠFr ider
Ġsab b
Ġdia p
Ġchild ren
Ġreturn ed
Ġstrep itum
ĠGargo yles
ĠMangabo os
low ly
Ġeno ugh
/ /
C L
I O
P i
U T
U bi
b ed
m er
n as
t amen
{ "
} }
Ï ī
Ù Ĩ
Û Į
ä ¹
å ¤
å į
Ġ Ñĥ
in et
in itatis
at iae
Ġc ann
Ġd as
Ġm ac
Ġin ha
ic it
ic iae
Ġt z
Ġt ri
ut es
Ġi umentis
Ġf en
Ġh ow
an ensi
ar ae
un i
Ġre quire
Ġl on
iam ur
ion ali
Ġquae si
Ġan x
Ġsu ave
ĠE b
ĠA N
ĠA lia
al o
ĠS ara
el d
ag o
ĠD oc
Ġme que
Ġ1 10
Ġdic entem
Ġdic ebatur
Ġfac ili
ĠP ed
Ġg u
Ġsed ere
Ġsed ens
ĠN a
Ġhab ebam
Ġsc itur
Ġpot uisset
Ġap ostoli
and as
Ġth ron
Ġvid erat
ĠH ad
Ġop tin
Ġid ea
Ġer rare
ĠR o
ĠR osc
Ġca erim
Ġam bit
ĠF in
Ġvol um
Ġvol ueris
Ġcons uli
Ġim o
Ġnihil ominus
ig inti
ĠG ali
Ġw onder
Ġor ci
Ġfu eris
Ġpat rim
ran ge
Ġreg ia
Ġreg ioni
Ġmin d
Ġmin ore
Ġsp ectare
ĠU x
Ġal so
Ġnos c
Ġvolupt atis
Ġdu plex
Ġag atur
Ġpraes idem
Ġput abat
Ġrem arked
Ġiudic o
Ġcur su
Ġamic a
Ġmaxim ae
Ġfort uit
Ġiust e
Ġel ecta
Ġviv o
Ġpossit is
ĠAm or
ĠAm en
Ġcred idi
Ġerit is
Ġexc lus
Ġvis u
Ġprob andum
Ġneg ant
Ġprincip em
Ġvest rae
Ġnesc iebam
Ġev an
Ġund ique
ĠW est
Ġduc it
Ġnecess itatis
Ġval ent
Ġabs ente
Ġintelleg atur
ĠAd d
Ġsapient es
Ġhum ano
Ġvic it
Ġind ulg
Ð¸ Ñı
Ġlaud atur
ĠPr oc
Ġdiscip l
Ġdiscip ulorum
Ġtant am
Ġfact am
Ġpo Ã«
Ġoport ebat
Ġsac r
ĠQuam vis
ĠBr utum
Ġadm inister
Ġimm edi
Ġoper ari
Ġost ensum
Ġadd ere
Ġdet err
Ġult rices
Ġnoc ere
Ġmil itiae
Ġpraecip uum
ĠPl us
Ġtrib uit
Ġinveni es
Ġed ere
Ġlic eret
Ġfin it
Ġlae tus
Ġsermon ibus
Ġprofect i
Ġcop ios
Ġdiffic ilius
Ġadv oc
rob rium
ĠPet ri
Ġsper are
Ġequ itum
Ġnunt ios
Ġiuv enis
ĠHi eros
Ġpuell am
Ġnav is
Ġads crib
ĠPa ulum
Ġdivis it
Ġadf lic
enn ium
Ġrefer ri
Ġarc a
Ġsy st
Ġargum ent
Ġargum ento
ĠSa whorse
Ġgrad um
Ġecclesiast ica
Ġangel o
Ġsacerd os
ĠPompe ium
Ġsep ulc
Ġpossib ili
ĠAcc us
ĠAcc ius
Ġglad io
Ġproport ion
Ġconsc ientia
Ð¸Ð ¹
Ġaeg r
Ġpoen ae
ĠRuss iae
ĠDem ocraticae
ĠVel it
Ġbapt is
ĠCicer onis
ĠItal icus
ĠRespon d
ĠDuc atus
Ġelem entum
Ġiuven es
Ġintellex i
ĠTusc ul
ĠLev i
ĠCet erum
ĠBoruss iae
ĠPublic ae
Ġ$ (
Ġtol er
product s
ĠMichig aniae
Res pon
ĠNor veg
ĠGo ogle
ĠAssyri orum
Ġaccum san
Ġbeaut if
D ec
H ow
L L
N e
N ov
N eque
S hop
T ER
d ecim
e is
e ae
f iles
i enda
l it
l ess
m y
p ote
Ð ¹
Ġ odi
Ġ à´
Ġs id
in iae
Ġqu ite
Ġp udic
on c
Ġn il
em per
Ġt av
Ġf ini
om b
et ae
id isse
ul s
ul ar
Ġnon g
un um
ed erunt
Ġre ver
Ġl angu
ac es
ab ilius
Ġes ur
ot r
il oqu
Ġcon fect
ĠA aron
Ġex act
ĠS m
ĠC le
ĠD am
Ġb us
Ġprae l
ĠP R
ĠP yrr
ĠQu ic
Ġsi quidem
ĠN unquam
Ġhab entem
ĠM osc
und ae
iss i
Ġu obis
Ġab l
av isse
av erint
ĠL XX
ĠH or
Ġop erum
Ġne ed
ĠT oll
Ġpar atum
isc ons
Ġvol es
ert ere
ĠB eth
Ġsol em
Ġint end
Ġess endi
Ġcomm in
Ġsum atur
Ġst art
Ġst omach
Ġres crib
erat io
ep isti
Ġdix eris
Ġdix issent
ov ie
ad i
Ġmin oris
ĠO d
ĠO tt
ient er
ific a
Ġob st
Ġob oed
Ġdom ui
Ġag ris
ch e
Ġven en
Ġven isse
Ġpraes entes
Ġpraes crib
Ġtr istis
Ġto o
Ġrep let
Ġciv ilis
Ġdisc essit
Ġdiv ulg
Ġpu eris
rim i
Ġconc ili
Ġrec ess
Ġinf lam
Ġviv et
Ġfid elium
Ġ7 4
Ġfr ui
ĠJ acob
Ġexc lam
Ġprov erb
Ġhuius cemodi
Ġcirc uli
Ġprob itatis
Ġmolest e
ĠLat ini
erem ur
Ġ8 3
Ġund er
Ġext rinsecus
ĠW e
Ġduc ta
Ġtest ific
oli um
Ġfaci enda
Ġappell at
Ġappell amus
Ð¸ Ð½
Ð¸ Ð»
Ġsup pos
Ġpatr onus
Ġlaud es
Ġveni ens
ĠUn a
Ġprovinc iarum
Ġfl uct
Ġmuli ere
Ġmor bo
Ġ16 0
ĠIll um
ht t
Ġgrav ida
Ġaedific ationem
ĠGerman ici
ĠSanct orum
Ã© n
Ġsing uli
Ġaudi eris
Ġantiqu orum
Ġinven io
Ġconsul e
Ġsa w
Ġtert iam
ation s
ĠAnt onium
Ġcogitat ionem
Ġgaud ere
Ġnegot i
Ġdict u
Ġaccep isset
Ġrecip iat
Ġdelect ari
ĠSt ud
Ġeff ig
Ġnunt ium
Ġculp am
Ġ199 0
Ġnar rare
Ġconiunct i
Ġiuc unda
Ġdivis ionem
Ġta ke
Ġtut ela
ĠMos i
Ġquar ta
the y
queb atur
Ġfe ugiat
Ġangel um
Ġdesider ium
Ġdorm ivit
Ġconsol ationem
Ġot io
Ġsep ulch
Î¹ Îº
Ġsumpt us
Ġ186 6
Ġsacerdot es
Ġinteg rum
ĠComm ent
Ġoccult um
Ġagnosc ere
Ġub icumque
Ġiub et
ĠMich ae
Ġpropriet as
Th is
ĠRep ell
Ġintu ens
Ġconsumm ationem
ĠPap a
Ġfluv ius
Ġster ilis
ÙĪ Ø
Ġpulcherrim a
ĠEzech iae
Ġcand id
ĠEbor aci
Ġquinqu aginta
Ġdial ect
Ġcall ed
ĠAdm inister
ĠIsa ac
Ġge omet
Ġxx x
Vol upt
Ġnis l
ĠAx onae
5 8
6 5
7 1
E a
J ust
M ihi
O f
P h
P s
S o
a f
a ir
c d
g one
h am
h ic
h aec
i anum
j pg
l r
m ium
n ihil
o i
p ort
p ectus
r unt
v am
v ide
Ã ½
å ±
å ¹
å Ĳ
Ġa is
Ġa uri
Ġs om
in y
it ioni
Ġqu atuor
at que
am ento
Ġn ib
Ġd anda
Ġm el
Ġin ept
ic al
Ġt t
Ġf eri
Ġf our
os y
un us
Ġre quiesc
ac c
ll us
ere a
Ġde lib
ĠI f
ĠE d
ĠE i
ĠE arum
ĠA it
ĠS ina
Ġb al
Ġdic to
end orum
Qu oniam
Ġper n
Ġfac in
Ġprae dam
ĠP ub
Ġco op
Ġco eg
ĠN as
ĠM uli
ĠM elius
eb urg
and er
Ġu eritas
Ġab duc
ĠL iv
Ġop en
ĠR ed
Ġam antur
Ġam ph
Ġat qui
ĠT y
ult or
Ġpar vis
Ġvol at
ĠB ar
ĠB ello
ĠG reg
Ġr utrum
Ġw ent
Ġor g
Ġor are
Ġor atore
eri i
ri et
Ġmin im
ĠO pp
Ġcre b
Ġcre atum
Ġimp ot
Ġimp end
Ġag ens
Ġas pectu
Ġvit Ã¦
Ġput avi
ie w
Ġtabul q
Ġtabul w
Ġtabul z
Ġtabul ator
Ġ18 13
Ġcur rent
Ġapp rehend
he um
Ġnot am
irc um
ex t
Ġconf orm
Ġcorp orum
Ġcl av
Ġpublic i
Ġpublic is
og is
Ġlingu arum
Ġpraeter m
Ġred itus
ĠLat inus
Ġimper fect
Ġius s
Ġ9 5
Ġintelleg am
Ġexerc itatione
10 82
Ġtab h
Ġtab j
Ġtab ull
Ġtab up
Ġtab lu
Ġhum anum
Ġvic esimo
Ġcognosc imus
Ġreliqu isti
Ġmed icam
Ġstud iosus
Ġconi ectura
ĠUn ionis
ĠFoed er
Ġoport eat
Ġsac rae
Ġaqu il
Ġaper tum
Ġaper ire
Ġaper ti
ĠBr uto
Ġsoc ium
ang el
Ġliber am
Ġliber ius
Ġoper ae
Ġgrav i
14 50
ĠGerman i
Ġmov eat
Ġli v
Ġperfect us
Ġanima libus
Ġaudi ebamus
Ġinven erit
Ġart ium
Ġfamili am
Ġfamili aris
Ġsecund us
Ġbib am
Ġpraest at
Ġatt ul
Ġhuman itatem
Ġdict urum
Ð¾Ð ³
Ġadv entu
Ġsalut e
Ġdesc endit
Ġuid et
rac ch
Ġeffect u
Ġperd idit
Ġlud us
Ġfortun am
Ġsor ores
Ġta ub
Ġdis pon
Ġhered itatis
Ġaffect u
ĠDic it
ĠIun o
Ġcircum s
ĠProvinc iae
Ġquaes ivi
Ġ197 2
32 16
Ġscel erat
Ġscel eris
Ġfund us
Ġbest iam
Ġiniur iae
Ġmus ica
Ġangel orum
Ġcommod um
Ġbenefic ia
Ġplen am
Ġorb e
ĠSim on
Ġapostol us
Ġglad ium
At que
Ġvocabul o
Ð¸Ð ¼
ĠVolupt as
ĠMo ab
Ġmemb rum
Ġuir tus
Ġinteg r
Ġmisericord iae
Ġuit am
Ġmerit um
Ġtabu k
Ġtabu al
ĠPy thag
Ġâ ľ
Ġconsili is
Ã® s
Ġpollic itus
Ġpleb e
Ġnef as
Omn ia
Ġlook ed
Ġsenect utem
Ġvan itas
ĠHom o
ĠAene an
ĠDum iatis
Ġfluv ium
ĠPlat onis
ĠConsequ atur
Ġquidd itas
ĠMerc ur
Ġprimogen itum
Ġtyran n
Ġcoh ort
Ġiuli anus
Ġsurre xit
Ġcomplect itur
ĠBav ariae
Ġmeh ercule
Ġye ars
shop ify
ĠHieros ol
cd n
* *
< /
A c
b et
c reat
f uit
k er
l ae
m am
o e
r od
r uit
r Ã¦
t ibus
t ionem
u erim
w ith
y th
Ä ±
Ä Ľ
Ù Ĭ
à ·
Ġs ess
in u
in ter
it are
Ġqu om
Ġqu ing
at ui
am b
Ġc li
Ġc ab
Ġn acti
Ġn empe
st e
Ġd atus
Ġd antur
Ġm ess
Ġm oli
ic uli
ic ked
Ġt q
Ġt s
Ġt rec
Ġt ba
or iam
Ġv ae
Ġv all
es op
an es
an iam
ent s
ia vit
ol am
que st
Ġl and
Ġad rog
Ġut cumque
ot is
ĠE u
ĠA per
ĠS ar
el ph
ĠD E
ĠD ub
ĠD olia
Ġdic ebam
ta or
Qu are
ip pe
Ġper l
Ġper vers
Ġfac e
ĠP ecun
Ġg abulator
Ġg round
Ġill arum
ob rem
ect ione
Ġco opt
Ġco inqu
Ġco aeter
ĠN er
ĠN oli
Ġsc iens
iv amus
ĠM ut
ĠM inister
eb atis
Ġcom edit
Ġse pe
pt um
Ġvid eret
ĠH on
Ġam isit
Ġat bulator
Ġinc ircum
Ġaliqu as
ĠV ar
ert o
ust um
Ġun ic
ĠB l
ĠB rix
Ġr abulator
Ġcont enti
Ġw ings
Ġor iuntur
Ġfu erant
Ġst ood
Ġres erv
ep isse
Ġsec ur
eni or
Ġcor rect
Ġcre vit
Ġleg um
Ġleg istis
Ġnum eros
Ġmagn opere
Ġag ro
Ġven er
Ġven imus
Ġput arem
Ġvoc avitque
Ġtabul stor
Ġtabul agor
Ġtabul taor
Ġexp rob
Ġapp rop
Ġcomp ell
Ġcomp let
Ġserv orum
Ġrec eptum
Ġfort ior
Ġscrib endo
ĠÐ ±
ĠÐ ³
ĠÐ ·
Ġfid elis
Ġsequ enti
Ġfrat rum
Ġcar men
Ġ7 2
Ġmis erat
Ġdef uit
Ġexc ed
Ġvide ant
Ġneg as
Ġ8 1
Ġev id
Ġmund anum
Ġtran st
Ġduc tus
Ġ9 1
Ġtab il
Ġtab uo
Ġtab bulator
Ġtab ultor
Ġsapient i
Ġmut avit
Ġcognosc at
Ġreliqu ae
ĠX IV
Ġlaud at
Ġ13 0
ath a
Ġfl or
Ġsac c
ĠIud as
Ġsubi ectae
ãģ Į
Ġsoc ius
Ġdub ito
ĠAb ram
Ġgrav itate
Ġaedific are
Ġpon i
Ġpon atur
Ġcontin eri
Ġadd ita
Ġnoc tes
Ġmil li
Ġantiqu i
Ġtrad ere
Ġtrad itur
Ġcond uc
Ġarg u
Ġmir abile
Ġhabit u
Ġhabit et
Ġrespond et
Ġphilosoph iam
Ġtert ius
Ġprom isit
Ġnegot iorum
Ġclar us
Ġrecip i
Ġhost is
ĠIos aphat
Ġtabulat r
Ġtabulat od
Ġtabulat ir
Ġtabulat ro
Ġtabulat tor
Ġtabulat pr
Ġtabulat kr
Ġtabulat lr
Ġpauc os
ĠEp ist
Ġnunt ius
Ġinim icum
Ġpraed a
Ġpraed ium
Ġarbitr io
Ġarbitr antur
Ġtabula for
Ġtabula otr
Ġperic ulos
Ġperd ere
Ġmiss a
Ġta h
Ġta ulator
Ġta abulator
Ġcompos ita
Ġhered es
Ġadf irm
Ġfabul ator
ĠDic itur
ĠPrim a
ĠVid esne
Ġcunct ae
ĠMed ia
Ġcondic ione
ĠEpic uro
CC CC
ĠAg e
ĠCap it
Ġbland it
Ġeleg ant
iu ers
Ġtabulato f
Ġtabulato or
ĠVen iam
Ġfacult ates
Ġpolit icorum
ĠCal isii
errim a
Ġabsol ute
ĠTer rae
Ġlegit ime
Ġcess avit
Ġent ia
Ġquaereb am
Ġtabu ator
Ġpeculi um
Ġimpl eri
Ġacceper is
Ġfruct ibus
ĠArch id
Ġtw bulator
Ġhodiern a
Ġduplic em
Ġtex tus
Ġconsult o
ĠSeptentr ioni
ĠTurc iae
ĠFret i
Ġlacrim is
Post quam
Ġdisser endi
Ġsatisfac it
Ġdisciplin ae
Ġclari fic
ĠHier ony
ĠNap ole
Ġpulchr itudo
Ġul ter
ecess or
ĠColl eg
Ġtabular or
ĠCatil ina
Ġcathed r
Ġcanc ell
Ġuter que
Ġcour se
Ġcardin alis
ĠPod ii
ĠPenn silv
Ġlon go
Ġtav ulator
Ġtt abulator
Ġtabulq tor
Ġtabulw tor
Ġtabulz tor
Ġtabulator r
Ġtabj lator
Ġtabull ator
Ġtabup ator
Ġtablu ator
Ġtaub lator
Ġtabuk ator
Ġtabual tor
" )
" ]
, ,
7 2
7 6
8 1
B rit
M irum
S T
T hen
c ont
g en
h us
i etur
l as
l ov
n d
r or
r ant
v ir
v erit
w as
w ere
y lator
qu et
it ius
Ġp oc
on iis
Ġn as
re w
Ġin ert
Ġin possibile
Ġt bulator
ur y
ur os
ut h
Ġi u
en g
ec a
un am
un ic
Ġl av
Ġl ub
Ġl ast
Ġad ire
Ġut roque
as a
as on
Ġquae libet
ĠI oram
Ġcon pl
Ġex or
Ġex eunte
al og
ĠS per
ĠS pe
ĠC ro
ĠC og
ag esimo
ĠD eb
ĠD ix
ĠD enique
Ġdi rimi
Ġb i
Ġqui et
est i
est us
est im
Ġper ierunt
ra st
ĠP res
ĠP art
ĠP aen
rat ionem
Ġen d
Ġhab endi
Ġtu eri
Ġsc iant
iv es
uc k
Ġcom itia
ort uus
Ġu os
Ġab ulator
av ing
Ġvid isse
ell entesque
ĠL ep
ĠH ar
Ġne ut
ĠR atio
Ġam andi
ĠF DP
ĠV itae
Ġthe at
Ġqua eri
Ġtam que
ĠB oh
Ġsol ere
Ġr ost
Ġcont ex
Ġsum ps
res sit
Ġst re
Ġst et
ri e
eat is
eat ured
Ġanim alium
Ġus i
Ġus ui
Ġdol um
Ġdol entes
Ġnum m
Ġman eat
ator i
Ġimp lic
Ġsim p
ris que
Ġdeb ui
Ġac ie
Ġpraes ente
Ġpraes cript
Ġtr it
Ġtabul ay
Ġquas dam
Ġsuper v
Ġcap itis
Ġ18 10
Ġ18 15
Ġ18 50
Ġei que
Ġmal itia
ff er
Ġmaxim is
Ġdes it
Ġ200 3
ĠFranc ogall
Ġocc is
Ġocc ulta
Ġfort em
Ġscrib e
Ġconf ort
Ġinf l
Ġviv eret
Ġviv erra
ĠCom p
Ġfr ag
Ġconv allis
Ġcred erent
Ġdoc tus
Ġdoc ti
Ġconsequ at
Ġdel eg
Ġpa ul
Ġy abulator
ĠLat inis
odo x
Ġ8 8
Ġvest ras
ĠGraec um
Ġev ers
Ġvolunt ati
Ġext end
pic ere
Ġtest ibus
Ġ9 6
Ġabs unt
Ġintelleg erem
Ġtab lator
Ġtab ylator
Ġmut uo
Ġaccip iens
fer am
Ġbeat iorem
Ġfut uram
Ġcet erae
Ġstat uam
Ġconstit utionem
Ġtim eo
ith eat
Ġoport uit
ĠBr undis
ãģ ¾
Ġideo que
ĠTh ere
Ġgrav ior
ach ed
ĠSic iliae
Ġmov ens
Ġcontin etur
Ġdiff erent
Ġli quid
Ġdet er
ÑĢ Ñĥ
Ð» Ñĭ
Ð» Ñı
ĠReg no
Ġinstit uit
Ġall eluia
ĠPrae ter
Ġparv uli
Ġgaud et
Ġepist ola
Ġcal icem
Ġrecip ere
Ġadv ent
Ġhost e
Ġmagist ratum
Ġtabulat ot
Ġterr as
Ġsper at
ĠMag num
Ġindic avit
Ġnob ilis
ĠIudae a
Ġmitt i
Ġequ os
Ð°Ð ¼
Ġrog avit
Ġtabula or
Ġtabula ator
Ã¡ s
ĠDor sorum
Ġcas um
Ġnav es
Ġads unt
Ġnasc i
Ġvideb is
Ġmanifest e
uram entum
Î¿ ÏĤ
Ġ196 1
Ġfund o
Ġcrim in
Ġexper tus
ĠSa ul
ĠEpiscop o
Ġpen es
Ġtabulato e
Ġelect io
Ġsep ult
Ġconsider andum
ĠMat ronae
Ġiucund e
Ġcult um
Ġprohib et
ipp iae
Ġsangu inibus
ĠScip ionis
Ġconsc ientiae
Ġcomprehend it
Ġtribun us
Ġsacerdot um
ĠLeg e
Ġnub ere
Ġmont es
Ġoccas ione
Ġperfic i
Ġtabu ulator
Ġhonor ific
Ġpre dic
ĠTemp us
Ġconvert it
ous e
Ġá ½
Ġtrist itia
ĠSum ma
Ġprog ress
ĠTar qu
Omn es
Ġnut r
Ġlook ing
Franc ice
Ġpast ores
Ġmagistrat u
Ġglorios um
Ġimb ec
ĠGeorg ius
Ġsever al
Ġmaj or
Ġimmort ales
Ġpersuas um
Ġconviv ium
Ġmall em
ĠLu ke
Ġfont em
ĠMiss iss
Ġconsens u
Ġdesert o
ĠLudov icus
Ġsm all
ĠReli qu
Ġcognov issent
Ġexspecta re
Ġpulv inar
Ġseem ed
Ġexercit uum
Ġfacillim e
ĠCaus a
Ġpraecl arum
Ġmetrop olit
Ġdomic ilium
ĠArdu enna
ĠCalv orum
ĠColosse um
Ġtag ulator
Ġtan ulator
Ġevident ius
Ġtz bulator
Ġimmedi ate
Ġbeautif ul
Ġtabh lator
Ġtq bulator
Ġts bulator
Ġtba ulator
Ġtabil ator
Ġtabuo ator
Ġtah ulator
Ġtabulay or
' );
8 3
A cc
I m
O m
S ec
c ae
g raph
l d
m ost
r iter
w ord
z y
Ġa x
Ġa uc
us ta
at enus
on ica
Ġn ic
Ġd ati
Ġd og
Ġd rac
Ġd abis
Ġm ere
Ġm ora
Ġm aria
Ġm ilibus
Ġin lum
Ġin struc
Ġt on
or ter
Ġv ino
Ġv eget
ut urum
Ġf asc
Ġf rang
li ps
Ġh ast
es p
et si
id ius
Ġpr idie
ia bit
ol es
Ġre fic
Ġre trib
Ġl act
Ġad quir
oc inium
Ġquod que
ac em
ac iter
ll e
ab as
ab ilibus
Ġut or
ĠI urae
ĠA et
Ġex alt
ĠS anto
ĠC ardin
ĠC DU
ag us
Ġ1 01
Ġomn im
ip h
ra p
Ġg ran
rat is
ect ed
ir d
Ġen quire
ĠN im
ĠN ot
ĠM inus
Ġquid vis
iss io
Ġse ips
and os
ort um
Ġver itati
Ġvid erem
ĠL em
ĠL ang
Ġsit u
ĠH S
Ġop ibus
Ġne pos
Ġca utum
Ġam atur
ĠT antum
Ġpar c
Ġpar i
Ġinc orp
erit is
ĠV erba
Ġqua que
Ġqua libet
ari e
ig mata
ĠB at
ĠB ur
ĠB uc
ĠB ern
Ġsol itudine
Ġscr ut
Ġw ish
Ġor ans
ĠO per
ĠO rb
ĠIn v
Ġneque unt
issim orum
Ġ19 29
Ġsp atia
Ġus uram
Ġaud iam
Ġaud ite
Ġaud istis
Ġob j
Ġmagn itudinem
Ġimp ut
Ġcommun itatis
Ġpraes ent
Ġrep os
Ġrep reh
Ġiudic atum
Ġiudic abit
Ġcur ios
Ġdisc endi
Ġded erunt
Ġmortu os
Ġ200 4
Ġcl em
Ġfid eles
Ġplac ent
Ġcol umb
Ġsequ etur
Ġins uper
Ġcred itur
Ġfi erent
Ġexc la
Ġopp robrium
all a
Ġprob arem
Ġmolest a
Ġneg et
Ġred di
ĠAr m
Ġquaer ens
Ġnatura libus
Ġius iur
Ġ9 2
Ġ9 3
Ġabs ens
Ġcogit amus
Ġfaci endi
Ġfam ae
Ġaccip iam
Ġlong am
ĠX IX
Ġconstit utione
Ġod erit
Ġfact urus
Ġlat inae
Ġsubi ecti
ãģ ¦
ãģ Ļ
Ġspec ulum
Ġsignific atione
Ġost ent
Ġgrav es
Ġluc is
Ġpraecip it
Ġperson as
Ġeffic iuntur
Ġantiqu um
Ġantiqu itus
Ð» Ð°
Ġvult u
Ġvet eribus
Ġmand avit
Ġphilosoph os
Ġnol unt
ĠNihil o
ĠAnt onio
Ġcogitat io
ĠAli ud
Ġso ft
Ġdep rav
Ġdep rehend
Ġav unc
ãĥ ¼
Ġdil uc
Ġvell ent
our t
ĠMag nus
ĠNov um
Ġnob il
ĠCat onem
Ġuid entur
ĠAs iae
ĠAs per
Ġpriv ata
Ġpriv atis
Ġinim icorum
Ġpropos ito
Ġutil itates
Ġperd id
Ġmori etur
Ġdam natus
Ġpret ty
Ġconiunct um
Ġnav ibus
Ġscrips erunt
Ġscrips eram
Ġcompos itae
Ġhered itate
Ġrelig ione
Ġle ve
Ġfabul arum
Ġsociet atis
Ġignor o
Ġlabor o
ĠDic endum
Ġiniqu itate
Ġmilit aris
Ġha eres
Ġgener ibus
Ġgener alis
Ġrestit uere
Ġcommod ius
Ġsingul ari
Ġprud entiam
Ġprud entiae
ĠMat th
Ġsolv ere
Ġ195 7
Ġrepet ere
Ġdoctr inae
Ġlig no
à« §
Ġinterfic iam
Ġimpet us
Ġadduc am
Ã¨ s
Ġjudic ium
ĠDem et
Ġvale ant
Ġsod ales
Ġdissim ilis
ĠMet ellum
ĠIns ulae
Ġoppos itum
Ġventur um
Ġhosp it
Ita que
ĠTro iam
Ġprec es
Ġsyll ogis
Ġintent io
Ġduplic iter
ĠDel ph
Ġdiut ur
Ã¼ r
Ġdere liqu
ĠHelv etiae
Ġtene atur
ĠSyr iae
Ġui uit
Ġbarb ar
Ġinstrum entum
ĠBoruss iam
ĠCr assus
Ġapplic atione
ĠJo annes
Ġnuntia vit
äº º
Ġcod icem
Ġvuln era
ĠMichig anensi
Ġinut iles
Ġvesper um
ĠRub en
Ġindustr ia
Ġiurid icae
ĠOc tav
Ġquere la
Ġoct og
ĠNob eli
Ġweb sit
Ġquick Shop
ĠCalifor niae
ĠRect e
Ġke ep
Ġianu am
Ġdetest abili
ĠSaec ulo
Ġlocup let
Ġcann ot
Ġvenen atis
Ġnib h
Ġcoopt atus
ĠPaen insula
ĠMississ ippiae
Ġexcla imed
1 12
E n
F ac
L e
N ull
S p
T o
T u
V est
W hy
] :
l ing
p is
r io
Å ¼
Î ¸
Ï ĩ
à ¶
qu ando
Ġa uris
Ġs lowly
Ġqu art
Ġp ull
Ġp ug
Ġp uncta
am que
Ġc aret
Ġn oll
ic itur
Ġt orqu
or o
Ġv ast
Ġv ana
Ġv illa
Ġh are
an im
ar p
id iae
ul at
ul isti
ent ina
ol eo
un quid
Ġre tr
Ġre verter
Ġl uct
Ġad pet
ud et
Ġut eb
Ġut imur
ant as
ĠI ure
ĠI terum
ĠE dit
ĠA T
ĠA ed
al f
ĠS h
ĠC ore
ĠC ulpa
ip ublic
Ġper it
Ġprae est
Ġg ut
Ġg all
ĠQu as
ĠQu Ã¦
Ġco actus
ĠN olite
und iae
Ġap tum
ort ium
Ġver us
av ero
ĠL eo
ĠL icet
ĠH isp
Ġca er
Ġam as
Ġam aret
ĠT ra
ult i
ĠF ili
Ġinc idere
ĠV ia
Ġim pon
Ġqua lia
Ġma x
Ġeum que
ust ae
Ġun icum
Ġun iuers
ĠB arc
Ġsol ebam
Ġsol lem
Ġr aro
Ġtemp la
Ġmod icum
Ġor at
Ġfu issemus
Ġst range
erat ione
Ġpat iuntur
ov iae
Ġanim antium
ĠO F
Ġcor n
ap s
Ġleg atorum
ers on
Ġ19 22
Ġpost erius
Ġmult am
Ġmort ale
Ġmagn as
Ġimp ress
Ġcommun ione
ug it
Ġas inus
Ġpraes entiam
Ġtr y
Ġist ic
ne x
Ġsuper fic
Ġrep ud
Ġ18 48
Ġamic itias
Ġdisc ord
Ġdec lare
Ġmaxim i
he us
Ġlit ig
Ġviv endi
Ġcol orem
Ġins ol
ĠCom itatu
Ġdef er
Ġdef orm
Ġcred endum
Ġj uramentum
Ġnov is
ĠIta li
Ġdoc e
Ġprob at
Ġred im
Ġdomin a
oth ers
Ġnesc ire
Ġquaer eretur
Ġext it
Ġnecess ariis
Ġnecess ariam
Ġfam e
Ġfam es
ow er
Ġvic es
th is
Ġreliqu o
iens i
Ġpet unt
Ġfut uris
Ġlaud ibus
Ġveni et
Ġconstit uitur
Ġfl oor
Ġexist ens
ph us
Ġ10 3
Ġpecc atis
ãģ Ł
Ġtrans ire
ĠIll o
ĠCiv itates
ĠMa ximus
Ġaequ itate
Ġgrav iter
Ġaedific ium
Ġperfect e
Ġaudi endi
Ġaudi ebant
Ġmon ach
Ġmir abilia
Ġmir aculum
Ġlic entiam
Ġnol uerit
Ġimag ine
Ġimag inibus
ĠAnt on
ĠAnt ecessor
Ġscript urae
Ġepist ulas
Ġhuman am
Ġsex us
Ġsex ta
Ġdiffic illim
ĠAegypt ii
ãĥ ³
ãĥ »
Ġexistim are
ĠIm possibile
Ġpugn are
Ġmagist ro
Ġmy th
ereb atur
rac us
Ġsucc essit
Ġalien is
Ġlac um
Ġpriv atus
Ġpass io
ãĤ ĭ
Ġpuer orum
Ġutil itate
Ġmori endum
Ġ199 4
Ġiac ere
Ġgest um
Ġla ugh
ĠNum erus
Ġdivis ae
Ġrelin quam
Ġvideb imus
Ġle ft
Ġpossid endam
Ġtut or
Ġcircum stant
Ġsimplic is
Ġro of
Ġquaes ivit
quod que
Ġlaet itiam
Ġcustod iam
Ġfund amentum
ĠDol ore
Ġsalv um
Ġasc ens
Ġeleg it
Ġsingul are
Ġrelinqu itur
Ġinu eni
ĠArist onem
Ġconsider are
ĠCons ilium
ĠPot ius
Ġparticip atione
Ġsomn um
ĠPol it
ĠScip ionem
Ġsumpt u
Ġconfic i
Ġnub ibus
Ġty pi
Ġos sa
ĠZen o
Ġcern itur
Ġadulesc entia
Ġrequir itur
Ġuer itatem
Ġcontrovers iam
Ġexpl an
Ġsort e
Ġinsign e
pex i
Ġuerb o
Ġdere lin
Ġelem enta
Ġsupplic io
Ġspon sus
ĠTheod isc
Ġconst et
Ġpaupert atem
Ð¾ÑĤ Ð»Ñĭ
Ġdile xisti
Ġevangeli um
Ġsemet ipso
ĠÄ Į
Ġfrum entum
wh ere
Ġvas a
ĠÐļ Ð¾Ð»
Ġpiet ate
ĠAch a
ĠMoys en
Ġuide atur
Ġoccur rent
Ġquest us
Ġperi erat
Ġtransi it
Ð½Ñĭ Ðµ
Ġcongru amus
Ġerub esc
ĠUs que
Ġpraeceper at
Ġfallac iloqu
ĠKans iae
Ġeman cip
Ġgymn as
ĠNecess itatibus
ĠQuic quid
ĠOtt oman
Ġâľ ¿
Ġunic uique
ĠPennsilv aniae
Brit onice
Ġiusiur andum
Ġfallaciloqu ae
' re
, .
6 6
7 5
9 9
A M
C ulpa
D omine
R eg
S it
S im
c ra
c ons
h is
i est
i anus
j e
m b
m enta
n or
o on
p o
r idie
u ada
w or
y t
Ã ĥ
Å ¡
Î Ń
Ñ į
ä ¼
æ ĺ
Ġ 000
Ġ ÏĢ
er land
er ald
Ġa es
Ġa uro
Ġs entias
in v
us e
Ġp il
Ġp one
at rix
on et
am in
Ġc ereb
Ġn ine
Ġn upta
Ġd it
Ġm en
re a
Ġin eb
ic s
ic ium
Ġt ib
Ġt orm
Ġt itio
Ġi e
en am
Ġest o
es que
et s
ul arium
ib it
ib at
un eburg
Ġre deo
Ġad sequ
Ġad di
ac o
as ph
Ġde fectus
ĠC li
ĠC ent
el lig
ĠD o
ĠD ur
ĠD ig
Ġb oth
Qu a
Ġfac itis
Ġfac ientibus
Ġprae fer
ĠP an
Ġg erere
Ġill inc
ĠQu ippe
Ġsed e
Ġhab u
uit as
eg er
iv erunt
are st
uc a
ĠM en
iss ionis
Ġquo vis
Ġth ink
Ġu enit
Ġab sit
Ġmihi que
ĠL ac
ĠR atione
ĠR uf
Ġca lid
ĠT rin
ĠF at
Ġpag i
Ġpag inis
Ġaliqu anto
erit o
Ġvol u
Ġvol uisse
ĠV ind
ess us
Ġun ct
Ġun itas
ĠB erg
ĠB apt
Ġsol utum
Ġo liv
Ġsum pta
Ġsum psit
Ġor a
Ġst op
Ġst abilis
Ġsec retum
Ġbon itas
Ġmin ori
Ġmin ora
ĠO s
Ġcre are
Ġcre ati
Ġleg atis
Ġvir ibus
Ġ19 14
Ġ19 25
Ġser u
Ġsub stit
Ġpost eris
Ġaud imus
ific em
Ġ- ,
Ġquibus cumque
Ġag etur
Ġsem it
Ġven isti
Ġvit iorum
Ġput averunt
Ġput abam
Ġtr ac
Ġrem ans
Ġto ward
ne que
Ġiudic is
Ġiudic et
Ġiudic as
Ġiudic iis
Ġdiv inis
Ġdiv itiis
ĠQuid em
Ġmaxim as
Ġmortu orum
Ġnot us
ĠFranc ica
Ġfort iter
Ġconf ido
ĠÐ ¡
Ġcol unt
Ġcar c
Ġten ent
Ġten entur
Ġconv entus
Ġlab ores
Ġj o
Ġprov is
Ġconsequ itur
Ġprob o
Ġcae s
Ġtantum modo
Ġform id
ĠAr men
Ġcert am
Ġcontra h
Ġcontra dic
Ġadh a
Ġsanct os
Ġduc ibus
Ġing ressa
Ġcogit andum
Ġcogit abam
ios o
ord in
Ġdign issim
Ġintelleg unt
Ġexerc itat
Ġhon oris
erv a
Ġunum quodque
Ġaccip iuntur
Ġcognosc etis
ĠMar it
Ġmed ius
Ġappell atus
Ġappell ata
Ġpatr oni
Ġ13 9
Ġintel ligo
Ġproc ons
Ġsen es
Ġ11 1
Ġ11 5
ide libus
Ġintellig endum
Ġplur imae
ĠSan e
Ġaper it
Ġsubi ectus
Ġquin decim
ãģ Ĺ
Ġsignific atio
Ġsignific ationem
ffect us
ĠAl t
ĠGerman iam
Ġdem in
Ã© s
ÑĢ Ð°
Ġunivers o
Ġvet eris
Ġelig ere
Ġmir or
Ġed ita
Ġfin itum
ĠPro inde
Ġuel ut
Ġredd itur
Ġprofect um
ĠAli ae
Ġprom is
Ġaccep istis
Ġsept ima
Ġpugn avit
Ġcupid itas
Ġport us
Ġfur ti
Ġteneb ras
Ġlud is
ĠGal liam
Ġsor oris
Ġra pt
olog y
pici ens
Ġvers ibus
Ġhered itas
Ġcens ent
Ġhort um
Ġhort us
opt ions
Ġcreatur is
Ġostend itur
Ġrestit u
Ġtestam enti
Ġcommod e
Ġdepos iti
ĠRh eni
Ġdesider io
Ġden ot
Ġden uo
Ġelect ionem
ĠOr d
ĠMin ime
Ġfirm a
Ġconvers i
Ġconvers us
ĠLa od
Ġdefend itur
ĠSec undo
ĠSam ara
Ġcult us
Ġlegit ima
Ġsoli d
Ġhistor iam
Ġent e
Ġmemb ris
way s
sel ves
Ġsci rem
Ġtit ulo
ĠRuss ia
ĠSequ itur
Ġexpet endum
ĠSy racus
Ġoccurr unt
Ġconstant er
Ġeloqu entiam
Ġdilect ionem
Ġdefic it
Ġmagnific e
Ġintent ionem
ĠRespon dit
Ġvirg ines
Ġnupt iarum
Ġ} );
Ġconsent iunt
Ġarb orum
rupt i
Ġobliv isci
Ġconsult um
ĠOp ort
ĠPhil ot
Ġreman et
Ġdesin it
ĠCet era
ĠApoll onius
Ġá¼ Ģ
Ġcreat ure
Ġpond us
Ġsubsist ens
ĠÐļ Ð¾ÑĤÐ»Ñĭ
ĠEph ra
ĠOpt io
ĠOffic ia
ĠGrat ias
Ġsyllab a
Ġstell arum
Ġopport un
Ġregim en
ĠIoach im
Ġinfam ia
Ġdiscrim en
Ġcontig erit
Ġbrach ium
Ġsagitt is
Ġbov em
Ġprav ae
ĠMoy si
"] ,"
Ġenquire d
Ġdeclare d
4 28
B o
C l
E l
E s
I p
J im
O z
U R
U rb
V ir
] }
a ad
f i
k t
m ihi
m og
m ann
n os
r ui
s es
v eniens
Å ¾
Ï Į
Ï į
Ð ¡
Ð ¶
å Ń
Ġ ]
Ġ ....
Ġ ulc
Ġ ÏĦ
Ġ ä¸
Ļ éĭ¼
Ġa evo
Ġp es
at ii
am ini
Ġc le
Ġc entur
Ġc lim
Ġn i
Ġm am
re ta
Ġin str
ic y
ic io
ic omm
Ġt rem
Ġt ecta
Ġv iis
Ġv endere
Ġf oc
Ġh ard
ec utus
ul ares
Ġpr ost
Ġpr osc
ia les
Ġre qu
Ġre stat
Ġl ov
Ġad sequi
oc t
ll a
Ġut pote
ant s
ĠI erusalem
Ġcon fectum
Ġex ha
al um
ĠS crib
ĠC IC
Ġdi urn
Ġper ire
Ġfac ilior
ra id
Ġg ente
ĠQu ar
ili bet
Ġco qu
ĠN atus
Ġpos uisti
Ġsc itum
iv er
ĠM ac
Ġab ys
Ġab hor
Ġab bat
ell ow
ĠL ug
Ġsit e
ĠH ann
Ġne utrum
ĠR el
Ġca lig
ĠT ulli
ĠT rib
ĠF inis
ĠF usce
Ġvol uisti
Ġpl eas
Ġcons urg
ĠV at
ĠV icip
Ġim ponitur
Ġun is
ĠB ell
ĠB ad
ĠG r
Ġr un
Ġr ud
Ġint rat
Ġprop h
Ġscr ibi
Ġcomm ittere
Ġsum ere
Ġst igmata
ad d
ad o
eni ret
ĠO ly
Ġcor ona
ap ed
Ġ19 23
Ġsp ha
Ġloc uta
Ġloqu antur
Ġser p
Ġincol as
Ġpost erum
Ġaud iat
Ġaud itor
ĠU lix
Ġcaus atum
le ep
Ġinv itus
ero g
Ġag no
aud iae
Ġrat um
Ġvit are
Ġput atis
Ġvoc is
Ġsuper iore
Ġrep ente
Ġiudic e
Ġcur rit
Ġnomin antur
Ġdec us
Ġded eris
Ġnot is
ici untur
Ġ200 1
Ġsent i
era que
ĠFranc ia
Ġlit ore
Ġgrat uit
Ġconf ug
Ġit al
Ġel ement
Ġinf idelibus
Ġpraec edit
Ġcol onia
ĠAm mon
Ġcar cere
Ġmis isti
Ġpraeter it
Ġvide ar
Ġcirc uitu
ĠLat ino
Ġprincip atus
Ġcert is
Ġsumm us
Ġfug iunt
Ð¾ Ñģ
ĠQuae s
Ġev entus
Ġext rah
Ġeg erit
ĠW hen
Ġsus pecta
Ġbe ars
Ġsapient er
Ġvic tum
Ġvic arius
ĠMar ci
Ð¸ Ðµ
ĠPr ob
Ġstat uit
Ġiis dem
Ġtim es
str ing
Ġ11 7
Ġmuli erum
ĠBr und
ĠBr uns
Ġk al
Ġquin tum
Ġimm in
Ġimm ol
Ġsoc iorum
Ġliber ae
Ġliber atus
Ġhe ard
ane um
Ġaedific atum
nam e
Ġdist ric
Ġmet imur
ĠIo ab
Ġadd uxit
Ġdet rim
Ġquaest or
Ġquaest ione
Ġcontr actum
Ġarg ent
Ġmon str
Ġinven isti
Ġch em
ĠSp ec
Ġmiser rim
red itur
Ġfide libus
Ġredd at
Ġbib as
Ġbib liothec
Ġparv am
uic em
Ġdict urus
Ġcop ul
Ġcop iam
Ġerr oribus
ĠIm p
Ġadv entus
Ġincip ere
ereb amus
ipisc i
ĠAs c
Ġpriv ileg
Ġrog at
Ġrog atus
Ġdefin it
ãĤ ¹
ãĤ Ĵ
Ġpropos ita
Ã¡ ria
Ġiuv at
Ġmori untur
Ġ199 3
Ġaest ate
Ġlud os
erd in
Ġtestim onia
Ġpuell is
Ġhor as
Ġvers atur
ĠCl er
Ġpal ace
Ġfre e
Ġpossid ere
Ġlabor are
Ġorient em
Ġsimplic em
Ġ197 8
ĠMed iol
ĠNe w
ĠNe ap
Ġscel us
ind ow
ĠBritann iae
Ġ198 9
ĠImper ator
ÐµÐ ´
Ġexcept is
Ġfacult ate
Ġdioeces i
Ġminist ri
Ġsh all
ĠSam aria
Ġrecord atio
ĠNost rum
Ġimpet um
Ġsacerdot io
Ġaccept o
Ġmemin isse
Ġproeli um
ĠTemp ore
Ġdeclar at
Ġvictor iam
Ġinvid ia
Ġâ Ĺ
Ïģ Î±
Ġpleb is
Ġdilect io
ĠHab et
Ġqual itas
Ġinius t
ĠLab an
ĠArch iepiscop
Ġconfit eri
Omn is
Ġrevers us
Ġresist ere
ĠSex t
Ġglori ari
Ġsta ir
Ġdere lic
ĠBeat rix
Ġcruc em
Ġresurre xit
Ġnonnull a
Ġclaus a
ĠSent entia
Ġconfer re
Ġpeti erimus
Ġoctav a
ĠAct s
atto o
Ġavar itia
Ġrob ust
Ġsubl ata
ĠEzech ias
Com p
ĠÅ ¿
Ġperse ver
Ġwor k
ĠAth eniens
Ġclari ora
Lib er
Ġparoec iae
Prim um
Ġpeper cit
Ġatting ere
ĠInterrog atus
ĠGa ius
Ġtal k
ĠHung ariae
Ġadept o
Ġduct i
Ġexcels iores
Ġimprim is
Ġsho uld
ĠGre ek
Ġcotidi ana
Ġsugg est
ç´ Ļéĭ¼
ĠAnsel mo
ĠCantu Ã¡ria
Ġapprop inqu
ĠVind ob
ĠBruns v
! !
' )
? )
D onec
E ccles
I s
L E
O n
S e
U n
X II
b le
f ell
h s
i er
i atus
i udic
i ano
m io
n ing
r iam
s ae
u es
u itatem
w a
¤ ãĥ
» ¿
Ä ķ
å ¥
å Į
Ġ Ø§
qu em
um en
er antur
er amus
Ġs eri
in xit
us us
Ġqu and
Ġqu acumque
is ta
Ġp ens
Ġp av
at ive
on icae
am i
Ġc arent
Ġc ity
Ġd read
Ġm isc
Ġm enda
Ġin nox
Ġin eff
Ġin uicem
em ist
Ġt rav
ur orum
Ġv ag
Ġi v
Ġf ol
Ġf onte
Ġf icta
Ġf olia
om us
im ile
an k
id os
id uo
os ae
ec isti
ul erit
Ġre b
Ġre um
Ġad op
oc endi
ud ens
ll am
ab amus
Ġut risque
ot i
ot es
ot os
Ġde ponere
Ġde stru
ĠA gn
ĠS eg
ĠS ing
ĠS uet
el e
ĠD ign
end ite
Ġper p
ter s
Ġprae fic
ĠP sal
ĠP uer
Ġg ave
ist icae
Ġsed uc
Ġen um
uit us
ĠM aecenas
Ġquid itas
Ġpot uimus
pt is
Ġu ers
Ġab ut
Ġab dic
ĠH ost
Ġop orter
ĠR eb
ĠR usc
ĠR ursus
Ġca ut
Ġca se
Ġam avit
ĠT enn
Ġpro ve
Ġpag e
Ġcu res
Ġinc umb
isc ip
Ġvol ebam
Ġpl eraque
ĠV i
ĠV ulgate
ĠV ivamus
Ġnec atus
Ġnec non
ig en
Ġun itate
ĠB y
ĠB ened
Ġr ot
Ġint est
Ġint rare
Ġacc eptum
Ġst e
Ġdix ero
Ġdix erint
ri es
ov a
ran e
Ġanim as
ĠO h
ĠO x
Ġleg avit
ĠIn stit
Ġloqu entem
Ġdol eo
Ġnum erat
Ġomnes que
ĠSed es
Ġquibus cum
itas se
Ġdu arum
Ġimp let
Ġnatur alem
Ġcommun itas
ug ium
Ġdeb eatur
Ġac quiesc
Ġven iant
Ġurb ium
Ġrem ota
ne w
ne y
Ġis n
Ġexp ress
Ġcur at
Ġdisc ept
Ġnomin atur
itud in
he ad
he ight
Ġ5 00
Ġcogn itam
Ġrec re
Ġrec ent
Ġrec urr
di ffic
Ġfort es
Ġact ionibus
Ġconf ecta
ori arum
Ġinf antes
Ġpraec episti
Ġcol um
Ġins ide
ĠAm as
Ġcar itatis
Ġmat ri
Ġmat tis
Ġlab eo
Ġj uv
Ġdel et
Ġneg lig
Ġdomin ium
Ġprincip is
ĠAr aris
Ġcert amen
ea se
Ġfug erunt
Ġquaer am
Ġund ecim
ix um
ĠW ood
Ġduc itur
Ġduc atus
oli d
Ġ12 1
Ġfam am
Ġmut atur
Ġbeat issimum
th em
Ġcognosc eret
Ġpet it
Ġpet eret
ĠEx p
Ġappell ati
Ġcet erum
Ġstud iose
Ġlaud is
Ġ13 2
Ġ13 3
Ġ13 8
ĠCon v
Ġproc re
Ġproc edit
if orm
Ġsen ectus
Ġ14 7
Ġ11 3
Ġintellig entiae
Ġmens am
Ġ10 7
Ġaccus atus
Ġaper itur
ĠBr as
Ġpecc at
Ġmor eretur
ãģ ª
Ġsignific et
ĠOmn ium
Ġaequ a
Ñģ Ñı
Ġgrav em
Ġsimul ac
ric em
Ġdiff erant
Ġcontr ariae
Ġtrib uta
Ġadvers ariis
Ġch at
Ġmand avi
Ġobs id
Ġlic itum
Ġaetern us
Ġsecund ae
Ġmiser am
Ġrev era
Ġinstit u
Ġall eg
Ġfide icomm
Ġlae ta
Ġperm ut
Ġpugn am
Ġdelect or
Ġmy st
Ġreper io
Ġpauc orum
ĠNov a
Ġnob ili
Ġmeli ores
Ġnunt iatum
Ġlac ess
Ġdo es
Ð°Ð ¹
Ġpass im
Ġcorr ip
Ġrog are
Ġperic uli
Ġ194 8
Ġ194 9
Ġnar ravit
Ġmiss i
Ġlud o
Ġaug ur
Ġfem inarum
Ġsor ore
Ġpret iosa
Ġcast rum
Ġambul abat
Ġhor am
Ġdivis io
Ġdivers um
Ġcompos uit
Ġfore ns
Ġiniqu um
Ġmar itum
Ġmar ito
Ġcircum cid
ack son
Ġinde x
Ġparent um
Ġnat alis
Ġnat ionibus
Ġvinc itur
Ġfel es
Ġscel era
Ġfund i
Ġperpet ua
Ġcrim ina
ĠDol ores
Ġfecerit is
Ġcondic ionem
ĠPar isi
Ġconced i
ĠLuc ius
Ġcommod a
Ġsempiter nam
ĠCathol ica
Ġeleg antiam
Ġgenerat io
Ġalt ius
Ġalt itudo
Ġsingul ar
Ġindig et
Ġrelinqu ere
Ġinst ar
ĠAf ricae
Ġ185 3
Ġx ii
Ġdelic tum
Ġparticip es
Ġproficisc i
Ġsomn ium
Ġcad unt
Ġcommend at
Ġdeduc ta
Ġmunicip ia
Ġsumpt um
Ġ186 0
Ġaccept i
ĠXV II
Ġmemin it
Ġnub es
Ġinteg ra
ĠXX I
Ġdur ius
Ġinqu iunt
ĠZen onis
Ġquaereb amus
ĠSequ i
Ġcapit ulo
Ġgr ass
Ġgreg em
Ġinsip ientes
Ġinsip ientium
Ġuer itate
Ġuolunt ate
ĠFl orent
Ġ180 6
Ġpollic etur
Ġacceper at
Ġperc ept
Ġmultip lex
ĠMaxim e
ĠMaxim um
Ġcontent ione
Ġtex t
Ġpast or
Ġnonnull is
Ġui uere
Ġpartic eps
Ġreman sit
Ġconsumm ati
ĠJud ae
Ġcotidie que
ĠSab audiae
Ġsplend id
Ġevangeli z
ious ly
Ġconsiderat a
ĠAv ic
igh ly
Ġprimogen itus
Ġcen am
Ġbas il
ĠNap oleo
Ġdext ram
Ġvestig ia
ĠEvangeli um
Ġsinc e
Ġegreg ium
Sic ut
Ġabb as
ĠDes erunt
???? ????
ĠPompon ius
Ġabscon dit
Ġabscon di
æĹ ¥
Ġexh ered
Ġlar ge
Ġprou inc
ĠTre b
Ġconfite or
ĠDemocr itus
108836 28
Ġdiluv ii
Ġtranqu ill
Lingu a
ĠFrider icus
Ġdeterr itum
Ġsyst em
Ġinflam mat
Ġpern ici
ipublic ae
Ġoporter et
! )
8 39
9 0
9 5
A ll
A utem
E p
F or
H ab
J oh
O D
R I
S U
S unt
T um
V el
X IV
Y es
b ec
c as
d er
d ia
d ific
f ord
g it
g es
g ar
g ed
h um
h rot
k i
k es
l s
l ay
m l
n esc
u al
x isse
Î ®
å ½
å Ĩ
è ¡
ï »¿
Ġ _
Ġ 01
Ġ lius
Ġe lic
Ġe rect
in one
Ġp hil
Ġp ensa
on os
Ġc ale
Ġc eperunt
Ġc Åĵ
Ġn uc
Ġd ate
Ġd aretur
Ġin di
Ġin itia
Ġin quir
Ġin eptum
Ġt ar
Ġt arn
Ġv ov
Ġv iarum
Ġf erat
Ġh at
im age
id itas
Ġpr or
Ġpr Ã¦c
ol vit
Ġl y
Ġl itus
Ġad fic
ud it
ac a
Ġut ar
Ġut ilis
Ġut eretur
op at
il o
ĠA di
Ġex stat
Ġquam que
ag er
ag ement
Ġb es
end e
ip iam
ĠP ut
ĠP un
ĠP isc
ĠQu aec
Ġco gitur
quam quam
ens o
Ġhab uisse
Ġsc ias
Ġsc iri
Ġsc iebat
ĠM ard
Ġpot eram
Ġse at
Ġver so
Ġips arum
Ġu ic
av ailable
ĠL et
ĠH os
ĠH orum
ĠH arum
Ġop e
Ġop ert
ĠR a
ĠR up
Ġam amus
ĠT ab
ĠT anta
ĠF erdin
Ġpag inae
Ġpar och
Ġinc epit
Ġpl ay
Ġpl anum
ĠV il
ĠV bi
Ġsol itudo
Ġr an
Ġcont endere
Ġcomm issa
res so
Ġfu ere
Ġfu isses
Ġst o
Ġlib rorum
Ġsec uta
Ġdix erim
ĠO g
Ġleg s
Ġser o
Ġsub dit
Ġaud eat
Ġaud iet
Ġob ed
Ġinv ito
Ġcuius modi
Ġag endi
Ġsim ilibus
ch i
ug a
Ġdeb ebat
Ġas ino
Ġput antur
Ġput avit
Ġist os
Ġrep rob
Ġdiv ino
ĠâĢ ŀ
Ġdec ur
Ġded uct
Ġdes erta
Ġintell ecta
ĠFranc orum
Ġgrat ius
Ġscrib imus
Ġconf erunt
Ġel se
Ġviv us
Ġplac eret
Ġins unt
Ġins crib
Ġfrat ern
ĠAm ic
Ġten eat
Ġdef ini
Ġconv entum
ĠJ er
ĠJ erusalem
Ġfi ebant
Ġprov idere
Ġfecit que
Ġvide as
Ġvis ionem
Ġprob abis
Ġgl ob
Ġsal ub
Ġeg est
ĠW il
Ġhom e
Ġhom ic
Ġing em
Ġtest em
Ġ12 2
Ġ12 6
Ġ12 7
Ġintelleg is
Ġmut ata
Ġmut uam
Ġvic em
Ġaccip iatur
th ing
th ough
Ġreliqu orum
Ġiur ibus
Ġcet eras
pos sumus
pos ition
Ġ13 1
Ġ13 4
ĠPr os
ĠPr oph
Ġstat uta
Ġstat utum
ĠCon stit
inam ur
Ġ11 6
Ġfl u
Ġintellig atur
Ġmens em
Ġsac ris
Ġ10 2
Ġ10 4
Ġsubi ect
Ġsubi ecit
ĠK ol
Ġsignific antur
Ġcup it
Ġrect issime
ĠTh ese
Ġdon ata
Ġmov ent
ric o
ric is
ĠIo anne
Ġli fe
Ġult ro
Ġult imo
Ġnoc tu
Ġnoc tibus
Ġmil lia
Ġperfect iones
Ġquaest ionis
Ġunivers um
Ġfer oc
Ġfer ri
Ġarg enti
Ġmir abantur
Ġdebet is
Ġamp ut
Ġexplic are
Ġfamili arem
Ġcr u
Ġscript oribus
Ġcogitat ionibus
Ġpraest et
ĠAli i
ĠAli o
Ġcal or
Ġcal lid
land ia
Ġlo quamur
Ġdelect ant
ĠInt ern
Ġhonest a
Ġopin iones
Ġcupid itatem
Ð°Ð ²
Ġpriv atae
Ġpass iones
Ġfur oris
Ġpropos itio
Ġiuv are
Ġcas ibus
Ġ199 2
Ġaff lic
ĠHispan iam
Ġgest orum
Ġeu angeli
ĠGal aad
ĠSept em
Ġconiunct ionem
Ġnav ium
Ġscrips erit
Ġcompos itionem
Ġadhib etur
Ġignor are
Ġsch olis
fac e
Ġaudire t
Ġiniqu itas
Ġmar iti
Ġordin atus
Ġcompar atur
Ġconsum ere
Ġturp iter
Ġturp itudinem
Ġ196 0
ech n
Ġcreatur am
Ġpauper es
Ġsusc ept
ĠPar lam
Ġrestit ui
ĠBritann icus
Ġfest o
Ġfest iv
Ġacced unt
Ġgenerat ionem
Ġsingul aris
Ġcib o
Ġscit ote
ĠEs iae
Ġ185 8
Ġconfirm atae
Ġtabern a
Ġtabern ac
Ġtabern aculo
Ġapostol is
Ġ195 8
Ġsollic itudin
Ġadiuv at
ĠPot es
ĠGen esis
Ġproport ionem
Ġsoli dum
Ġcess at
ĠScip ione
vent ore
Ġty p
Ġperfic ere
Ġdecre vit
ER O
Ġminister ium
Ġaccess eris
Ġfing unt
Ġadulesc ens
Ġventur us
Ġ189 3
Ġrequir it
Ġbl asph
ĠMarc ellus
Ġpropriet ates
Îµ Î¹
200 00
Ġcathol icae
Ġpopul aris
Ġconven erunt
ĠAcadem iam
Ġedic to
Ġconfus ionem
Ġpoet arum
Ġpict ura
Ġconcupisc es
Ġhodiern um
Ġnex t
err imus
Ġnut ri
Ġpermitt itur
Ġexprim ere
Ġcler icus
Ġconcip i
Ġobliv isc
Ġcresc it
ĠSyr iam
ĠMal mog
Ġadmirat ionis
ĠPraes es
Ġimport at
dom ad
Ġnud us
Prae terea
Ġmaled icta
Ġprocur ator
Ġsacram entum
Ġlacrim ae
Ġration alis
ĠDiet am
Ġmedioc ri
Ġobt ulit
Ġmall e
Ġfont es
Ġpontific atus
ĠCel tae
Ġperse v
ĠÐ¾ Ð±
AP TER
Mar cus
Ġbro ught
Ġcomplex us
Ġbenedic at
Ġtermin os
Ġmedic ina
ÑĨ Ð¸
Ġesc ape
ĠElis atia
Ġexam in
Ġrede amus
Ġcarm ina
Ġillust ris
Ġverec und
Ġmaer ore
ĠCred o
Ġcoerc endi
":[ "
ĠFrat er
Ġceler itate
Ġturn ed
ĠOri ent
Variant s
Ġadiun xit
ĠCong reg
Ġpraedit i
ĠNorveg iae
Ġnong entesimo
ĠHierosol y
ĠHierony mus
ĠEphra im
ĠTenn esiae
9 7
: //
= "
> .
? âĢĿ.
C at
D o
D ownload
I ab
K G
M ulta
N umquam
O r
S um
a que
c le
c row
e antur
f eatured
g l
l oc
l iter
s ub
t as
t ionis
u z
v us
v imus
Ã ¸
á ŀ
å °
å ĩ
æ °
Ġ Ïĥ
Ġ ole
Ġe dixit
er u
Ġa vers
Ġa ev
Ġs es
Ġqu aliter
Ġp ont
Ġp sal
Ġc f
Ġc edit
ae st
Ġd etur
Ġd entes
Ġd ans
Ġd atam
Ġd iac
Ġm ight
Ġin pr
ic ulae
Ġt old
Ġt aed
Ġt iny
Ġv iat
ut iae
Ġf ato
Ġf reg
li xit
om i
Ġh yp
Ġh aving
im et
im arum
et ia
ul aribus
ent ae
Ġnon aginta
Ġpr iori
Ġpr ison
ed erland
Ġl ot
Ġl atus
Ġl ow
Ġad aequ
as que
Ġde ae
Ġde st
Ġde ar
Ġex ord
Ġex inde
Ġex ponere
al itatis
ĠS ta
ĠS up
ĠS oph
ĠC en
ĠC ab
ĠC op
ĠC ath
el o
ĠD id
ĠD uae
omn is
Ġper sequi
ĠP KG
Ġg entis
Ġg eruntur
rat ione
ĠQu arum
ĠQu inct
Ġco empt
omin a
omin g
Ġen unt
ens am
ens ione
Ġhab ito
Ġpos c
Ġpos it
ĠM M
ĠM ore
ĠM ex
ĠM odo
und am
eb imus
Ġpot entes
Ġ2 50
ort h
ort us
ort is
Ġth ing
Ġposs es
Ġab hinc
ĠL y
ĠL up
ĠH ol
Ġer rat
Ġer og
Ġca ud
Ġca str
ĠT ul
ĠF ann
ing ere
Ġaliqu antum
Ġpl ene
Ġpl ease
ĠV ero
ĠV enit
Ġnec ati
ess i
ert atis
Ġpotest ati
ĠB is
Ġsol vit
Ġint rav
Ġcont ulit
Ġw on
Ġcomm is
Ġor ationes
Ġst ar
Ġst and
Ġst ans
Ġres usc
Ġsec uti
Ġsic c
ov er
ad is
Ġanim is
Ġmin u
Ġmin imo
ĠO dit
ĠO th
ĠO ce
Ġleg iones
Ġfec issem
Ġ19 12
Ġ19 34
Ġloqu ente
Ġaud iamus
Ġal ong
Ġal ways
le y
Ġmagn os
Ġmagn arum
Ġimp ii
ĠAn imi
ĠRom e
Ġnatur ali
Ġnatur ales
Ġdeb eri
Ġac adem
Ġnull as
Ġput abant
ern is
Ġexp ell
Ġiudic ibus
Ġamic e
Ġdisc imus
Ġnomin ati
Ġded ocendi
Ġnot hing
Ġdes uper
Ġtot idem
Ġact ionis
Ġconf estim
Ġcl a
Ġcl us
Ġcl arum
ĠÐ °
Ġel udet
Ġinf ans
Ġpraec epi
Ġcar iorem
Ġcred as
Ġdoc endi
Ġopt imo
Ġdel ecta
Ġcirc ulum
Ġprob abantur
Ġprob lem
Ġy et
Ġprincip alis
ĠAr d
Ġfug am
ĠGraec am
Ġsal t
Ġtum ultus
Ġaet erno
Ġimper fectum
Ġing ress
Ġoffic iorum
Ġsus pectum
Ġcogit et
ios is
Ġintelleg imus
Ġsatis f
Ġsapient ium
ow ing
Ġhon orum
Ġhum ili
erv en
th ere
Ġreliqu iae
iens es
Ġaed em
Ġappell ari
Ġappell atio
Ġsup erest
Ġlaud ari
Ġconstit uere
Ġsen atui
Ġdiscip ulum
Ġem itt
Ġintellig imus
Ġod isse
Ġmens uram
Ġfact ionem
Ġsubstant ias
Ġmun eris
Ġlat et
Ġlat ron
ĠQuam obrem
Ġpraedic ari
Ġmuli eri
Ġk ind
ĠIll ae
Ġsoc ios
Ġuna quaeque
Ġost endi
ĠMa iores
Ġaequ alia
ĠTh is
Ġhe art
Ġregn a
crip sit
Ġadd itum
Ġsing ulae
Ġperfect ionis
Ġpraecip iendum
ĠIuli o
Ġcontr ib
Ġearum que
Ġconsul ere
Ġmand atis
Ġmand ato
Ġhabit averunt
Ġfamili ari
Ġnol uisti
Ġarbit ra
Ġinstit uti
Ġref ell
Ġreprehend it
ĠAnt iqu
ĠAnt oni
ĠPh o
Ġeodem que
ĠPrae mium
ĠId que
ĠId ibus
Ġperm ulta
Ġparv o
ĠSc ot
Ġepist ularum
Ġdict ator
Ġerr ores
Ġdil ecta
Ġpugn at
Ġdelect et
Ġreper itur
Ġdesc isc
ĠPer se
Ġlibert i
Ġlibert us
ict ion
Ð°Ð ±
Ġpriv atio
Ġdisput atum
Ġdisput ationibus
Ġteneb itur
Ġmori ar
Ġare a
Ġ199 6
Ġ199 7
Ġaug eri
Ġped il
Ġcogno verunt
Ġson at
Ġfortun as
Ġnav em
Ġmerc ator
ĠAugust o
ĠPa uli
Ġdivis a
Ġmanifest a
Ġsociet ates
Ġpossid eat
Ġhort o
Ġrel eg
Ġmer ita
Ġment iri
Ġagn um
Ġvinc ulum
Ġhi er
Ġha ir
Ġ196 5
Ġ196 6
Ġ196 8
Ġcustod ia
Ġbest iarum
ĠUrb is
Ġsalv a
Ġcomed e
Ġpraesid es
ĠÎ ¼
Ġvul ner
Ġpraem itt
Ġceleb rat
Ġtac ere
Ġstult itiam
Ġdepos ita
Ġplen itudinem
Ġsil entio
Ġ198 2
ÐµÐ ²
ÑģÑĤ Ð²
Ġtoll endam
ĠAng lia
Ġclam at
ĠRe ad
Ġabsol vi
Ġsuspic io
Ġsuspic ione
Ġglad ius
ock et
Ġconsc ientiam
row n
Ġimpet u
Ġadduc et
Ð¸Ð ´
Ġent is
Ġturb ae
Ġmont ibus
Ġpraepos itum
Ġsci ebam
Ġinqu ies
Ġuoc atur
ĠQuint o
Ġartific io
Ġ187 0
Ġquaereb atis
Ġub eriora
Ġdissim ile
Ġcapit ulum
Ġgreg es
ĠBo oks
Ġlap is
Ġinvid iae
Ġprot est
Ġ180 3
Ġeloqu entiae
Ġpraeb et
Th ere
ald us
Ġpopul ari
Ġcub iculum
Ġorig ine
Ġconfit etur
Ġbec ome
Ãł m
Ġnupt iae
Ġglori atio
ĠApostol us
burg um
Ġsuffrag io
Ġsupplic ium
Ġglorios e
Ġproced unt
Ġpell entesque
ĠGeorg iae
Ġcolloqu ium
Ġdimitt e
ĠPlac eat
ĠOcc itania
Ġeffug ere
Ġconcord iae
Ġrespic it
Ġsuperb ia
Ġsuperb iam
Ġbore alis
Ġinvoc abo
ĠHer od
ĠHer ac
Ġsel ectio
ĠMaced oniam
ĠTorqu ate
Ġincon stant
Ġincon veniens
ĠAth eni
ĠLudov ici
Ġfoll owed
æľ ¬
ibili ora
Ġconl oqu
Ġbro ad
Ġobsc ura
Ġinterdic tum
Ġceter arum
Ġplor avit
Temp oribus
Ġreddit ae
Ġpare ns
ĠTri arius
Ġbet ter
Ġspecial iter
Ġsuppon at
Ġsud den
CH APTER
Cap ut
Ġpraepon unt
ĠSalom on
Ġhil aretur
Ġaem ul
Ġpuerit ia
ivoc e
Ġdiap ente
Ġdiscipl inam
htt ps
ĠFoeder alem
1450 839
Ġsepe li
Ġulter ius
ĠBuc arest
ĠOrb is
ĠNobeli anum
ĠÄĮ erven
Ġprocons ul
ĠOport et
ĠLug d
ĠHann ib
Ġproph etis
ĠRusc inone
" ).
' :
' ).
( );
9 8
> ,
A B
A ug
D ie
E ureka
M at
M ed
N ot
S PD
S anct
U nde
V ers
X I
Z eb
c es
d ius
f it
f rag
g ent
i op
k now
m as
m ate
m entum
n oc
n ess
p ol
p ad
p le
r ist
v um
v iae
w ell
w ood
x isset
Â º
Â Ĺ
Ã £
Ã ı
Ä ĩ
Å Ĥ
Ñ ī
å Ľ
Ġ Ú
Ġ others
Ŀ ¼
qu ant
um ent
Ġa erum
us h
us andae
Ġp endere
at ivum
on as
Ġc e
Ġc ut
Ġc ul
Ġn unquid
ae o
st is
Ġd ando
Ġd urum
Ġd raw
Ġm ili
Ġm avis
re l
re vit
em n
Ġt ir
Ġt ro
Ġt ectum
or ae
ur t
ur iam
ur rent
Ġv il
Ġv entum
Ġv ini
ut or
ut orum
Ġi vit
Ġf ulg
Ġf elix
im es
ar di
ul er
Ġpr iore
Ġre o
Ġre al
Ġre quis
Ġl ove
ab eris
ab imur
as ch
ot ograph
Ġde al
Ġde lig
Ġde struct
il s
Ġsu arum
ĠE ae
Ġcon antur
ĠA ri
Ġex stit
Ġex quir
ĠC ed
el um
ĠD on
ĠD aniae
Ġdi ligo
Ġqui libet
Ġdic ent
Ġaut h
Ġprae p
ĠP en
ĠP age
ĠP uto
Ġsed ebat
Ġco em
ĠN em
ĠN av
Ġpos itus
Ġpos ito
are crow
ĠM ic
ĠM ur
ĠM ach
Ġ2 18
iss am
Ġse en
ort es
Ġu elle
av en
Ġvid ebam
Ġvid uae
ĠL B
ĠL o
ĠH o
ĠH ir
Ġer as
Ġam issa
ĠT in
ĠT ecum
ĠF em
Ġpag inas
Ġcu ipiam
Ġinc rem
Ġpl at
Ġpl eni
ĠV ers
ess um
ess or
Ġun gu
ĠG od
ĠG racch
Ġacc idunt
Ġacc ident
Ġcont igit
Ġor atores
Ġinter itum
Ġst atio
Ġst rang
Ġres um
Ġres pect
Ġpat ientiam
Ġpat ienter
Ġbon itatis
Ġar bor
Ġnost rud
Ġ19 30
Ġ19 32
Ġloc utionem
Ġloqu imini
Ġquis piam
Ġincol is
Ġpost er
Ġal ta
Ġal most
rem um
Ġscrip ti
Ġimp ius
Ġimp ub
Ġcommun ionem
Ġas sequ
Ġrat ioni
Ġvit ulum
Ġvoc amus
Ġist arum
Ġeam dem
Ġ18 14
Ġ18 36
iat ionis
Ġdiv ini
ure nt
ĠSi gn
Ġcomp reh
Ġpop ulis
Ġcogn omen
Ġconc essit
irc a
Ġact ibus
Ġconf l
Ġconf erebamus
Ġviv imus
Ġpossit ne
Ġins idi
Ġins itam
Ġsign avit
Ġconv inc
Ġj ur
Ġnov as
Ġnov erunt
ass es
Ġdoc ebit
Ġopt ion
Ġhuius ce
all ust
Ġcirc ulo
ann a
Ġprob antur
Ġprob abile
Ġy o
ĠAr n
Ġcert ior
Ġvest imenta
ea u
ĠQuae st
Ġquaer atur
Ġpecun iis
Ġpecun ias
Ġev ol
Ġdilig entiae
Ġcogit es
cr ibi
Ġdign os
Ġdign itati
Ġfaci ebant
Ġexerc ere
Ġvic ti
Ðµ Ñģ
fer endis
Ġcognosc es
Ġpet ivit
ĠX L
Ġaed ium
pos ita
Ġpatr ono
Ġproc lam
Ġproc edere
Ġbell e
Ġprovinc iis
Ġ11 4
Ġem olum
Ġfl ore
Ġexist is
Ġaper uit
ãģ ĵ
Ġspec ialis
Ġimm orta
Ġsignific ans
Ġrect us
Ġon eris
ĠGerman icae
Ġmov entur
Ġregn avitque
Ġepiscop os
Ġdiff lu
crip s
Ġluc ri
Ġnoc et
Ġnoc ent
Ġprod ux
Ġtrad ita
Ġmon ast
Ġfal si
Ġch ili
Ġed idit
Ġlic ere
Ġlic entia
ĠNihil ominus
Ġimag inamur
Ġexemp li
Ġperm ans
Ġparv ae
ĠAli as
Ġdiss ip
ĠSc is
Ġatt ulit
ĠThe oph
Ġav es
Ġav ia
ĠChristi anae
ĠÂ§ .
Ð¾Ð º
Ġvera x
Ġreper i
ĠCar oli
ĠMag ist
Ġhonest ius
Ġproxim a
Ġproxim is
Ġdim ic
ren d
ĠCat one
Ġquot idi
Ġport um
Ġport as
Ġsuscip ere
Ġalien ae
Ġequ orum
Ġwe ek
Ġpass uum
Ġ194 3
Ġperd itum
Ġlud ere
Ġaug etur
Ġped um
Ġdam ni
Ġgest is
rec ta
Ġambul at
Ġra di
Ġconiunct ae
olog ia
The od
Ġrelin quo
Ġdux erit
Ġexspect amus
ĠCl aus
ĠIacob i
enn ae
ĠVid eo
Ġrel ationem
Ġordin atur
Ġmer id
Ġmilit ari
Ġment io
Ġvinc la
Ġfel ices
Ġ197 5
Ġfund amenta
Ġpauper ibus
Ġcondic iones
ĠPar th
ĠCor rupti
Ġpostul et
ĠAg ar
ĠFac ere
Ġobl ect
Ġdorm it
Ġelect i
Ġsuffic iat
Ġcompl ures
Ġot iosus
Ġfacult atibus
Ġdioeces im
Ġvend ibiliora
Ġvehem entius
Ġobi ect
ĠTer rarum
Ġcot t
Ġloqueb amur
Ġvocabul is
ĀĀ Ā
Ġorn are
Ġduod ev
Ġhabeb itis
Ġmemin erimus
Ġpoen as
Ġcec idi
ĠMult um
Ġpraef uit
Ġpercip itur
ĠProp terea
ĠRuss ica
ĠZen oni
Ġcolleg ium
ĠEv eniet
ĠPy th
ĠTemp oribus
Ar ch
Ġinvid iam
Ġhosp itio
Ġexcell entiae
ĠEuropae ae
ĠAthen as
Ġconp rehend
Ġconven iant
Ġprec ibus
Ġvulg i
Ġcustodi erit
ĠQuibus dam
Ġpraepar abit
Ġperven erunt
ĠJes u
Ġec lips
Ġuerb is
Ġomitt amus
Ġconcip eretur
Ġsubt ilius
ĠSeptentr ione
Ġdomest ica
Ġcord ibus
ĠNesc iunt
Ġaccipi enda
Ġconiung i
Ġgign untur
ĠPlac uit
Ġbarb aris
Ġdemonstrat io
ĠPraec ip
Ġdistingu itur
Ġvetust atem
Ġbenign e
Ġdisplic uit
Ġattend e
dixit que
Ġavar itias
Ġdemonstr ari
ĠAnglic a
Ġaffic ere
Ġdesid ero
ĠMolest ias
Ġfornic ati
Ġgre w
ĠAfric am
ĠÃ¦ ter
ĠÃ¦ dific
Ġpersec utus
ĠMaced onia
ĠTert ium
Ġterm inus
Ġsurg ere
ĠVall e
Ġvaletud inem
Ġabscond itum
Ġsyllab ae
Ġinnumer abilia
Ġrepugn et
Ġresp ice
Ġpropin qui
pend isse
Ġconsue vit
Ġconsid eret
Ġresponde as
Ġmyster ium
ĠLong um
Ġconscrip ti
ĠPhilipp us
ĠExerc itationem
ÐµÐ» ÑĮ
Ġthesa uris
Ġfront e
Ġexim ia
Ġremiss ionem
Ġinsc itiae
Ġball oon
Ġsax um
Ġincogn ita
ĠLus it
ĠXen oph
Ġnesci ebatis
Ġtutel ae
Ap ud
ĠTit ularis
Ġpatef actio
Ġevac u
ĠGali lae
ĠWest ph
onc ili
ĠPyrr ho
ĠOd io
ĠAper iam
ĠSper o
Ġlact e
Ġincorp or
Ġwebsit e
Ġuteb are
Ġcaer ule
Ġoccurrent ia
ĠOly mp
ĠâĹ ī
ĠAvic enna
Ġopert arum
Ġinpr udens
Ġcastr orum
& @Ąą
C I
C r
E dit
G rat
I G
N emo
N ulla
P rop
R ep
S E
W here
X L
b ing
c an
e or
l or
n dum
p io
p rehens
s p
s ol
t s
t ius
u que
u itate
y le
² ½
Â ª
Ã Ł
Å «
å Ĭ
æ ±
æ Ŀ
ê ²½
Ġe cc
er p
er ne
Ġa en
Ġa eris
Ġa ve
in ensis
Ġp ect
at arum
am ina
Ġc i
Ġc uc
Ġn ato
Ġn actus
Ġd ato
Ġm itter
re am
Ġin pon
ic on
ic ul
Ġt one
Ġt utum
Ġv ariae
Ġf Åĵ
en erunt
om ata
Ġh y
Ġh ar
Ġh ung
Ġh igh
im p
es uada
od ia
et te
ar z
id el
os is
ent os
ent issimi
Ġpr i
ia libus
ol n
Ġad ium
oc les
Ġquod libet
ac or
ac et
ac ui
ab eth
Ġut ili
ius s
Ġde fect
Ġde fectum
Ġsu Ã¦
Ġcon atur
Ġcon ect
Ġcon struc
ĠA M
ĠA eth
ĠA evo
Ġex ar
Ġex equ
ĠS ull
ĠS allust
ĠC lar
ĠC ave
el ic
ĠD ies
est um
Qu omodo
ter a
Ġfac et
Ġfac eres
Ġprae iudic
ĠP ad
ĠP ugn
ĠP ulch
ĠP ellentesque
Ġg ro
Ġg ard
itur i
Ġsed ecim
per em
ĠN atur
ĠN olo
ens ae
Ġsc iamus
Ġeius mod
ĠM i
ĠM y
ĠM od
ĠM ir
ĠM and
ĠM eli
ĠM ea
ĠM ense
ĠM esop
eb or
Ġpot ior
Ġse quamur
Ġse quebatur
Ġth erm
Ġth ree
Ġu et
av iae
av erimus
Ġvid eram
ĠL X
ĠL it
ĠL ux
Ġsit is
ĠH ug
Ġvel oc
ĠR og
ĠT o
ĠT ir
ĠT itum
ĠT ullius
ĠF ur
ĠF orum
ĠF und
ĠF ieri
Ġpar ere
Ġcu ilibet
Ġinc it
Ġinc ont
Ġinc arnationis
Ġvol et
Ġpl enus
ĠV et
Ġma d
ust us
ig eniti
ĠB onus
ĠB arb
Ġr ar
Ġr ig
Ġr itum
Ġint rinsecus
Ġcont enta
Ġcont endit
Ġw ant
Ġcomm em
Ġcomm isc
ull o
Ġor atoris
Ġfu isti
Ġfu erim
Ġst ella
Ġst ellae
Ġres urg
Ġlib et
ep os
Ġpat ern
ov ered
Ġreg it
Ġreg ulae
Ġar cus
Ġ3 00
ĠO reg
Ġcor on
Ġcor rept
Ġcre ator
ap ud
uli a
Ġfec erant
ĠIn g
Ġ19 21
Ġdol us
Ġoc ulum
Ġman ete
Ġsub lev
Ġpost hac
Ġpost ridie
ific e
Ġdom os
ĠĠĠĠ Ġ
Ġimp iorum
ĠAn ato
Ġgen ua
Ġsem ine
Ġpart us
Ġven issent
Ġpraes entis
Ġvit iose
ie i
Ġcog itas
ne a
Ġsuper avit
Ġsuper stit
Ġsuper fl
Ġexp letum
Ġiudic um
Ġcur o
Ġcur ia
Ġcur iam
Ġcur avit
Ġciv ilibus
Ġamic am
Ġamic itiarum
Ġmal esuada
Ġnomin ata
Ġnomin avit
Ġcogn atione
Ġconc urr
Ġconc eptus
Ġmol libus
Ġlit em
uct or
Ġscrib ae
Ġscrib ens
Ġact iv
ĠRoman am
Ġiust is
Ġviv is
Ġviv ens
Ġpraec essit
Ġcol ebat
Ġins pi
Ġins anos
ĠAm b
ĠAm et
Ġpers crib
Ġfr uit
Ġconv entu
Ġlab oribus
Ġcred at
Ġcred ens
Ġcred untur
Ġcred iderit
Ġj ure
ĠJ eh
Ġexc id
Ġopp ressus
Ġprob as
Ġred und
Ġred itum
Ġdomin is
Ġprincip um
Ġcert i
Ġcert ius
Ġcert issimum
Ġsumm is
Ġsumm ae
unct um
unct ion
ĠGraec arum
aret ra
Ġreli quam
Ġext r
Ġext oll
Ġsanct e
Ġdilig is
Ġdilig amus
Ġduc tum
Ġnecess ariae
Ġfaci emus
Ġhon os
Ġmut u
Ġvic issim
Ġpet itionem
Ġign e
Ġign ota
Ġappell o
Ġiur avit
Ġstud eo
Ġsup pl
Ġ13 5
Ġpertin ebat
ĠCon dit
ĠCon feram
ĠUn us
Ġsen em
Ġ14 2
ith er
Ġtant us
Ġmens ura
Ġfact orum
Ġwh ite
Ġplur ium
Ġ10 5
Ġaccus ator
Ġmor bi
ang e
Ġliber alis
tem berg
ĠTh ess
ht ml
Ð½ Ð°
Ġdon o
Ġquant us
Ġquant am
Ġquant ae
Ġdem ocrat
Ġsing ulorum
Ġpor tare
Ġprod ig
Ġtrib utum
Ġtrib uere
Ġaudi ebat
Ġunivers i
Ġunivers itatem
Ġunivers itatis
Ġadvers arii
Ġtrad itus
Ġtrad iderunt
Ġvet errima
Ġmon et
Ġpossess ionis
Ġinven eris
ĠReg is
Ġfal so
Ġch ord
Ġconsul atus
Ġpulch er
Ġpulch rae
Ġlic uit
Ġnol le
Ġnol ui
Ġscript orum
Ġhabe antur
lim us
ĠSc arecrow
Ġprom ov
Ġnegot iis
Ġdep ort
Ġdep rehendi
Ġsex tus
land itiis
Ġdelect antur
ĠSt eph
ĠSt atim
Ġincip eremus
ĠInt ellig
ĠInt eger
Ġeff ecit
Ġterr Ã¦
ĠCar ne
ĠNov o
Ġnob iles
Ġdim isit
Ġdim ittere
Ġmeli ore
Ġcupid itates
ĠAs iam
Ð°Ð ´
Ġdisput ationem
Ġdisput abunt
Ã¡ n
Ġmori atur
Ġ199 8
ĠHispan ica
Ġmiss um
Ġpuell arum
Ġinterrog at
Ġsor s
Ġfoed er
Ġfoed ere
ial em
ial iter
Ġlev ius
Ġmerc atus
Ġmerc atores
Ġads id
Ġdivis ione
Ġperf ecit
Ġdux i
Ġle ad
Ġoff erunt
Ġoff endit
Ġadhib eri
Ġadhib eremus
Ġignor as
ĠIun ius
Ġiniqu us
pl ace
Ġtem et
Ġcompar andis
Ġinvent ae
Ġ197 3
Ġ196 2
Ġ196 9
Ġprophet am
ĠMed us
ĠMed io
Ġperpet uam
Ġpraet ex
Ġaestim ationem
Ġph antas
Ġph aretra
Ġstult itia
Ġdubit are
Ġ0 4
Ġconsec uta
ĠEn g
201 8
Ġeleg i
Ġau ferre
Ġ198 6
Ġgenerat ione
Ġquad r
Ġexped ire
ĠOr th
Ġexcept o
Ġarm s
Ġsubs unt
Ġsubs cript
Ġdioeces es
Ġclam avit
37 428
Ġrelic tus
Ġ185 7
Ġ195 6
Ġbrev es
ĠSto icus
Ġsollic itus
Ġeveni re
Ġabsol uta
Ġglad ii
Ġcad av
Ġappar ere
Ġincom modum
Ġfa ir
Ð¸Ð ·
Ġtract atur
Ġ186 7
Ġcondit or
ĠSuper iori
Ġconclus ionis
ĠVolupt ate
Ġline ae
Ġmom entum
Ġinterpret atio
Ġuit ae
Ġ187 6
Ġcern imus
Ġquaereb at
Ġub era
Ġquoc um
Ġgreg e
ĠBo oz
Ġexpet enda
ĠSy n
Ġdetermin ata
Ġpropriet ate
Ġuolunt atem
ĠFl or
Ġpati ar
ĠTro iani
Ġprog ram
Ġprog redi
Ġinterf ecit
Ġpraev al
ĠRep ublic
ĠBut hrot
Ġcub iculo
Ġadmitt i
Ġinius te
Ġdispos itio
Ġuis um
Ġdidic it
Ġvad is
Ġvad am
Ġib imus
Ġsanctific avi
ĠQuin tum
Ġnupt iis
Ġintu eri
Ġarb ores
ĠSyr ia
Ġconu ers
ĠVide amus
Ġintellex erunt
Ġcommunic are
Ġimpos uit
we et
ĠSen eca
ĠHeb rae
Ġgo ing
Ġinferi oribus
Ġnud a
Ġinstrum enta
Pr inc
Pr ice
Ġmo ech
ĠDom iti
ĠApoll o
ĠCr ass
Ġbenevol entia
Ġbenevol entiam
Ġthes aur
bl ack
Ġverius que
Ġambig uo
Ġaure a
Ġcent rum
Ġgre en
Ġfung antur
Ġluxur iae
Ġproi ectus
Ġconfid ite
Ġdisciplin as
ĠVirg inis
Ġampli fic
Prim o
ĠReli qua
Ġpraevaric ati
Sc io
Ġquer itur
Ġbo ok
Ġpunct um
ĠBas an
Ġmyster ia
ĠMer idi
Ġcredid isti
Ġvect ig
ĠMort uus
Ġnepot es
Ġpraetere unt
Ġbenedict ionem
Ġcense o
Ġieiun are
ĠHomin es
Ġflagiti osum
Ġcaptiv itatem
Ã¹ m
Ġnau frag
Ġspelunc a
Ġwr ong
ĠAgrip pa
ĠUx or
Ġamph itheat
creat ed
ĠBrundis ium
Ġdrac o
Ġinlum in
Ġrepreh endo
Ġtrac tare
Urb s
Ġprosc rip
ĠOh ii
ĠWood man
Ġcircumcid eretur
Joh n
Ġblasph em
Ġhier arch
Ġdifflu entes
ĠOreg oniae
. ),
. ï¿½
0 2
0 7
: \/
A pp
C ol
C ons
H ac
J o
L XXX
N esc
O pt
S A
S ch
S erv
T unc
W hen
b on
b am
d is
d oca
e undi
g ap
h in
h omo
i res
k y
l ong
m ore
m ina
p ibus
r act
u j
w are
y a
± ê²½
Ã ī
Ä į
Ð Ĵ
Ø ¯
å ·
å ¼
è Ģ
é Ģ
ë Ŀ¼
í ĭ
Ġ %
Ġ ãĥ
Ħ ±ê²½
ĸ ´ì
Ġe in
Ġe ici
er x
er are
Ġa verter
Ġs ame
Ġs eries
in isc
it que
it ores
it ecto
at ior
Ġc ell
Ġc inem
Ġc eper
Ġn up
Ġn Åį
Ġd emus
Ġd atae
Ġd abitur
Ġd udum
Ġm orum
re x
re en
re vi
Ġin pos
ic ing
Ġt endit
or b
or ii
Ġv es
Ġv ina
Ġv isc
Ġv entus
ut as
Ġi a
Ġi ram
Ġf d
Ġf erv
en es
en iae
li orum
Ġh op
Ġh est
Ġh isce
im orum
id ed
id arum
id th
os am
Ġpr iorum
ia lia
ol phus
ed um
Ġre pon
Ġl ob
Ġl ate
Ġl ectum
Ġl ink
ab ly
Ġut ilius
as per
Ġde in
op oli
ĠI gn
ĠI ug
ĠE c
ĠA h
ĠA st
Ġex al
Ġex sequ
Ġex stant
Ġquam libet
ĠS ul
ĠS ie
ĠS he
ĠS cr
ĠS ardin
ĠD ioeces
ĠD onec
Ġdi ur
Ġb a
Ġb ody
Ġqui ete
est is
Ġdic ata
itat ae
Ġfac il
Ġfac ient
ra y
ra li
ĠP s
ĠP asch
Ġg ive
Ġg raece
Ġill ustrat
rat ionis
ist arum
ĠQu onam
Ġsed entem
ĠN ept
ĠN atura
ĠN ederland
Ġhab ueris
Ġpos itam
eg le
Ġsc aen
iv imus
uc i
ĠM um
ĠM em
ĠM ure
eb ra
Ġpot iti
Ġcom itetur
and e
and orum
Ġth r
Ġu im
Ġab d
Ġab le
Ġvid eres
Ġvid issem
ĠL oqu
ĠL ider
ĠL yc
Ġsit ae
Ġer um
Ġat roc
ĠT a
ĠT ac
ĠT ry
ĠT ria
ĠF lam
ĠF uf
Ġpro ximus
ing unt
ing ly
ing illa
Ġpl ate
Ġcons ultus
ĠV ig
ĠV inc
ĠV ix
Ġtam etsi
Ġma iest
ert it
ari atur
Ġun g
Ġun oqu
Ġun itatem
ĠG us
ĠG ie
Ġr ix
Ġr ara
Ġo u
ub a
ub us
ub le
Ġw ater
Ġcomm on
ine a
Ġmod ica
Ġst abilem
Ġpat ere
Ġpat iatur
Ġpat ientia
Ġreg ul
Ġreg ulam
Ġanim orum
Ġanim alis
ĠO rat
ĠO bi
ĠO cta
Ġcor di
ĠIn dign
Ġ19 00
Ġ19 13
Ġ19 17
Ġ19 50
Ġ19 24
Ġ19 27
Ġ19 39
Ġ19 37
Ġ19 05
Ġaud is
Ġaud et
Ġaud itus
Ġmult umque
ĠU lt
Ġal tum
Ġob itum
le ase
Ġinv it
rem ae
Ġmagn alia
Ġag er
Ġag eret
Ġag eretur
ch o
Ġdeb uimus
Ġsem inibus
Ġput abatur
Ġput eum
Ġvoc o
Ġvoc ata
Ġtr isti
Ġtr ue
ire nt
ĠNon n
Ġtabul ari
Ġsuper ioris
Ġsan us
iat ione
Ġdisc edere
dem us
Ġmal ae
Ġnomin um
Ġded erat
Ġdes ol
ill ed
Ġsent entiarum
Ġserv ant
Ġconc eptum
Ġrec oncili
Ġocc isi
Ġocc ursum
Ġfort i
Ġfort issimus
Ġscrib at
Ġact or
ĠCh at
Ġpublic arum
Ġpublic anus
ĠÐ ¢
og g
Ġfr ingilla
Ġconv oc
Ġpraeter iti
Ġj um
Ġj ung
Ġsae v
Ġnov issimis
ass is
Ġexc el
Ġexc omm
Ġconsequ enter
Ġopt imis
Ġvis io
Ġcirc ulus
Ġcirc ulorum
ann em
ti que
ĠLat er
Ġdomin orum
Ġdomin icae
Ġprincip atum
Ġvest em
Ġquaer eret
Ġeg ero
Ġeg ress
Ġsanct issime
pic io
Ġing entem
Ġoffic i
Ġ12 8
Ġcogit avi
Ġfaci ebam
Ġintelleg endum
ĠAd ipisci
Ġsens uum
Ġmut abile
Ġaccip ias
Ġcognosc o
Ġcognosc itis
Ġlong in
ĠMar k
ĠMar iam
Ġreliqu arum
Ġreliqu erit
iens em
Ġpet at
Ġ15 8
Ġappell as
Ġappell are
Ġsup rema
Ġpropr ias
Ġwh y
Ġpo int
Ġexist ere
Ġoport ebit
Ġmuli eb
Ġmor bum
ãģ ¨
ãģ ¯
Ġimm an
Ġsignific ari
Ġliber alitate
Ġrect or
ĠMa h
ĠMa ias
Ġgrav issimum
Ġoppid is
Ġpon unt
Ġadi ect
Ġquant itatem
Ġexs ec
Ġli ve
Ġnoc tur
tr act
Ġquaest ionibus
Ġaudi ebam
Ġfer endae
Ġantiqu o
Ġadvers arius
Ġtrad iturus
Ġarg ente
Ġmon umentum
Ġinven iantur
Ġhabit antes
Ġpulch ri
Ġfin itam
Ġeadem que
Ġfamili arum
Ġtert iae
red ecim
ĠPh ry
Ġlae d
Ġbre ath
Ġprom ot
Ġso lius
Ġmanu fact
Ġav um
land iae
Ġexistim antur
Ð¾Ð ¶
Ġrecip iens
Ġpugn ant
ĠSt at
ereb ant
Ġsalut are
our s
Ġperv eni
ĠPer ferendis
ĠCat onis
Ġvelim us
ĠEp irum
Ġcupid us
Ġport abunt
Ġdo or
Ġinim icis
Ġmiss is
Ġfem inis
Ġass ent
Ġcast ig
Ġscrips isset
Num quid
Ġvers atus
Ġjust us
ĠDec emb
eth ing
ĠDic unt
ĠDic ta
Ġrel atum
Ġarc ae
Ġarc ana
Ġcircum d
Ġcunct i
Ġ196 7
Ġconting ere
Ġscel erisque
Ġcustod iae
Ġcustod ias
Ġpraet ores
Ġcrim inis
ĠQua erat
Ġaestim atio
Ġvac uum
Ġsalv am
Ġcondic i
Ġcondic ionis
Ġcomed at
Ġpraesid is
ocrat es
ĠEpic ure
Ġpraem issae
Ġecclesiast icis
Ġcorrupt io
201 7
Ġplen itudo
Ġpen et
Ġque er
Ġden omin
Ġ198 1
Ġalt itudinem
Ġsingul as
Ġdorm ierunt
Ġcontem ni
Ġrelinqu et
ĠSim ul
ĠCons erv
ĠCons ilii
Ġsollic it
Ġsollic itudine
Ġadiuv are
Ġsh arp
Ġabsol utum
Ġparticip at
Ġsuspic ionem
Ġort u
Ġsomn ia
ipp o
Ġexter min
ĠCol umb
Ġloqueb antur
Ġillic itum
ĠHel ise
Ġorn ata
ĠVolupt ates
Ġline am
Ġproeli is
Ġoccult e
Ġperfic itur
Ġartific es
Ġ187 1
Ïĥ Î±
Ġpisc ium
Ġdissim ul
Ġfing ere
Ġconvert itur
Ġitin eris
Ġrid et
Ġrid iculum
Ġâ Ī
Ġdetermin atum
Ġsuav ius
Ġbl ue
Ġov ibus
Ġuolunt as
ĠFl av
Ill e
ĠSu cc
Ġeloqu entia
ĠSem alt
ĠSol um
ĠSol uta
Ġconp ut
Ġ190 4
Ġconfus e
Ġdown load
illi ma
Ġconsist at
Ġhodiern ae
Ġporta vit
Ġaer arii
Ġfrig us
Ġvirg inem
Ġinh um
Ġpraedi xit
ĠBeat ae
Ġsenect utis
Ġiuven ibus
Ġ188 5
Ġtransl atum
burg i
Ġadmirat i
Ġadmirat io
ĠHom erum
Ġintro ierunt
Ġreman ere
Ġclaus um
Ġspon si
ĠTurc ia
ĠAene as
ĠSac erd
Ġgrammat ica
Ġinferi oris
Ġpaupert atis
Ġamitt i
Ġamitt itur
Ġmaled ic
Ġmaled ict
Ġrespic iunt
ä» ĸ
AR D
Ġcreat ures
Ġele em
Ġé Ŀ
Ġinsid iis
Ġinsid ias
Ġadulter ium
Ġru inam
Ġpiet as
Ġinimic itias
Ġaudac iae
Ġindivid u
Ġadmir abilia
Ġhel d
ĠVic tor
Ġcorrum p
Ġcorrum pi
ĠFal li
Ġornam enta
Ġirac undia
Ġrepugn at
ĠInterrog ato
Ġmart yr
sic ut
Ġdiab oli
Ġcaeter is
Ġcalc iam
Ġcurr unt
Ġcurr ere
ĠClaud ius
Ġcontinu ed
ĠDionys ius
ĠPhilosoph i
Ġadim pl
Ġcoel o
Ġdisi uncta
Ġfunct us
ĠTim ot
ĠBa al
ĠSuec iae
prop ter
ĠPoss imus
ĠMD CC
Ġveris imile
Ġtheolog us
ĠOl den
Ġiug um
Ġsyn agog
ĠCorp oris
== ==
Ġignomin iam
Ġaduers us
´ì ĸ´ì
Ġtor rent
Ġantec ed
Ġsubic ias
ĠHierem ias
Ġtutel am
Ġspelunc am
Ġterritor io
Ġrever entia
ĠDam asc
Ġfluct ibus
Ġtyrann orum
Ġincircum cis
ĠCro atiae
ĠLang ob
Ġsollem n
ĠVicip aed
ĠAtheniens ium
Ġtar de
Ġinscrib itur
ĠCen om
Ġdescisc endi
quant ity
Ġtir ocinium
ĠWestph aliae
Ġcaerule um
ĠMesop otam
ĠOrth odox
:\/ \/
ëĿ¼ íĭ
Ġlob ortis
ĠLider ici
ĠGie zi
Ġexcomm unic
ĠHelise us
´ìĸ´ì Ħ±ê²½
ëĿ¼íĭ ´ìĸ´ìĦ±ê²½
, ...
. âĢĶ
7 86
A D
A ud
A ve
B eat
B ug
C ras
D uis
E C
F ull
H omin
H ighly
I D
I M
I ach
M ort
N os
O S
O T
O rig
P et
P ot
R e
S ol
V erum
b led
c at
d ated
f ecta
g um
i unc
k o
m ill
m ortuus
p ret
p art
p pi
r c
r onem
r usc
v erat
v inc
y ch
{ {
} ,
Â ½
Ä ħ
Å Ł
Ð Ĳ
à ¦
â ľ
å º
æ Ķ
Ġ 00
Ġ Î¿
Ġ Ùħ
Ĭ ãĤ
er on
er andi
Ġs qu
Ġs atur
Ġs av
Ġs ale
Ġs Ã¦c
us ae
Ġqu eri
Ġqu anquam
Ġqu Ãłm
Ġp ocket
on iz
on nes
am es
Ġn oris
Ġn ationis
Ġn urus
Ġd rew
Ġin per
Ġin aud
Ġin stru
Ġin posuit
Ġt alium
Ġt ela
or ius
Ġv on
Ġv ice
Ġv inct
Ġet hn
Ġi an
Ġf ell
Ġf ero
Ġf isco
Ġf olium
li k
Ġh erc
Ġh alf
od a
an ice
ar gu
ec k
ul ce
ent ly
Ġpr iores
ia cum
ib o
ib ilium
ol arum
ol aus
ed en
Ġre aliter
Ġre ached
Ġl in
Ġl ost
Ġl Ã¦
Ġad itum
Ġad quis
Ġad iac
ac iae
ab il
ab uli
ion al
Ġes cis
ĠI ou
ĠA z
ĠA ve
Ġquam dam
al am
ĠS erb
ĠC ogn
ag ed
ĠD ed
ĠD ist
ĠD uis
Ġme Ã¦
Ġb ed
Ġqui que
est er
Ġdic erentur
ip sa
ip pi
Ġper inde
Ġper rexit
Ġaut onom
Ġaut hor
ra ret
ra xit
ĠP ere
ĠP elop
Ġg ig
Ġg rac
Ġill ustr
ect ion
ĠQu anquam
ili que
Ġsed itione
Ġco ok
ĠN empe
ens u
Ġhab eremus
Ġsc ae
iv al
uc undum
ĠM ens
ĠM odi
ĠM ay
Ġpot uisti
Ġcom b
Ġcom itiis
Ġse ipso
Ġver umque
Ġver sa
av isset
ĠL una
ĠL ips
ĠH es
ĠH ib
ĠH as
ĠH ow
ĠR us
Ġam ans
Ġam averunt
ĠT op
ĠT abula
ult o
ĠF act
ing it
Ġpar it
Ġpar ant
Ġpar vi
Ġte que
Ġinc erta
Ġcons uet
ĠV im
ĠV ere
ĠV erb
ĠV idi
ĠV arr
Ġim itatur
Ġnec em
Ġpotest ates
Ġun ionem
Ġun ica
ĠG ra
ĠG rammat
Ġr ab
Ġr itus
Ġprop em
Ġcomm iss
ull us
Ġor natus
Ġinter esset
Ġst abili
Ġres olv
ep imus
Ġsec ond
Ġdix erat
Ġpat efac
lig endi
Ġbon itate
ov ia
oqu idem
ran k
Ġreg inae
eat h
Ġar rog
Ġar riv
Ġ3 12
Ġmin imus
Ġcre dam
ap pe
ap sa
Ġleg entis
Ġleg averit
issim arum
Ġ19 01
Ġ19 11
Ġ19 16
Ġ19 36
Ġsp ecta
Ġsp ei
Ġus uras
Ġloqu endum
Ġloqu entium
Ġser ius
Ġincol a
Ġman eant
Ġsub sequ
Ġsub iac
Ġaud iens
ĠU cra
Ġal though
esc rip
Ġvolupt ati
Ġimp ell
Ġimp rud
Ġimp une
Ġag rest
ch ed
Ġgen itus
Ġsem ina
Ġas sequi
Ġven ena
Ġpraes unt
Ġput aret
Ġvoc atus
ire d
Ġrem inisc
ĠNon dum
Ġsuper iorum
Ġsuper sunt
Ġrep ly
Ġ18 05
Ġiudic ant
Ġiudic ari
iat ae
Ġdisc endum
Ġdisc ret
Ġdec imum
Ġdec essit
Ġded ec
Ġded imus
Ġded iti
Ġcomp rom
Ġdes erv
Ġdes pex
ill os
Ġcogn omin
Ġcogn itionis
Ġserv iunt
Ġconc edit
Ġrec ol
Ġrec eptus
Ġrec edere
Ġscrib eret
ori es
Ġcl are
II II
Ġinf erius
Ġviv as
Ġnam e
Ġpraec is
Ġsequ eretur
Ġsequ entibus
Ġsequ imur
Ġins ulas
Ġins ularum
ĠAm ph
Ġcar a
Ġcar d
Ġlingu as
Ġmat eries
Ġpers pex
Ġten ebat
Ġmis eris
Ġdef ecerunt
Ġcred atur
Ġcred itum
Ġpraeter vol
Ġnov imus
anc ta
ĠJ hn
Ġexc ess
Ġdoc ent
Ġdoc eat
Ġopt atius
Ġbene fac
Ġpraefect um
ann icae
Ġprob avit
Ð° ÐµÑĤ
Ġform is
Ġform atum
Ġprincip aliter
Ġquaer amus
Ġtum ult
Ġev it
Ġev ad
Ġev angel
Ġaet ati
ix i
Ġimper at
Ġimper atores
Ġimper atorem
Ġius sus
Ġdilig atur
Ġdilig ens
Ġval eret
Ġing enti
Ġ12 3
Ġ12 5
Ġcogit ant
equ is
Ġintelleg as
Ġintelleg entia
Ġsens isse
Ġbe h
Ġmut atio
Ġmut abilis
Ġhum b
Ġvic inum
Ġaccip imus
Ġlong i
Ġreliqu as
Ġreliqu isse
Ġfut urorum
Ġ15 5
ĠEx s
ĠEx t
Ġign ibus
Ġind ag
Ġstud uit
Ð¸ Ñĩ
Ġlaud are
Ġlaud abile
Ġ13 7
Ġhabent ibus
Ġher edit
rehend erit
erent ium
Ġstat ui
Ġconstit utus
Ġ14 6
Ġem isse
Ġfl ect
oll itia
ĠCae lio
Ġwh ether
Ġexist unt
Ġ10 6
Ġpraedic are
Ġaccus ationem
Ġaper i
Ġaper to
ĠBr uti
Ġsubi re
Ġspec iali
urg i
Ġimm un
Ġimm ob
Ġsoc rus
Ġliber avit
ĠPat ri
ĠAl c
ĠMa ur
ĠMa uris
ĠTh emist
Ġcontin ent
Ġmet uo
Ġmet aphys
Ġnoc tis
Ġpraecip uae
In v
ĠIuli um
ĠIuli ae
Ġquaest ionum
Ġcontr ariis
ĠPl a
ua libus
ĠReg ulum
Ġmir abilis
Ġfal li
lis h
Ġlic ebat
Ġeas dem
Ġamp lex
Ġmiser ius
Ġinstit isset
ĠNihil ne
Ġref erat
ĠPh ys
ĠPh ase
ĠPost remo
Ġprof lig
ĠChrist oph
Ġperm is
.... ..
Ġdiss olv
ĠSc iendum
Ġcal ore
Ġcal ce
Ġlect o
ulg ata
Ġcust os
ãĥ Ĳ
ĠChristi anus
Ġexistim at
Ġexistim em
Ġexistim as
Ð¾Ð ±
ros s
Ġpugn atum
anu el
Ġreper ta
Ġreper tum
Ġterr ibilis
ĠMag nam
ĠNov ae
Ġaccid entibus
Ġperv entum
ĠCat egoria
Ġlibert um
Ġquot annis
Ġpae d
ĠIudae am
Ġport am
Ġport ionem
Ġequ es
Ġnunt iata
ĠNec esse
Ġpass ionem
Ġinim icos
Ġpraed itum
Ġpraed iis
Ġperic ulis
Ġutil em
Ġ199 5
Ġaff erunt
Ġlud i
ifest um
Ġiac ent
Ġfem ore
Ġass entior
Ġtestim onii
Ġinterrog et
Ġfig ur
Ġconiunct ione
Ġmerc enn
Ġhor rid
ĠProv ident
Ġjust itiae
Ġullam cor
Ġadf erunt
Ġadf lig
Ġvideb o
Ġrefer enda
Quis que
ĠVid ete
Ġrel atio
ĠNull um
Î± Î¹
Ġ197 1
Ġha uri
Ġconting ens
Ġcustod ire
Ġcapt um
Ġcapt ivi
Ġgener aliter
Ġconced ere
Ġconced itur
Ġph otograph
ĠÎ µ
Ġdistinct ionem
Ġpraem io
com e
Ġpostul are
Ġecclesiast icam
Ġbened ictus
Ġtac ita
Ġfe fell
ĠAg am
Ġdubit et
Ġangel is
Ex o
201 0
201 3
à´ ¤
Ġfest a
tav erunt
Ġau rem
Ġflum ina
Ġconsol etur
Ġrelinqu unt
Ġcredit e
Ġspect ant
ĠMat t
Ġoperat iones
Ġconvers a
Ġrelic to
Ġ185 2
Ġtabern am
Ġ195 4
Ġdefend ebant
ĠSto icis
Ġsollic ita
Ġori go
Ġsh ow
Ġcommend atione
ipp ing
ĠPers piciatis
ĠPis onem
Ġinterfic i
Ġrecord or
Ġrecord atione
Ġsepar atim
Ð¸Ð ²
Ġsacerdot ibus
Ġconfic itur
Ġconfic iunt
Ġnub e
Ã¨ re
Ã¨ res
Ġinterpret ationem
Ġexig it
Ġdur ationem
Ġsci atis
Ġaliquot iens
ĠRuss icae
Ġartific em
Ġsat ius
Ġcoep isset
lev erunt
Ġvictor iae
man agement
ĠMet aphys
Ġabi ectum
Ġadulesc entem
Ġbl ack
Ġuer bi
Ġuer itatis
Ġov ium
ĠMarc o
ĠMarc ello
Ġpropriet atem
rot und
Ã® c
Ġ180 7
ĠSum mum
ĠVer itatis
Ġador are
ĠOm egle
Ġperc ut
Ġsort is
Ġdii udic
Ð¾Ð» ÑĮ
ĠRespon deo
Ġpess ima
Ġpess imum
Ġingredi untur
Ġec iam
Ġpap ae
Ġcontempl atione
Ġnupt ias
Ġinh ab
ĠDuc atum
Ġexpugn avit
Ġconsent it
Ġcler ici
Ġmatrim onio
Ġreduc untur
ĠPraes entium
Ġmagistrat uum
Ġpronunt iatum
ĠSent encia
Ġfelic iter
ĠTusc iae
Ġadministrat ionem
ĠAbrah ae
Ġinferi ori
Ġpaupert ate
Ġsever itatem
Ġsacram enta
Ġdescrip tum
Ġvetust ate
Ġimmort alis
Ġpond eris
ET H
bl ue
Ä« s
Ġumb ra
ĠPhara onem
Ġfamiliar iter
Ġinop iam
Ġcam era
Ġantepon ere
Ġconson ant
Ġconson antiae
ĠEbor acum
Ġsurg e
Ġinterc ess
Ġconl oc
ĠRec usandae
Lat in
Ġdedic atione
Ġbea st
Ġcamp o
Ġdiab olus
Ġintern ation
Ġvenerat ione
EN T
Ġprem unt
ĠNaz are
ĠTub ero
ĠAdm inist
ĠHist oria
Ġris ibile
Ġcredid imus
Ġnepot ibus
ĠFinn iae
Ġextran eo
ĠAntioch um
Ġsur face
Ġbel ow
ĠSat ana
Ġday s
ĠAure i
Ġcolore d
Ġdisi unct
Ġsatiet ate
aev ola
Ġpaulum que
ĠBabyl onis
Ġmur m
ĀĀĀĀ ĀĀĀĀ
ĠHannover ae
ĠHannover anum
Ġproper amus
Ġdecret is
æĪ ĳ
Ġfate or
ĠScript ura
Ġplag a
Ġwal k
Ġexpul sus
ÐµÐº Ñģ
ĠExc ept
Ġdup lum
Ġexperi ence
ĠSatur n
ĠDolab ella
Er go
Ġmasc ul
Ġrequi em
ĠPag is
ĠIb idem
ĠEb urae
ĠHad ri
Ġsacr ileg
Ġcopios iorem
Respon deo
ĠCle opat
ĠToll itur
ĠRepell at
Ġsom ething
ĠVar ro
ĠArchid ioecesis
Ġcathedr alis
Ġquiet em
Ġsuperv ac
Ġsepult urae
Ġmetropolit ana
Ġveget able
Ġdeprav atae
à«§ à«
ĠDemet rius
Ġdereliqu erunt
Vest ibulum
Ġquart am
Ġineb ri
ĠCli vi
ĠFat ebuntur
ĠMarit imae
Ġulc isc
Comp ressed
ĠVindob onae
Eccles ia
ĠØ§ ÙĦ
ĠReb ecc
diffic ilis
ĠHierosoly mis
Ġses eque
pol icy
Ġstrang ers
Ġchili omet
ĠSardin iae
Ġfacil isi
Ġpraetervol avit
Ġullamcor per
! âĢĿ
' d
( )
. ).
9 2
A G
C umque
D on
H is
L ucius
M y
M ovie
T HE
V id
X C
X V
b ant
b ach
b arc
c ulum
d ec
e os
f um
f ruc
h u
h im
h aps
i an
i el
i ana
i ebant
j o
l og
m ine
o am
p ig
q ve
r ub
r Ã©
r inus
s q
s io
s he
s ide
s rc
v ar
v ul
v ere
w idth
z en
Ä Ń
Å Ľ
Ø ´
å ¾
æ Ĭ
æ ł
Ġ rad
Ġ ÑĦ
Ļ ½
Ġe f
Ġe qui
qu oniam
um entorum
er ic
er itur
er atur
Ġa usc
Ġs n
Ġs ib
Ġs ave
Ġs oni
Ġs uns
in ess
in atum
it arum
Ġp y
Ġp ie
Ġp ene
Ġp ure
Ġp ares
Ġp icta
Ġp icked
Ġp anes
at iv
at ing
on ici
on ensis
am ili
am enti
Ġc os
Ġc ibus
Ġn und
Ġm urum
Ġm entibus
re qui
Ġin fic
Ġin eunte
ic ulus
Ġt ign
Ġt redecim
or f
Ġv ota
Ġi bit
Ġi umentum
Ġf le
Ġf lex
li quit
Ġh o
Ġh ec
Ġh all
Ġh yd
im entis
es im
es imum
id iam
os ius
ec ed
ec isset
Ġpr ioribus
ol as
un o
Ġre que
Ġl ant
Ġl ist
Ġl ata
Ġl unam
Ġad am
Ġad fer
Ġad not
ud e
ac uit
ac to
ab um
ab el
as hing
ant ulum
ĠI ord
Ġan ath
Ġcon se
Ġcon ex
Ġcon leg
ĠA equ
Ġex isti
Ġex tin
Ġex eunt
al ae
ĠS od
ĠS emp
ĠS ev
ĠS ua
ĠS olus
ĠS anta
ĠS AL
ĠC il
ĠC ertum
ĠD et
ĠD ioc
Ġme an
Ġme ans
Ġdi r
Ġdi re
Ġdi pl
Ġb ar
Ġper ter
Ġper iit
ter ed
ĠP aria
ĠP aris
ĠP ast
ĠP ecc
Ġg erunt
rat o
ist ere
atur am
ĠQu oc
Ġco epta
Ġco egit
ir on
ĠN ab
quam ini
Ġhab endum
uit er
eg i
Ġsc am
ĠM CC
Ġquid nam
eb ris
Ġpot erimus
iss ionem
and arum
Ġetiam nunc
Ġposs ederunt
Ġu ell
av erant
Ġvid uam
ĠL ent
Ġsit i
Ġid os
Ġid eas
Ġer amus
ĠR ud
ĠR ain
ĠR oy
Ġat h
Ġat ram
ĠT res
ĠT iger
ĠF ides
ĠF ugiat
ĠF elix
Ġcu perem
Ġinc ur
Ġinc idit
Ġaliqu orum
erit i
Ġcons ulum
Ġcons pectum
ĠV and
ĠV ita
Ġthe ologiae
Ġqua li
Ġqua eret
ess ent
Ġma jus
unc h
ĠEa que
ari es
Ġpotest atibus
Ġun iform
ĠB ac
ĠB ill
ĠB ona
ĠB landitiis
ĠG ran
ĠG org
Ġsol os
Ġsol itudinem
ub uit
Ġcont ine
Ġw atch
Ġcomm otus
âĢ ĺ
Ġor ac
Ġor atoribus
Ġfu issem
Ġst ant
inc oln
Ġpat eat
Ġpat ior
Ġanim ali
Ġar rip
Ġ3 16
ĠO t
ĠO econom
Ġcre atae
Ġnost rane
Ġfec und
ĠIn ventore
Ġ19 26
Ġ19 35
Ġof ten
Ġloqu are
Ġser uum
Ġman eret
Ġpost lim
Ġaud iant
Ġaud iri
ĠU l
Ġ- --
Ġob stant
entia nt
Ġimp iet
ĠAn ima
Ġag ebat
ch er
Ġcommun ium
Ġquem libet
ati que
Ġgen uerunt
Ġas pectus
Ġrat a
Ġven istis
Ġvit is
Ġvit anda
Ġvoc aretur
Ġvoc abatur
Ġtr ick
Ġtr icesimo
Ġrem ain
Ġsan abat
Ġcap itur
Ġcap illi
Ġiudic i
Ġiudic at
Ġcur as
Ġcur iae
Ġdisc it
Ġmal itias
Ġnomin atim
Ġdec ept
Ġcomp rehens
Ġmortu am
he li
Ġnot issima
Ġdes pic
Ġdes iit
ill es
Ġsent is
Ġserv ivi
Ġserv anda
Ġserv iamus
Ġrec og
Ġocc idere
Ġocc iderunt
Ġscrib untur
Ġscrib entur
ffic it
ex tus
ĠÐ Ĳ
ĠÐ Ĵ
ĠÐ ŀ
Ġplac ita
Ġcol oniae
Ġsign orum
Ġmat eriis
Ġpers pici
Ġten eros
Ġlab efac
Ġcred atis
Ġpraeter itorum
Ġsolum modo
Ġnov arum
ĠJ ackson
Ġep h
Ġep ul
up dated
Ġopp ressit
odi es
Ġdel ere
Ġpraefect i
Ġred eat
Ġred argu
Ġy ellow
Ġform arum
Ġform avit
Ġform aliter
ĠAr s
Ġvest ibus
Ġvest imentum
iet is
Ġsal uti
Ġquaer erem
Ġmaxime que
ix us
ĠW h
Ġimper itos
Ġduc at
Ġduc unt
Ġval uit
Ġintelleg at
Ġintelleg ant
Ġintelleg ebat
Ġfam is
Ġsatis fact
Ġmut uum
Ġbeat itudo
Ġcognosc enda
Ġlong ae
ĠMar cum
Ġpet ul
Ġ15 7
Ġign oto
Ġappell atione
Ġpatr oc
Ġconi ect
Ġveni rem
ĠPr od
Ġpertin ens
Ġstat uae
ĠCon stat
Ġconstit uto
Ġconstit utio
Ġtim et
ÑĤ Ð¾
ath am
Ġ14 3
Ġ14 5
Ġem it
Ġtant is
Ġfact ione
Ġsubstant iarum
Ġmun it
Ġsac ro
": {"
Ġlat itudo
Ġ10 8
Ġpecc avit
Ġpecc atores
Ġmor am
Ġmor bus
urg ensis
Ġimm erito
ĠIll yr
Ġsoc ii
Ġdub itat
Ġdub itationem
ĠAb el
ĠPat et
Ġrect ae
ĠCiv itatis
ĠTh erm
Ġgrav itatem
Ġquant itas
Ġcontin ue
Ġmet h
Ġmet all
ebam ur
iz e
ider im
Ġadd ed
Ġexs ilium
Ġluc tum
Ġluc rum
Ġperfect ione
In cipit
Ġquaest um
Ġscient es
Ġfer am
andi u
Ġadvers a
Ġadvers arios
Ġvet er
Ġvet ulis
Ġmir andum
Ġcel erius
Ġnol ebam
Ġmiser ia
Ġmiser iae
Ġinstit utio
Ġinstit utione
Ġinstit utionis
Ġfide iuss
Ġcr ack
Ġlae tare
Ġwith out
Ġprof ertur
Ġbib at
Ġparv us
Ġscript urarum
Ġgaud ent
Ġpraest andum
ĠAli oquin
ĠSc imus
Ġatt ent
Ġepist ulis
Ġlect or
Ġauctor itatis
Ġejus dem
Ġessentia liter
Ġdict ata
Ġsex tum
Ġdiffic ilis
ãĥ ĬãĤ
ĠChristi ani
Ġrecip iet
Ġpugn ae
Ġincip iam
Ġeff und
Ġeff ecta
Ġreper iatur
Ġpropri i
ĠCar ant
Ġhonest o
Ġcong r
Ġdim is
Ġdim idium
Ġdim iserit
ĠPer ic
Ġuid ere
Ġuid eo
Ġpae n
Ġsuscip i
Ġnunt io
Ġnunt iis
Ġpriv atum
Ġfur ore
Ġsuos que
Ġdefin itiones
ãĤ ¦
Ġperic ula
Ġeffect rix
Ġq v
Ġaff er
abis que
Ġfem inam
Ġass id
Ġass ert
Ġfoed erat
Ġambul amus
Ġambul avit
Ġambul averunt
Ġfig ht
Ġhor rib
olog us
Ġcompos itio
yr us
Ġconveni enter
Ġadf ert
Ġvideb itis
Ġpal atium
Ġle ave
Ġadhib ere
Ġrefer am
Ġrefer as
ĠVid emus
Ġmanum ittere
Ġarc ess
Ġcircum fl
Ġuol uit
Ġuol uerit
Ġcompar atione
ha se
Ġment imur
Ġnat iv
Ġlaet ari
Ġpraet oris
Ġbest ias
queb antur
Ġexper iri
Ġsalv ificem
Ġpraesid iis
ĠCor s
ĠEpic urum
Ġalb is
Ġostend at
Ġostend unt
Ġpraem ia
Ġmus icam
Ġfrequ ens
Ġfe et
Ġfe el
Ġstult orum
ĠEpiscop um
Ġsempiter ne
Ġsempiter na
Ġeleg isti
Ġdesider abis
Ġden eg
":" ","
Ġtra dam
ĠLut etiam
Ġindig ens
Ġtoll it
Ġtoll ere
Ġprud ens
Ġinterp ell
Ġcant u
Ġpossib ilitatem
Ġfirm um
ĠLa urent
Ġsolv endo
Ġ195 2
udi andae
ĠCal end
Ġeveni unt
ĠSec unda
ĠRe f
ĠRe lig
Ġcael os
Ġrepet i
ĠSam uel
out h
Ġsuspic ari
ĠTer entia
Ġrevert etur
Ġdemonst raverunt
Ġexter nis
Ġrecord ati
Ġsepar antur
Ġloqueb ar
Ġcess are
Ġsumpt o
of t
Ġhabeb unt
ĠMult oque
ns is
Ġadminist r
ĠAlp ium
Ġhae sit
Ġproeli a
Ġexig uum
Ġpercip ere
Ġpaenit entiae
Ġcoep isse
Ġsustin et
Ġaf raid
Ġcern ere
Ġadeo que
Ġoblig atio
Ïĥ ÏĦ
Ġquaereb atur
Ġaccess erunt
Ġtempor alia
ĠTemp ora
Ġintr oduct
Ġconvert i
ĠMet ello
Ġabi ec
ĠBo eth
Ar t
Ġâ Ĩĳ
Ġfaciet is
Ġhodi erno
Ġbl og
Ġeduc atus
ĠFl ac
Ġconsili orum
ĠGall ica
Ġexcell ent
Ġconstant iam
Ġinn ot
Ġpraeb uit
Ġpleb isc
ĠInc idunt
ĠCicer one
Ġvex illum
ĠOb s
Ġedic ti
ĠIdem ne
Ġpropon ere
Ã¶ n
Ã¶ r
Ġadmitt itur
Ġdifficult ates
ĠItal icae
Ġinius tum
Ġaddit ionem
Ġamant issimus
ĠMaxim o
Ġdoct ores
sh ipping
Ġpraepar ata
Ġperven erit
Ġdidic imus
ĠServ ius
Ġgra di
ĠVal er
pa Ã±
den y
Ġioc ans
ĠDel ectus
ĠDel eniti
estig ationes
ĠAnd re
Ġagain st
ÉĻ n
ĠApostol icae
Ġiuven em
á½ ¸
Ġ188 9
Ġcresc unt
Ġinm ort
Ġtene antur
Ġincid idunt
Ġmancip io
Ġcruc if
Ġsuffrag ium
Iacob us
Ġpun iri
Ġproced itur
we ight
Ġgign it
Ġcondemn ata
Ġpaupert as
Ġscand ala
Ġcontend unt
ĠOcc aecati
Ġascend erunt
ĠPraec lare
Ġattrib uitur
Ġclass is
Ġdisplic et
Ġdisplic ere
ĠEnn ium
ĠÄ ĳ
ĠLae li
Ġinsid iae
Ġavar itiae
wh ite
tax able
Ġrevel abitur
Ġcalam itatem
Ġiunct i
Ġperman ere
Ġinimic itiarum
Ġnarr ant
ĠAfric anus
Ġfung i
Ġexaud ivit
Ġresid amus
Ġdecern ere
Ġcorrig iam
Ġsel ected
Ġder iv
ĠTert io
ĠTorqu atus
ĠTorqu atum
Ġrescrip sit
Ġerip uit
Ġheb dom
ĠSus pendisse
ĠVall ey
Ġstup rum
Ġantepos uit
Ġfoll ando
Ġornam entis
Ġdecess erit
ĠHelvet icus
Ġirac undiae
Ġidone us
Ġingred imini
ĠIup iter
Ġcoh ered
Ġvestig ium
ĠEvangeli o
sk u
Ġvesc endum
Ġfix a
Ð°ÑĤ ÑĮ
Ġsilv ae
Ġinan itas
Ġtempest iva
Ġabomin abiles
Ġceter orum
Ġconiun gitur
Ġequit ibus
Ġrett ulit
Ġstr uct
Ġconturb ati
Ġpoenit entiam
Ġamis erunt
Ġpersuad ere
Ġol eo
Ġren asc
Ġtrin itatem
Ġben iv
Ġimple atur
åľ °
Ġrip am
ĠPeripatet icis
çĶ ¨
ĠCy re
Ġbac ulus
Ġdebit orem
Ġiurisdict ionem
ĠRob ertus
Ġelabor andum
ĠĠĠĠĠĠĠĠĠĠĠĠ Ġ
Ġinsequ enti
Ġmonaster io
Ġiri ure
Ġappe ared
Ġexclud untur
Ġhapp en
ĠCupid itate
Ġparlam entum
ĠDef in
Ġfen est
Ġsepulc rum
Dec isiones
Ġexclam avit
Ġproverb ia
ĠNas ica
Ġvolat ile
ĠPecun ia
Ġelegant ius
Ġclarific a
ĠBoh emiae
Ġpaul ulum
Ġdog mata
ĠBarc in
Ġcorn ua
ĠPolit ic
Ġcarc erem
Oz ma
]} ,"
ĠVat ic
ĠBrund isi
Ġbes ide
ĠOrient alis
åĩ º
ĠAtheni enses
Ġsudden ly
Ġeclips is
Ġaen ig
Ġgard ens
ĠAnato liae
ĠThess al
Ġcinem at
Ġunoqu oque
ĠOcta vi
Ġeleem osy
786 23
Ġpropem odum
Ġhumb ug
Ġpaed agog
ĠRebecc ae
barc ode
requi res
Ġlant ern
) ]
. \
/ \/
9 1
9 4
D um
D ic
D uc
E M
F ili
G a
I Z
I st
I ust
I dem
J er
N oli
O cc
S el
S ub
S he
T ur
T ert
U L
V en
W ell
X VI
e u
e ur
e ar
f o
f rom
f unction
i ebus
j s
l orum
l Ã¨s
m ovie
o ud
p ae
s s
u untur
z z
« ĺ
Å ¿
Ï İ
à ¥
ä ¾
ç ī
è ½
Ġ ï
Ġ ic
Ġ oss
Ġe ic
um a
er atus
Ġa erem
Ġa iebat
Ġs un
Ġs alis
Ġs inum
Ġs enior
Ġp s
Ġp ius
Ġp ep
Ġp ectus
Ġp urp
at tuor
Ġn eb
Ġd ulce
Ġm entes
Ġm andi
Ġm other
Ġin ire
Ġin nit
Ġin nov
em i
Ġt ulerunt
Ġt Ã©n
Ġv e
Ġv isi
Ġv icum
ut ia
Ġi ii
Ġf ull
Ġf ish
Ġh ib
Ġh old
Ġh ous
od is
et arum
id isti
id uum
ec imus
ec eris
ul ata
ul isset
Ġnon a
Ġnon um
ib iliter
Ġre pt
Ġl ust
Ġl anc
Ġl asc
Ġad sit
Ġad epta
oc c
Ġut amur
as iae
ere at
Ġde am
Ġde vers
Ġde levit
ĠI S
ĠI l
io que
ĠE G
Ġcon are
Ġcon quiesc
ĠA e
ĠA ra
Ġex ec
Ġex itu
al li
al th
ĠS or
ĠS urg
ĠS ulla
ĠC os
ĠC SU
el ae
el mus
ĠD isp
omn ia
Ġdi uit
est o
Ġdic ente
Ġdic entibus
end arum
Qu apropter
Ġper isse
Ġper iti
Ġper aeque
Ġfac er
Ġprae gn
Ġprae esse
ĠP el
ĠP eri
Ġg eri
Ġg one
Ġg erman
rat u
rat ion
ĠQu anto
Ġsed et
per ant
ĠN icae
Ġtu eretur
uit um
Ġsc ab
Ġsc isc
Ġsc ies
uc id
ĠM c
ĠM ale
ĠM ollitia
Ġcom ponitur
Ġ2 12
Ġap te
and iae
ort abis
Ġver itus
pt io
Ġu ix
Ġab eunt
av isti
Ġvid istis
ĠL im
ĠL atio
Ġsit ienti
ĠH um
ĠH ered
ĠH aed
Ġop ific
Ġid ent
Ġer ig
Ġer raverunt
ĠR i
ĠR am
ĠR ut
ĠR ab
Ġca u
ĠT om
ĠT ot
ĠT arent
ĠT andem
ĠT aur
ĠT attoos
Ġpag is
ing en
ing ui
Ġpar at
Ġpar ab
Ġpar tum
Ġvol v
Ġvol ens
Ġvol uc
ĠV e
ĠV iction
Ġnec dum
Ġtam diu
Ġma lim
ari arum
Ġun e
ĠB ith
ĠG ede
Ġsol ut
Ġsol eat
Ġsol itus
Ġr upt
Ġr ug
Ġr ose
Ġr ace
Ġacc ers
Ġprop ag
Ġcont est
Ġw el
Ġw all
Ġw indow
Ġcomm issum
ine am
Ġor is
Ġinter m
Ġinter ius
Ġst ate
Ġst ren
Ġst antem
Ġlib r
Ġlib ellum
ad ab
Ġreg ere
Ġ3 25
Ġmin oribus
ĠO f
Ġcre di
Ġcre atorem
Ġomnia que
Ġnost rarum
Ġ19 10
Ġ19 28
Ġloc utio
Ġus itat
Ġloqu erer
Ġdol ori
Ġser en
Ġser ui
Ġman ens
Ġsub v
Ġaud ias
Ġaud ies
Ġcaus atur
ator ia
ĠĠĠĠ ĠĠ
esc eret
eo graph
Ġcuius vis
ĠRom ulus
Ġag e
Ġag ant
Ġnatur alia
Ġcommun io
ug e
Ġdeb ito
Ġdeb uerunt
Ġdeb ebit
Ġdeb eas
Ġdeb eamus
Ġpart i
Ġvit andum
Ġvoc are
Ġtr ic
Ġrem un
rae s
Ġcog ita
itt o
ern i
ern us
Ġsuper bi
Ġsan c
Ġsan um
ux isset
Ġ18 25
Ġ18 39
"\ /\/
Ġiudic abo
Ġiudic iorum
Ġcur rens
Ġdisc erem
Ġdiv i
Ġdiv idere
Ġdiv ites
Ġapp arent
ali quid
Ġmal it
Ġmal ane
Ġnomin are
Ġdec or
Ġdec imam
Ġeorum que
Ġcogn atus
Ġsent imus
Ġeos dem
Ġrec ep
Ġocc urre
Ġfort ius
Ġfort iores
uct i
Ġact urus
Ġconf idere
Ġcl adem
Ġpublic as
ĠÐ Ł
Ġinf ame
Ġviv a
Ġviv um
Ġplac ebat
Ġins u
Ġins ect
Ġins ulis
Ġins erv
ĠAm p
Ġcar ius
ĠNam que
Ġmis ertus
Ġdef endit
Ġpraeter iit
Ġprinc ÃŃ
Ġj ud
Ġj ub
Ġnov issimus
ĠJ ust
ass ent
Ġsap is
Ġsap iunt
Ġexc idit
Ġopp ressum
Ġvis e
Ġneg lex
Ġform ulam
Ġvest e
Ġvest iti
ea st
ard s
one y
Ġquaer enti
ĠIs ai
ĠIs arae
Ġund ecimo
Ġext endit
Ġeg erint
ĠW eb
Ġsanct issima
Ġimper t
Ġdilig itur
Ġdilig endum
Ġnecess itates
Ġ12 4
Ġabs entem
Ġabs orb
ord ecim
erb ium
Ġmut ant
Ðµ Ð¾
Ġbeat os
th a
Ġlong ior
Ġlong issime
Ġlong itudine
Ġord er
Ġord inum
Ġ17 5
Ġreliqu ias
Ġpet itur
Ġ15 4
ĠEx o
ĠEx pect
Ġign i
Ġmed ici
Ġind oc
Ġind ivis
Ġstud ere
Ġsup ell
Ġull ae
Ġlaud o
Ġlaud ant
Ġ13 6
Ġveni ebant
Ġfor amen
ĠPr ius
ĠCon i
Ġproc essit
ĠUn ionem
Ġconstit uti
if t
if erum
Ġsen atores
Ġtim entibus
Ġtim eas
ÑĤ ÑĢ
ath an
Ġ14 1
Ġ14 4
Ġprovinc ias
Ġem erg
Ġfl et
Ġintellig unt
Ġod erunt
Ġmens ur
Ġpo ur
Ġexist at
Ġexist entia
Ġplur imos
Ġpraedic ata
Ġpraedic atione
Ġpecc ati
Ġmor abatur
Ġ16 8
ãģ ķ
Ġspec ulis
ĠIll is
ĠK g
Ġsignific andum
Ġcup idi
Ġdub itas
ĠAp ostoli
Ġaedific at
Ġaedific averunt
Ġmov ere
Ġmov erunt
Ġdem and
Ġcontin ens
Ġmet ior
Ġmet iri
Ġexs ul
Ġcan os
Ġli quet
Ġnoc eat
ma ius
Ġmil itia
Ġperfect i
In de
ĠIuli ani
ĠIuli anus
Ġcontr acta
Ġfer ae
Ġfer ro
Ð» Ñĥ
Ġtrad unt
Ġvet ere
Ġvet erem
Ġmon s
Ġmon umentis
Ġinven isse
Ġed uxit
Ġed ge
Ġed uxi
Ġhabit andum
Ġhabit abit
Ġmot ibus
Ġmot abilem
Ġrespond endum
Ġrespond ente
Ġrev ol
Ġinstit uto
Ġinstit utionem
Ġcr us
Ġbre ak
Ġprof it
ĠPrae dic
Ġscript orem
Ġscript uris
Ġgaud ebit
Ġang ulo
Ġso und
la in
Ġhuman arum
Ġconsuetud inis
Ġconsuetud ines
Ġsex u
Ġdiffic ili
Ġdiffic iles
ãĥ ł
Ġdil ecto
Ġdiu ina
Ġrecip iuntur
Ġadv enit
Ġadv ena
Ġhost iam
Ġhost ias
Ġlo que
Ġmagist ra
Ġdelect atio
Ġincip iat
Ġmy self
Ġeff l
Ġeff emin
Ġreper iri
ĠMag is
ren dum
Ġquot quot
ĠEp iro
ĠIudae ae
Ġcupid o
Ġmitt it
Ġmitt as
Ġmitt etur
Ġalien am
Ġ24 6
Ð°Ð ³
Ġdisput atio
Ġfur t
ãĤ ¤ãĥ
inct io
Ġthem selves
Ġteneb rÃ¦
Ġculp ae
Ġ194 1
Ġped e
Ġdam no
Ġinterrog atione
Ġfoed eralis
Ġpret ios
Ġfig uris
Ġret ex
Ġads entior
Ġscrips erat
Ġdid n
Ġnasc atur
Ġdux erunt
Ġhered ibus
Ġjust um
Ġadf uit
Ġfabul is
Ġadhib uit
Ġignor antiam
Ġtut orem
Ñĥ Ð´
ĠDic imus
Ġdixerunt que
Ġrefer atur
Ġrefer antur
Ġhist r
Ġcens um
Ġhort or
Î¿ Î¹
Ġcompar ationem
Ġment itus
Ġconsum entur
Ġconsum ptum
Ġagn i
Ġ197 6
Ġ197 7
Ġ196 3
Ġ196 4
Ġprophet at
Ġprophet arum
oh l
ĠMed orum
Ġdev ot
Ġcustod itur
Ġbest ia
Ġaestim atione
Ġcomed ite
Ġconced unt
Ġconced endum
Ġalb a
Ġvul vam
Ġgrad ibus
Ġamb iti
Ġceleb errim
Ġmus icis
ĠLuc ilius
Ġingen uas
Ġpere at
Ġtac ens
ĠFac iam
ĠFac ilis
Ġdepos itus
ĠEpiscop orum
ĠBritann i
à´ ķ
Ġpen uria
Ġdesider as
Î½ Î±
Ġ198 0
Ġ198 3
Ġ198 4
Ġ198 7
Ġ198 8
Ġgenerat ionibus
Ġpros it
Ġhabitat oribus
Ġconsol atione
Ġmale fic
Ġoccup at
ĠMin nes
Ġcib orum
ï¿½ .
ala am
ĠLa ke
Ġ185 4
Ġ185 5
Ġdefend unt
arn ess
Ġsh ort
Ġabsol utam
Ġproficisc eretur
ĠTur ici
Ġrevert i
Ġdemonst rare
ĠPol em
Ġedit i
Ġsangu inis
Ġmunicip iis
Ġcomprehend ere
Ġturb am
ĠMult ae
Ġmom ent
Ġoccas us
Ġoccas io
Ġimped imentum
Ġdig ito
ĠXX II
Ġtit ius
ĠIst a
ĠIst i
Ġcoep isti
ĠÐ¿ Ð¾
ĠVel ut
ĠVir tut
Ġpeculi i
ĠTemp lum
Ġabi ecti
Ġrid icula
Ġanimad vers
Ġhosp es
Ġsuav issima
ĠGall us
Ġexcell ens
Ġarchit ect
Ġeat ing
Ġpraeb ere
ĠInc arnationis
Ġacceper am
ĠSum mae
ĠAlexand rum
Ġvex ill
Ġprofess ione
ĠAcadem ia
Ġrom anum
Ġ190 8
Ġconfus us
Ġpropon itur
Ġpict ae
ĠKal endas
Ġdispos uit
Ġdispos itionem
Ġnef arium
Ġnef ario
Ġuis a
Ġpess imus
Ġpermitt o
Ġnou imus
Ġcav ete
Ġconsent aneum
Ġamo ena
Ġobliv ionem
Ġ188 7
Ġknow n
Ġtransl ata
Ġmancip ia
Ġmancip ari
Ġempt or
Ġexst are
ĠMont is
Ġpud et
ĠTheod iscus
Ġfelic itas
Ġdulc ed
Ġdeclin are
ĠHe u
Ġimpos ita
Ġcaec us
ĠSac ram
Ġeffug eret
Ġquint am
Ġcerta in
Ġmo enia
Ġsever us
Ġamitt it
Ġration ale
Ġdefunct i
Ġevangeli o
ĠPlat one
Ġdescrip ta
Ġvetust as
Ġbenign a
yc l
Ġcomput at
Ġmiseri is
Ġmonst rat
Ġbaptiz atus
Ġconviv io
Ġfru atur
wh ich
Ġnit itur
ĠEm erald
Ġcommitt itur
Ġmerced e
Ġindivid ua
Ġantepon endi
Î· ÏĤ
Ġurg et
Ġperegrin os
Ġdisper si
ĠIap onia
ĠÐ¾ ÑĤ
AP UT
á¿ ¶
á¿ ĸ
Ġpraesc ientia
Ġsemin atum
Ġampli ores
Ġcaelest e
Ġcaelest is
Ġvent re
Ġvine am
Ġvine as
Ġmathemat icus
Äĵ s
Ġrest aur
ĠMon ach
Ġinclud it
Î¼ Î±
Ġpariet em
Ġapert ius
Ġstill ic
Ġfil o
Ġgess i
Ġconiun x
Ġosc ulatus
Ġinterfect i
Ġexercit ui
ĠDionys ii
Ġpend et
Ġpraeceper am
Ġpromitt it
Ġast onis
Ġreddit e
Ġirasc i
Ġnor unt
Ġcoel um
Ġsecret arius
Ġgrand ia
Ġagric olae
Ġacquir it
Ġsatiet ates
Ġmeretric em
Ma xim
Ġexh ort
ĠBabyl onem
ĠTen etur
åľ ¨
ĠKans as
Ġadiunct is
Ġincommut abilis
æĸ ¹
ĠMor bi
Ġwal ked
Ġobv iam
ĠPeripatet icorum
ĠCorne lius
Ġastr onom
Ġiuvent ute
Ġhand s
Ġsculpt ile
ĠTib er
Ġword s
Ġmarit ima
ĠLacedaemon ii
Ġmach in
Ġoppon untur
Ġdeced at
ĠNeg at
Ġsuscit et
ĠPtol om
Ġmove or
Ġpub ertatis
ĠCot ta
ĠPlin ius
ÅĻ ÃŃ
ĠIuv enis
ĠTam quam
Ġcaerim onias
Ġvolum ine
Ġwonder ful
Ġnosc untur
Ġfinit imis
ĠTuscul ano
Ġpudic a
ĠBeth le
Ġeffig iem
ĠComment ator
ĠRepell endus
å± ±
ĠMuli er
Ġcoinqu inati
Ġevid enter
Ġsacc ulo
Ġdifferent iis
Ġomnim odo
ĠNim ium
Ġrepos ita
Ġoctog inta
Ġmyth ist
ĠÐļÐ¾Ð» Ð¾Ð½
ĠCent ri
Ġdiurn arius
Ġextrah enda
Ġiniust itia
Ġstair s
Ġsingular iter
Ġpror og
Ġole um
Ġpedil ud
ĠEae dem
acor oman
ĠAeth iop
Ġpraeiudic ium
Ġsuppl em
ĠMum mio
ĠIndign a
ĠéĿ Ĵ
ĠTimot heum
ĠCenom annicae
âľ Ķ
ĠPhase llus
Ġinfic iunt
Ġobstant e
Ġcircumfl uere
ĠBarcin onensi
ĠViction arium
ĠprincÃŃ pio
, --
. âĢĻ
. </
E L
G u
G eorg
I us
I sa
M on
O per
O ffic
P a
P ar
P ers
R erum
S uper
T UM
U N
V er
a quam
b iter
c ed
c io
c isc
c ui
d et
d ing
e ve
f al
f ast
h r
h ow
j k
j oy
l ac
l ingu
l ÉĻ
n em
n el
n eg
n omen
o o
p en
t re
u cc
y st
y ris
z im
¢ ãĥ
Â ¨
ä ¿
ç »
è ®
è ¿
é ĺ
Ġ ich
um e
um ento
er ap
Ġa w
Ġs mo
in al
it ui
us ippus
Ġqu eat
Ġqu ominus
Ġqu avis
Ġc essit
Ġc edere
Ġc illum
Ġn ug
Ġn ation
Ġn az
Ġn ationalis
ae olog
Ġd ens
Ġd ang
Ġd andam
Ġm usc
Ġm uro
re b
Ġin struct
Ġin aequ
em nit
ic iunt
ur l
ur ibus
ur ing
Ġv enter
Ġv otum
Ġi rati
Ġf aen
en u
Ġh et
Ġh oris
Ġh urt
im ento
od ay
et es
ar icus
id ii
id eles
ec e
ul erat
ul su
ol orum
ed ia
Ġre lev
Ġre ally
Ġl is
Ġad c
Ġad gn
Ġad ferre
Ġad invent
Ġad prop
Ġad inv
oc utus
se e
ac us
ab a
Ġde stitit
Ġde light
op olis
il t
il um
il us
ĠI mo
ĠI ove
ĠI ca
Ġan glic
ĠE T
ĠE g
ĠE un
ĠA C
Ġex quis
Ġex iit
al it
ĠS ae
ĠS un
ĠS ag
ĠS ep
ĠS erm
ĠS oli
ĠS te
ĠS inarum
ĠS ET
ĠS hop
ĠS ancta
ĠC O
ĠC f
ĠC od
ĠC ert
el em
ĠD atum
omn es
Ġdi rip
Ġali eni
itat ion
Qu ando
Ġper quam
Ġper pend
ter is
ter unt
Ġfac ial
Ġfac ientem
Ġfac inorum
ra sti
ĠP in
ist am
ist ica
ob e
Ġsed ibus
per am
Ġco et
ĠN iv
ens imo
Ġhab uisti
Ġhab iturus
Ġtu b
Ġtu Ã¦
uc tus
ĠM am
ĠM ad
ĠM yc
Ġcom ites
Ġ2 16
Ġver iora
Ġquo i
Ġu eri
Ġu ident
Ġu elim
ĠL ys
ĠH y
ĠH ell
ĠH ie
ĠH erc
Ġop em
Ġop tum
Ġid i
Ġer ro
Ġne e
ĠR P
ĠR os
ĠR and
ĠR ad
ĠR uler
Ġca peret
Ġam ori
Ġam avi
Ġam abat
Ġam issis
ĠDe u
ĠT ob
ĠT ig
ĠT abul
ĠT ua
ult at
ĠF a
ĠF lum
ĠF ecit
Ġpro ferre
lic h
lic k
Ġinc ert
Ġinc ensum
Ġinc ertus
Ġcons ulta
Ġcons pici
Ġcons cript
Ġcons crib
Ġcons ensio
ĠV it
ĠV ade
ari ensis
Ġpotest ne
ust ro
ĠB U
ĠB arn
ĠB alaam
ĠG erm
ĠG enus
Ġsol it
Ġsol vi
Ġr am
Ġr itu
Ġr idere
Ġtemp li
Ġint im
Ġint ue
Ġint endere
Ġint ravit
Ġprop itius
Ġcont amin
Ġcomm endo
Ġmod ios
res se
Ġst im
Ġst ep
Ġst abit
Ġst ante
Ġlib entissime
ep end
Ġsec uris
Ġpat erna
fect i
eat ures
Ġ3 18
ĠO k
ĠO lim
Ġcre ationem
Ġleg ari
Ġleg atos
Ġfec ero
Ġfec erint
ĠIn fer
ĠIn vid
Ġ19 38
Ġsp ond
Ġus ur
Ġus uc
Ġus ers
Ġus itate
Ġter gum
Ġloqu entes
Ġloqu entis
Ġdol endi
Ġman ebat
Ġman ebit
Ġsub difficilis
Ġpost eros
Ġaud ito
Ġaud issem
ĠU llam
Ġmort alis
ific atio
Ġ- ;
Ġob li
ator iae
Ġinv enti
ĠDomin icae
ĠSed ec
Ġag emus
Ġnatur as
Ġnatur alium
Ġquem dam
Ġdeb erem
Ġdeb eam
Ġven ero
dic tio
Ġput ans
Ġvoc ationis
Ġurb anorum
Ġist as
ie f
Ġpec ud
Ġrem ember
Ġante ibat
ĠNon as
itt e
Ġsuper bus
Ġsuper iori
Ġexp ans
Ġrep ar
Ġ18 46
Ġiudic etur
iat ores
Ġdiv us
Ġnomin at
Ġdec isiones
Ġpop osc
Ġnot i
Ġnot itiae
ill atim
sum enda
rim e
Ġcogn itis
ĠFranc ice
ĠFranc isci
Ġserv itus
Ġserv averunt
ont is
ont em
Ġconc ilio
Ġfort itudinem
Ġmol es
eli a
eli o
Ġconf idit
Ġconf lat
ĠÐ ľ
Ġinf antem
Ġinf ernum
Ġviv atur
Ġplac uerit
Ġcol itur
Ġcol onus
Ġsequ antur
Ġsequ entes
Ġins ul
Ġins pici
ĠCom modi
Ġmis isset
Ġconv al
Ġj our
Ġnov erat
ĠJ uli
Ġexc ut
Ġexc edit
Ġprov ide
Ġdoc eret
Ġdoc umentum
Ġpa us
Ġprob e
Ġprob es
Ġrespon so
Ġneg l
Ð° Ñģ
Ġcae d
Ġcae sus
Ġcae des
ĠAr tax
Ġcert iores
Ġvest is
ini anus
ard o
Ġadh ort
ĠDei ot
Ġext im
Ġeg erunt
ĠW ogg
Ġimper i
Ġmund ano
Ġdilig i
Ġdilig eret
Ġdilig endo
Ġduc untur
Ġnecess itudo
Ġing rat
Ġtest ator
uv ius
uv ium
Ġintelleg es
Ġfam uli
eper at
ow ers
Ġvic o
Ġvic ina
Ġvic inus
Ġvic tu
Ġbeat o
Ġbeat ific
Ġcognosc atur
Ġcognosc untur
Ġcognosc eretur
Ġord ines
Ġ17 3
Ġ17 7
Ġfut urae
Ġind uxit
Ġaed ilis
Ġappell atum
Ġiur g
Ġiur iscons
Ġcet e
Ġull us
Ġveni rent
Ġidem que
Ġiis que
ĠUn cle
Ġtim endum
Ġtim entes
Ġtim iditas
ÑĤ Ð°
Ġ14 8
Ġfl uit
Ġfl ores
Ġfl uere
Ġfl uxit
ĠCae lum
Ġmun itum
Ġexist entiam
Ġoport uerit
Ġpul sus
Ġlat in
Ġlat roc
Ġaper tus
Ġk ey
Ġk new
Ġpecc andi
Ġpecc averit
Ġmor bis
Ġ16 1
Ġ16 4
ãģ į
Ġtrans c
Ġtrans mut
ĠIll ic
ĠK ing
Ġsignific amus
ĠQuis quis
Ġcup iunt
Ġcup iebat
Ġcup iebam
Ġsoc ialis
Ġdub ia
Ġdub itatur
Ġliber aliter
Ġliber alitas
Ġrect ores
ĠAl g
Ġaequ aliter
Ġaedific iis
Ġpon at
ĠGerman orum
ĠGerman icum
ĠSic iliam
Ġmov ebitur
Ġdist at
Ġregn at
Ġepiscop ali
Ã© e
Ġmet ite
Ġadd at
Ġadd itur
Ġsing le
Ġcan ere
Ġperfect ae
Ġprod ita
ĠIuli am
Ġcontr act
ĠPl erumque
Ġscient e
Ġscient iis
Ġeffic iens
Ġunivers alis
Ġunivers itate
Ġantiqu ius
Ġtrad at
Ġtrad iderit
Ġcond iderunt
Ġmon umenta
Ġinven ias
ĠReg ina
Ġ{ {
ĠEr ant
ĠEr ror
Ġmulto que
Ġconsul arem
Ġconsul atu
Ġed endos
Ġhabit abat
Ġhabit antibus
Ġhabit abant
Ġrespond erit
Ġeas que
ĠPro in
ĠPro elium
Ġsecund i
Ġmiser iam
Ġarbit ratus
ĠÃ ĺ
Ġcr ass
Ġtur ris
Ġlae tor
Ġprof itetur
Ġperm iss
Ġbib endo
Ġscript am
Ġcogitat a
Ġgaud eant
Ġpraest atur
Ġdiss ert
Ġprom isso
ĠThe op
Ġcust om
Ġsex o
Ġdiffic illima
Ġ20 4
Ġ20 7
ĠAegypt iis
ãĥ ©
ãĥ ŀ
Ġexistim ari
Ġexistim atio
Ġclar itate
ĠSt atus
Ġincip iens
Ġ22 4
Ġsper amus
Ġsper abam
ĠCar itas
ĠMag no
Ġmi ratur
Ġindic ium
Ġnob ilior
Ġ23 1
Ġaccid at
Ġdim idia
Ġdim idiam
Ġuid emus
ain er
Ġalien os
Ð°Ð ¶
Ġpriv ati
Ġpriv atim
Ġpass ed
Ġpraed onibus
Ġarbitr abar
Ġrog as
Ġdefin itur
Ġperic lit
tu ordecim
Ġno us
Ġlud imur
Ġaug ere
Ġfem in
Ġfem inas
Ġgest ae
Ġtestim onio
Ġson itus
Ġinterrog averunt
ĠSept emb
Ġscrips eras
ĠVol o
ĠAc ta
Ġvers u
Ġhered i
ĠÂ» .
Ġexspect at
Ġexspect em
Ġexspect ant
Ġrelig iones
Ġrelig iosa
Ġ30 5
Ġpal ud
Ġmanifest etur
Ġsust ulit
Ġfore t
Ġiniqu itates
Ġhort ari
Ġtem er
Ġsimplic i
Ġordin atae
Ġcunct as
Ġmer idie
Ġassum psit
Ġconsum pt
Ġvinc ere
Ġvinc ula
Ġfel icem
Ġquar tus
ÃŃ m
Ġlaet etur
ĠDol orum
Ġcapt ae
Ġaestim are
Ġiniur ias
Ġexper ti
Ġsalv us
Ġcondic ionibus
ĠSa int
ĠÎ ł
Ġostend e
Ġrestit uit
Ġecclesiast icum
Ġpert ineant
ĠLuc ili
Ġingen itus
ĠFac ile
Ġstult um
Ġstult itiae
Ġdubit ant
Ġdubit ari
Ġdubit andum
201 1
Ġsil ent
Ġobl itum
Ġsingul arem
ÐµÐ ·
Ġelect ione
Ġconsol atur
Ġconsol atio
ÑģÑĤ ÑĢ
Ġrelinqu atur
Ġot i
Ġoccup atum
Ġoccup ata
ĠArist ox
ĠArist idem
Ġconsider atur
Ġmali gn
Ġcib is
Ġfirm ior
Ġdatur um
Ġ185 6
Ġtabern acula
Ġvend ant
Ġapostol orum
Ġ195 5
Ġbrev ius
âĢĶ ,
Ġobserv are
Ġobserv andum
ĠSam ariae
ĠSam nit
Ġabsol v
Ġobi urg
Ġpron omen
ĠGen u
ĠGen er
Ġsuccess orem
Ġcult u
Ġprohib ere
Ġappar uerit
Ġincom modo
ä¸ Ĭ
Ġconserv anda
Ġrecord ationem
ĠCol oniae
Ġadduc eret
Ġaeg re
Ġz o
Ġcondit am
Ġcondit io
Ġorn at
Ġorn atum
Ġperspic is
ĠVolupt atibus
Ġhabeb o
ĠMo abit
ĠLeg em
resc it
Ġjudic ia
Ġimped iat
Ġdig est
Ġmoll it
ĠXX III
ĠXX VIII
Ġuoc em
Ġmerit is
Ġpisc is
arch a
Ġdissim il
Ġoccid at
ĠEl ector
Ġabund are
Ġgreg um
Ġlap ides
Ġappet it
Ġoppos ita
Ġ189 1
Ġpraeced unt
Ġexhib ere
Ġconstant iae
ĠSu fficit
Ġwould n
ĠTro ia
Ġstip end
ĠVer res
Ġpraetor io
Ġard entem
Ġparentes que
ĠHab es
ĠRep udiandae
Ġrom ae
Ġqual itatem
Ġqual itatibus
ĠBib lia
ĠBib liothec
Ġvindic anda
Ġconsist ere
Ġaddit o
Ġaddit is
Ġerud it
Ġcustodi erint
Ġdoct issimi
Ġcompet ere
Ġbec ame
Ġcommemor at
ĠÐ² Ð¸Ð´
Ġingredi atur
Ġplant ate
Ġsig ht
Ġresist at
Ġservit ute
Ġpermitt it
Ġnou erit
Ġpraestant ia
Ġpraestant ior
Ġarb orem
ĠBeat i
Ð°Ð½ Ð¸
ĠApostol ici
Ġiuven um
Ġknow s
Ġtene amus
ĠOp us
Ġempt i
ĠSeptentr ionis
Ġconu enit
Ġexst inct
ĠPhil o
Ġdomest icis
XXX IV
Ġnonnull ae
Al b
quire n
Ġspon sa
Ġeven erit
Ġaus i
Ġimport ari
ĠSax onia
Ġpell ic
ĠAustr ia
Ð¾Ð² Ñĭ
Ġcolloqu i
ĠSen atus
ĠPap ae
ĠHeb ra
Ġnumer antur
Ġinferi or
IC O
Ġpercus si
Ġcontend imus
Ġeffug it
Ġinstrum ento
Pr oduct
ĠBal bus
Ġconcord iam
Ġmaj orem
Ġdefunct o
Ġ179 6
Ġampl ect
Ġconiug em
ĠApp aret
Ġdistingu untur
Ġtribu ens
Ġbaptiz ati
Cur abitur
ĠLae t
Ġrevoc atus
ĠAnglic ae
ĠPort ug
Ġplan etae
Ġinop ia
ĠConsequ untur
Ġradic es
Ġradic itus
ĠLu cce
Ġrob ur
Ġsubl atum
Ġdivin ius
Ġfals am
Ġcand el
ĠCo ok
ĠÐ´ Ð»Ñı
Ġdisper sae
Ġquidd itatem
Ġliberat a
ĠOffic iis
Ġcelebr andum
Ġphys icae
Ġphys icus
á¿ Ĩ
Ġheb es
ĠVall is
Ġcontempt us
Ġcontumeli am
Ġdial ecti
ĠSil o
Ġsemin ate
Ġpup illo
Ð½Ñĭ Ñħ
Ð½Ñĭ Ð¹
ĠMCML XX
Ġidone um
ĠConstant inus
Ġfraud em
Ġmathemat icae
Ġsubd itus
Ġdiscern it
Ġç Ļ½
Ġlen ius
Ġcoeper int
Ġinterv all
Ġmedic inae
ĠPyrenae o
ĠMis erum
Ġual ent
Ġroom s
Ġinut ilis
ĠPos sumus
Ġpariet es
Ġtel eph
Ġresponde am
Ġapert issimis
ĠElis abeth
Ġris u
Ã± os
ĠCatil inam
Ġosc ul
Ġtribul ationem
Ġtribul atione
ĠCras si
Ġbel ong
Ġfacillim um
Ġdeprec atus
ĠClod io
Ġbenedict ione
ĠPont ifex
Ð°Ð» ÑĮ
Ġtend unt
ĠVerg ilium
Ġspecial em
ĠOrdin arius
Øª Ùĩ
Ġlep ra
ĠCass ius
Ġtun icam
Ġnear ly
Ġrhet or
ĠIoach az
public a
Ġperduc ere
ä½ ¿
Ġplag am
ĠVt rum
ĠPu ella
ĠTr ist
ĠBen iam
Ġtrip lic
ĠCas si
Ġremed ium
ĠExemp lum
Ġadiut orium
Ġexempl aria
Ġread y
ĠRhen um
Ġterre na
Ġundev iginti
Ġprompt u
Ġdot em
Ġliter as
ĠPtol em
Ġvivific at
ĠCarthag inem
Ġfabric ata
ĠSociet atis
ĠSoviet icae
ĠIb id
Ġsei ung
Ġsubm inist
ĠIoann em
Ġscandaliz at
Ġcaerim oniae
Ġevan uit
ĠAccus antium
Ġbaptis mum
Ġsid era
ĠToll enda
Ġeffig ies
Ġsepulch ri
ĠMichae l
Ġbal ne
Ġcreb ro
Ġimpot entia
Ġquing entesimo
Ġtrec enta
Ġcoinqu in
ĠNapole onis
ĠSpe usippus
ĠPres byter
Ġtheat rum
Ġnumm os
Ġsimp lum
ĠComp rehensum
Ġnic hil
Ġinstruc ta
Ġton it
ĠCardin alis
Ġgran um
Ġseips is
Ġdiluc ide
ĠAsper natur
Ġperdid ic
Ġdiutur na
Null am
Ġretr orsum
ĠAT T
Ġderelin qu
wor k
ä¼ ļ
åŃ Ĳ
Ġcle ar
Ġcentur io
Ġmam mae
Ġfoc us
ĠCIC ERO
Ġdread ful
Ġmenda x
ĠDign issimos
Ġpraefic itur
ĠExp ressa
nesc imus
ĠRup ilio
Ġegest atem
Ġeuangeli o
ĠParlam entum
Ġtabernac uli
Ġaev um
Ġcoempt ionem
Ġarbitra retur
1450839 56
ĠHannib al
Ã£ o
Ġexquir ere
Ġcoem eter
Ġincrem entum
Ġyo ung
Ġimmorta libus
Grat ias
Ġhung ry
ĠSull ae
Ġtherm ae
Ġcorrept ionem
37428 67
ĠRepublic anae
ĠCrass o
ĠMeridi ano
Ġamphitheat rum
Ġethn icus
Ġherc le
ĠlÃ¦ t
Ġtumult u
sq b
ashing ton
Ġanath ema
Ġdipl oma
Ġbeniv ol
Ġcinemat ograph
Ġhous es
ĠBith yn
ĠMinnes otae
Ġadinvent iones
ĠIca unae
ĠInvid iosum
ĠWogg le
ĠÐ²Ð¸Ð´ ÐµÐ¾
ĠçĻ½ ç´Ļéĭ¼
" ?
- ,
0 4
0 8
A f
A re
C am
C ae
C re
C et
E um
F ree
H en
H omo
I B
L c
L o
L eg
L ong
L uk
L uneburg
M e
M in
M ult
M olest
M aecenas
N ota
N olite
P C
S en
S cript
V is
a is
a ui
b id
b as
c p
c ap
d ed
d isp
e ius
f ol
f amili
i ra
i enus
j i
k ins
l en
l itus
m ar
m ir
m atis
n en
n iam
p es
r h
r ere
r imus
r ino
r andum
r inam
r ive
s is
t ion
t ag
u en
u unt
u ers
u ero
w er
y ll
Î ²
Ð Ķ
Ø ³
Ù ģ
æ ²
æ ´
æ ī
ç ½
ç Ľ
è §
é ģ
Ġe ur
Ġe ars
er icus
Ġa vis
Ġs ar
Ġs ad
Ġs esc
Ġs oph
Ġs leep
in m
in atio
it s
it antur
it ionum
us i
Ġp ic
at s
at t
on orum
am atus
Ġc er
Ġc ic
Ġc un
Ġc row
Ġn ice
Ġn ight
st and
Ġd in
Ġd atis
Ġm uc
Ġm ares
Ġm aev
Ġm iretur
Ġm itteret
re f
re ed
re verunt
Ġin se
Ġin und
Ġin anis
Ġin min
ic ht
Ġt re
Ġt ess
Ġt ig
Ġt all
Ġt oni
Ġt ried
or ro
or tare
Ġv ill
ut ura
ut ionibus
Ġi it
Ġi rae
Ġi uncta
Ġi ratum
Ġi bat
Ġf ib
Ġf eb
Ġf les
Ġf ient
Ġf ati
Ġh in
Ġh ol
Ġh iis
Ġh Ã¦
Ġh ymn
Ġh ouse
im il
im ine
od am
id et
os ed
os eph
ul esc
ul sus
ent issimus
Ġnon agesimo
Ġpr iora
ib unt
un itatis
Ġre ipublicae
Ġl os
Ġad ip
Ġad ult
Ġad erit
Ġad pos
Ġad fectus
Ġad iciam
ab amur
ab ilitatem
Ġut iles
Ġut ebatur
Ġquae sit
Ġquae cunque
Ġde per
op olit
Ġcum ul
il ae
il ing
ant ulus
ĠI P
ĠI c
ĠI ub
ĠI uxta
ĠI ron
ĠI III
Ġan al
Ġan ulum
Ġan che
Ġsu ite
io b
ĠE P
ĠE V
ĠE gn
ĠE ligendi
ibus que
Ġcon stru
ĠA esc
Ġex ag
ĠS ig
ĠS ive
ĠS uam
ĠS uus
ĠS lov
ĠC av
ĠC ura
ĠC athed
ĠD res
ĠD ux
Ġme ll
Ġme lle
Ġb eli
Ġb ow
Ġb ird
Ġb iduo
Ġqui etis
Ġdic ebantur
Ġdic ebas
itat iones
Qu int
ip si
Ġper dam
Ġper pa
ĠP ass
ĠP ans
ĠP rog
ĠP arent
Ġg av
Ġg erit
Ġg ust
Ġg az
Ġg erebat
ist unt
ist as
ob oam
ĠQu icumque
Ġsi r
Ġsi x
Ġco ept
Ġco etus
Ġen erg
Ġen joy
ĠN at
ĠN unt
ĠN ar
ĠN uper
ĠN ation
ens ionem
uit a
uc is
ĠM as
ĠM undi
und ensi
Ġcom oed
Ġ2 10
Ġ2 13
Ġ2 21
Ġap art
Ġ( =
Ġver eri
pt e
Ġposs ed
Ġposs ideas
Ġu ul
Ġu eni
Ġu inum
Ġu erius
Ġu eniat
Ġab rog
Ġab str
Ġab ove
av ia
av erim
Ġvid ebat
Ġvid erent
ell os
ĠL es
ĠL og
ĠL uneburg
ĠH elim
Ġop ta
Ġid ipsum
Ġid olum
ionem que
ĠR ich
ĠR otae
Ġca ught
Ġam es
Ġam ar
Ġam ator
Ġat e
Ġat rium
ĠT w
ĠT ic
ĠT alis
ĠT otum
ĠF il
ĠF ugit
Ġpro j
ing itur
Ġpar is
Ġpar ta
Ġpar atae
Ġcu bit
Ġinc arn
isc a
isc is
isc umque
Ġvol t
ĠV inum
ĠV ulc
ĠV itam
ĠV iscons
ĠV oe
ess u
ert as
ig il
ig antes
Ġun iuntur
ĠB e
ĠB os
ĠB elli
ĠG ro
Ġsol ae
Ġr arius
Ġtemp lis
Ġint ima
Ġint erea
Ġo ught
ub t
Ġcont ag
Ġw ait
ine o
Ġmod os
Ġsum o
Ġor ationibus
Ġor ationi
Ġinter iore
Ġinter mitt
Ġinter empt
Ġst ory
erat a
erat ionis
Ġdix istis
Ġpat h
ov ic
ad os
ad as
Ġanim ante
Ġar ida
ĠO vid
Ġcre atis
ap sum
Ġleg et
Ġleg untur
Ġfec eram
Ġneque at
Ġ19 3
Ġsp ati
Ġsp reverunt
Ġloc utum
Ġus ed
Ġus ibus
Ġus ura
Ġser ena
Ġsub est
Ġsub ject
Ġpost modum
Ġaud isti
Ġaud itis
Ġaud ientibus
Ġaud ientis
ĠU ne
Ġal ea
Ġinv itis
Ġinv olv
Ġinv olvit
Ġprim itus
ĠĠĠĠ ĠĠĠ
esc ae
Ġann ex
Ġann onae
Ġimp endere
Ġimp letum
Ġag es
Ġsim ult
Ġnatur is
Ġdeb il
Ġgen et
Ġ4 35
Ġas se
Ġas pectum
Ġas criptum
Ġrat her
Ġven ia
Ġven ust
Ġven atione
Ġven enum
dic itur
Ġpraes up
Ġvit ro
Ġput ari
Ġpec us
pe ximus
ĠNon null
Ġcog unt
Ġexp let
Ġrep rehens
Ġ18 2
Ġ18 16
Ġ18 24
Ġ18 88
Ġiudic aretur
Ġei ectum
Ġcur andum
Ġcur rus
Ġamic issimum
Ġdisc at
Ġdisc ut
erc a
Ġeccles iÃ¦
Ġmal am
ĠâĢ ł
Ġdec l
ĠQuid nam
Ġcomp any
Ġcomp rehendi
Ġnot as
Ã¦ orum
ingu et
Ġsua que
Ġtot aliter
Ġcogn ati
Ġcogn atos
Ġsent iret
ĠFranc iam
Ġserv io
Ġserv ate
Ġserv iat
Ġfort itudine
Ġfort itudinis
Ġmol e
Ġgrat i
Ġscrib unt
Ġscrib atur
Ġscrib antur
Ġact ae
Ġit idem
ĠÐ µ
ĠÐ »
ĠÐ Ķ
ĠÐ Ŀ
Ġinf und
Ġviv ant
Ġviv amus
Ġfid ius
Ġplac ed
Ġplac uerunt
Ġcol oribus
Ġins an
Ġins inu
ĠAm on
Ġsign atum
Ġcar us
Ġcar issimi
Ġfr uitur
Ġdef endam
Ġconv ent
Ġlab rum
Ġcred ebat
Ġcred entibus
Ġpraeter ire
Ġnov os
Ġnov issima
ĠJ am
Ġerit que
Ġdoc eo
Ġopp ressa
Ġopt im
Ġvis is
Ġvis ione
Ġneg o
Ġneg avit
Ġred ig
Ġred ux
Ġred iret
Ġred uxit
Ġy mag
Ġdomin am
Ġprincip ii
Ġsumm as
unct i
Ġfug i
enti endum
ĠQuae so
Ġquaer as
Ġpecun iarum
Ġvolunt aria
Ġvolunt ates
Ġext rinsec
ix a
Ġeg ere
Ġeg isse
ĠW hat
ĠW itch
Ġsanct u
Ġimper avit
Ġius si
Ġdilig ebat
Ġduc ebat
Ġnecess itudinis
Ġtest atus
Ġtest atoris
Ġ12 05
Ġcogit avit
ios ae
equ aquam
Ġintelleg untur
ĠAd v
10 4
Ġtab le
Ġbe ar
Ġmut at
Ġmut atum
Ġmut abilem
Ġhum i
Ġvic ino
Ġaccip io
Ġaccip iet
Ġaccip iendum
th en
Ġcognosc endum
Ġcognosc endi
Ġcognosc ente
Ġlong inqu
ĠMar ch
ev it
Ġpet is
Ġpet imus
Ġ15 2
Ġ15 3
ĠEx plic
Ġign otus
Ġmed icus
Ġind ub
Ġiur are
Ġiur avi
Ð¸ Ðº
rah it
ĠPr orsus
Ġpertin entia
Ġpertin ebant
Ġstat uas
ĠUt ae
Ġsen ecta
Ġtim ui
Ġdiscip ulo
Ġfl ux
Ġintellig ens
Ġintellig untur
Ġod or
iant em
Ġwh is
Ġexist it
Ġplur imam
Ġplur imas
Ġpul si
Ġaccus at
Ġpecc averunt
Ġmor b
ãģ £
Ġtrans itum
Ġtrans cur
Ġimm od
ĠK ohl
Ġcup imus
Ġsoc io
Ġdub itatione
ĠOmn ibus
ĠMa x
Ġaequ ius
Ġaequ itatem
Ġaequ alem
ĠTh eb
ver y
ver ed
Ġgrav issima
Ġpon untur
Ġpon eret
ĠGerman ica
Ġadi uro
Ġdon an
Ġdist ance
uerit is
Ġdedit que
Ġepiscop orum
Ġdiff amatus
lo ok
Ġadd uxerunt
Ġcan em
Ġult imis
Ġprod uxi
Ġpraecip itur
Ġpraecip imus
Ġmalum us
Ġscient ibus
Ġeffic iat
Ġaudi atis
Ġaudi endum
Ġunivers os
Ġunivers orum
Ġfer iae
Ġfer ret
Ġantiqu itate
Ð» Ð¸
Ġtrad untur
Ġcond itus
Ġdum modo
ĠquÃ¦ cumque
Ġpossess iones
Ġmir ari
ĠEr as
Ġch ose
Ġinveni atur
Ġfin ito
Ġrespond eat
Ġaetern itatem
Ġaetern itatis
ĠCan is
Ġarbit rum
Ġinstit ui
ĠPh al
ĠPh aris
Ġlae ti
Ġprof ecta
Ġperm ix
Ġscript oris
ĠSc it
ĠSc aevola
Ġprom ittere
ich o
Ġcal li
Ġlect iones
Ġlect ulis
Ġdict am
Ġav eo
ãĥ ĥ
ãĥ ĸ
Ġdil at
ĠChristi anis
Ġ& &
Ġclar issimi
Ð¾Ð ·
Ġrecip itur
Ġadv en
Ġpugn averunt
Ġdelect ationem
ereb am
ĠInt ell
Ġ22 7
Ġterr or
Ġindic asti
ĠNov emb
Ġnob ilitate
Ġnob ilitas
ron i
Ġdim issus
Ġperv eniat
ĠEp ir
eram ur
Ġmitt imus
Ġalien us
Ġ24 0
Ġnim ia
Ġdisput atione
26 5
Ġpass ione
Ġpass ionibus
Ġpass ionum
Ġinim ica
Ġfur to
Ġrog avi
Ġpropos itionem
Ġteneb ros
Ġ194 4
Ġare am
Ġnar raverunt
Ġaff erat
Ġaff lig
ĠLib ri
Ġped est
Ġass ec
Ġ25 3
Ġpuell as
Ġrespondit que
Ġpret ii
Ġlev es
Ġlev ia
Ġsin it
Ġcast itatis
Ġfig uram
Ġscrips imus
ĠVol unt
Ġdivis us
Ġdivis ionis
Ġdivers as
Ġrelin quit
Ġdis ponitur
Ġdis appe
Ġaux ilia
Ġnasc etur
Ġdux erat
Ġrelig io
Ġrelig iosum
Ġvideb unt
Ġarch id
Ġpal p
Ġtut e
Ġaffect iones
fac ta
ĠIp sam
Ġhist oriarum
ĠVid es
Ġmanum itt
Ġcens et
Ġcens ores
Ġhort is
Ġhort aris
Ġarc um
Ġuol upt
Ġordin ata
Ġasper um
amp ion
Ġinde ed
Ġquat tuordecim
Ġsy mb
Ġparent is
Î± ÏĤ
Î± Ïģ
Ġagn itionem
Ġfel t
Ġ197 9
Ġdev enerunt
Ġargum enti
uch ar
Ġgener ali
Ġpauper um
Ġsusc eptum
Ġsusc epi
ĠIoseph i
Ġalb edo
ĠInter dum
ĠÎ º
Ġdistinct um
Ġpraem iis
Ġceleb rata
Ġceleb ratur
Ġtestam enta
Ġfrequ entius
ĠLuc ae
Ġasc endi
Ġtac et
Ġstult e
Ġcetera que
Ġdepos uit
ĠBritann iarum
Ġsempiter nis
Ex c
Ex s
ĠEn och
201 4
à´ ¿
Ġplen ius
ĠIt ane
Ġobl ata
ÐµÐ ±
Ġdorm iunt
Ġdorm ierit
Ġelect ron
ĠVen eris
Ġflum inibus
Ġhabitat io
ĠLut etia
Ġinu enta
Ġinu enire
ĠOr do
Ġ34 0
Ġexcept io
Ġexcept ione
Ġarm enta
Ġfirm iter
old us
Ġconvers o
Ġsolv erit
Ġ185 1
Ġ185 9
Ġapostol o
Ġ195 1
Ġ195 3
Ġbrev ior
Ġbrev itate
Ġsollic itudinem
Ġobserv ari
Ġobserv antia
Ġiucund us
ĠSam u
Ġdelic to
Ġobi ecta
Ġobi ecto
ĠGen av
Ġsomn us
Ġcult ui
Ġcult urae
Ġprohib entur
ipp um
Ġlegit imum
ä¸ Ń
Ġexter os
Ġexter na
Ġedit ionem
Ġsepar ari
Ġadduc tus
Ġindign us
Ġindign atio
Ġindign atione
Ġcondit ae
Ġfall ere
ĠVolupt atum
Ġhabeb imus
Ġjudic io
Ġinterpret antur
ĠXX VII
ravit que
Ġnoli m
Ġinqu ire
ĠMan asse
Ġsustin uit
Ġagnosc it
ĠĠĠĠĠĠĠĠĠĠĠĠĠĠĠĠĠĠĠĠĠĠĠĠĠĠĠĠĠĠĠĠ ĠĠĠĠĠĠĠĠ
Ġaccess erit
Ġtempor alis
Ġcarn aliter
ĠIust ini
Ġoccid erit
Ġoccid entem
Ġoccid ente
Ġabund ant
Ġdamn avit
ĠMet rod
Ġexpet endam
Ġimprob orum
Ġlap ideas
Ġappet ere
Ġappet itus
Ġoppos itionem
ĠÑģ Ð¼
Ġimpl ere
Ġimpl ebuntur
Ġrequir untur
Ġsuav itate
ĠGall is
ĠEuropae a
Ill ud
ĠCont in
ĠCont emnit
200 7
Ġacceper int
Ġpraecept or
Ġcathol icum
Ġdilect ionis
Ġcat egoria
ebo ok
Ġfun eris
Ġrom ano
Ġ190 7
ĠBib liorum
Ġconsist unt
Ġdifficult atem
ĠItal ica
Ġinius ta
ĠLab ore
Ġmagnific a
ĠArch itecto
ĠKal endis
Ġvulg ari
Ġdoct orum
Ġcondem natus
ĠRespon sio
ĠVal ete
Ġaer arium
Ġrevers a
Ġrevers usque
Ġduplic i
Ġtradit io
Ġcit ra
ĠQuot iens
Ġpraestant ius
Ġcontent io
Ġexpugn ata
Ġexpugn averunt
Ġobtin ere
Ġobtin uit
Ġcler icum
Ġelem entis
á½ Ĳ
Ġpasc am
Ġinm orta
ĠMal o
Ġincid am
Ġempt ori
ĠSeptentr ionalis
ĠPhil ist
Al pibus
Ġintro ivit
Ġproduc ta
Ġpud oris
Ġdesin unt
Ġreced endum
Ġdulc is
Ġexcus ationem
Ġexcus atione
Ġdifferentia s
ĠSax oniam
Ġadministrat ione
Ġadministrat ionis
Ġconst are
Ġconst ans
Ġimpos itum
we en
Ġsplend ida
Ġinform ation
Ġabsur d
àµ ģ
Ġscand alo
Ġscand alum
Ġmans erunt
Ġnarrat ionem
ĠBoruss ia
Ġrespic ere
Ġration ali
Ġtrah it
aric are
Ġmedioc riter
IN G
orta vit
Ġinvoc atum
Ġfrum enta
ĠPhara onis
Ġadulter io
Ġperman sit
Ġcontemn ere
ĠCam b
Ġdesid eret
Ġradic em
Ġradic ibus
Ġapt ius
Î· Î½
ĠAv ar
Ġgre x
ĠMus eum
Ġsinist ra
ĠÅ ĺ
Ġopprim i
Ġresid ui
Ġpersec uti
Ġpersec utionem
Ġperturb atio
Ġrescrip serunt
Ġexpos uit
ĠUnivers itas
Ġdevor averunt
ym ph
Ġey e
Ġtard ius
Ġphys icis
ĠSus cipit
Ġcorrum pere
Ġabscond ita
ĠVirg iniae
He u
ĠFal sum
Ġinterc ed
Ġauxili atus
Ġcomplex u
Ġingred ere
ĠConstant in
Ġpulchr itudinem
Ġmathemat ica
Ġinnumer abiles
Ġsubd ita
Ġmedic inam
Ġperegr inus
Ġual de
Ġpropin qua
Ġintern ationalis
Ġfix um
Ġsilv as
Ġconsue verunt
Ġpunct o
ĠAqu ila
ĠElis eus
Ġcaeter a
Ġaccommod atum
Ġfil um
Ġadept i
Ġcommov eri
ĠVenet ia
Ġequit es
ĠFinn ia
Ġextran eum
ĠCras sum
Ġbu ild
Ġannunt iabit
ĠClod ius
Ġstr ong
Ġredempt ionem
Mag ister
Ġcommerc ium
Ġcommerc ii
Ġgrand e
Ġthesa urum
ĠOrdin arii
Ġmeretric is
Car olus
Ġcerv icem
Ġtrin itas
Ġdispens ationem
Ġglorific atus
Ġresurrect ionem
Ġpas ch
Ġlup o
ĠPop ulus
ĠHeli ae
Ġincend io
Ġfidel iter
ĠcÃ¦ lum
Ġremov eri
Ġsucced unt
Ġadp rehend
Ġadp rob
Ġcoha er
Ġcoha erere
ĠNic olaus
ĠXen ocrates
ĠCorp us
Ġincommod a
çĶ Ł
Ġrecognosc ere
ĠÃĨgypt i
Ġdeput antur
Ġmig ravit
Ġinvas erunt
Ġcalum niae
ĠHierem iam
ĠDolab ellam
Ġsacrific et
Ġprist inum
ĠRest atis
Ġdeclina vit
Ġdefl uet
Ġje j
ĠArc es
Ġundev icesimo
Ġpel libus
Ġcari or
Ġappe ar
ĠGer undensi
Ġobnox iae
Ġnuncup atur
Ġpatron atus
Ġtransg ress
Ġdiuers a
Ġinhabit antes
ĠIndic ant
Ġmorta libus
Ġseg reg
Ġdrag onet
ĠPostum i
Ġdissent iunt
ĠAgrip p
ĠDiscip ulus
Ġdiap ason
Ġthron i
ĠHad rum
Ġ$( "
Ġsid erum
Ġstomach o
Ġsuppos itum
Ph one
Ġopen ing
Ġvall e
Ġexprob rare
Ġmiserat iones
Ġtranst ulit
ĠColleg ium
Ġconfort atus
Ġpaul atim
Ġfrang ere
ĠLem ovic
Ġbarbar orum
Ġdifficillim e
Ġcereb rum
Ġoliv ae
Ġdenot atur
Vir temberg
ĠBad eniae
ĠUlix es
Ġelement orum
Ġchem icus
Ġbibliothec am
ĠImp edit
ĠBrunsv icum
Ġseri e
Ġquand oquidem
Ġfol ks
Ġdelet ionum
åĨ ħ
ĠQuaec umque
Ġingem uit
æ° ´
ĠCath ar
ĠArd escae
ĠLugd uni
ĠÚ ¯
Ġprodux erant
ĠClaus ae
Ġconprehend erunt
Ġinpon ebat
Ġconect untur
ĠJeh ova
ĠCarne ade
Ġfoeder ali
ĠFlor idae
Ġtristi que
ĠMah omet
}, {"
ĠPelop onnes
ĠLips iae
equis itus
Ġhorrid iores
Ġhauri endam
rotund imentum
ĠCleopat ra
Ġextin ct
ĠSemp ron
Ġperter r
ĠRoy al
Ġath let
ĠBoeth ius
Ġplebisc ito
ĠCyre na
ĠGede on
Ġeffemin ari
ĠPolem onis
ĠBeniam in
ĠATT ICO
ĠViscons iniae
! '
' +
. âĢľ
5 00
9 6
? ;
A ene
C O
C al
C ast
C DU
E X
E m
F A
H or
H arum
I ON
I oseph
L et
L ud
L ab
L XX
L itter
M t
N omen
N ever
O b
P R
R ec
R ex
S in
S ap
S aepe
T e
U l
V al
V ide
Y our
\ \
a qu
a ug
b ody
c ol
c are
c fr
d g
d on
d ae
d ie
d own
f a
f red
f ecit
f riend
g i
i ar
i ans
i erint
j en
k et
l ot
l ast
m atibus
n et
p ing
p rim
p ice
r icum
s im
s burg
t arum
u ens
u issent
u erimus
u issem
v ed
w ould
x erat
y al
y rum
y pi
z ant
³ åİ¿
Â ¶
Â ¿
Â Ķ
Æ °
È Ļ
Ð ľ
Ð ŀ
á Ģ
å ¯
å ¿
å Ŀ
å Ł
æ ³
æ µ
æ İ
æ Ń
ç µ
ç Ń
è ´
é ĩ
é ĸ
é Ľ
Ġ ulli
Ġ ullius
Ġ Ø±
Ġ Ñį
ġ ġ
Ġe arn
er ari
Ġa ene
Ġa ula
Ġs op
Ġs ina
Ġs eni
Ġs eget
Ġs weet
in it
in ationem
in quit
in oniae
is icing
Ġp in
Ġp ura
Ġp act
Ġp ane
Ġp irat
Ġp hase
at ivam
Ġn ih
Ġn avi
st anc
Ġd eni
Ġd ura
Ġd andum
Ġd Ã©
Ġd abimus
Ġm oris
Ġm uta
Ġm utus
Ġm uri
Ġin r
Ġin el
Ġin lic
Ġin ex
Ġin erm
Ġin ane
Ġin ani
ic ed
ic ibus
ic iat
Ġt aliter
Ġt onus
Ġt echn
ur iae
Ġv n
Ġv ot
Ġv anum
Ġv iii
Ġi erit
Ġi Phone
Ġf ile
Ġf ly
Ġf ood
Ġf erebat
en ius
li i
Ġest ne
Ġh eret
Ġh ole
es us
et am
an ii
an ks
ar as
id at
id ens
id iis
id icus
os oviae
ec umque
ec ce
Ġpr act
Ġpr iorem
Ġpr iu
ol f
ol ita
un ia
un ensis
Ġre ali
Ġad em
Ġad nex
oc i
ud d
ac ius
ac ter
ac ensis
ab i
ab ri
Ġde le
Ġde pic
op ae
ĠE ug
ĠE gone
Ġcon ati
Ġcon fectus
ĠA B
ĠA lli
Ġex it
Ġex ul
Ġex iret
Ġex asper
ĠS r
ĠS ur
ĠS tr
ĠS eth
ĠS ubi
ĠS lav
ĠC ub
ĠC antium
ĠC CC
ĠC ognosc
ĠC yp
ĠC yrus
el t
ag i
ag ain
ĠD ia
ĠD edit
ĠD ani
ĠD ial
ĠD ivis
Ġme et
Ġb it
Ġb ad
Ġb rum
Ġb lin
Ġb lo
Ġb row
Ġb odies
Ġqui pp
Ġdic eremus
Ġper re
Ġper peram
ore t
Ġfac etiae
ĠP erc
ĠP erm
Ġg ermin
ect am
ĠQu um
ĠQu alis
ili anus
ili ensis
Ġsed eat
Ġsed eant
no st
per ed
Ġco hib
Ġco acti
Ġco vered
omin um
ir is
Ġen it
ĠN ut
ĠN oc
ens imum
Ġhab eretur
Ġhab ebatur
Ġhab itudinem
Ġhab ebantur
Ġsc iatur
uc e
ĠM ol
ĠM ari
ĠM undum
ĠM ann
ĠM ox
ĠM old
ĠM emini
eb itis
Ġcom ite
Ġcom ponere
Ġcom fort
Ġ2 14
Ġ2 15
Ġ2 17
Ġ2 22
Ġap pon
Ġse a
ort e
Ġver sum
Ġquo usque
ina li
Ġposs edit
Ġposs ide
Ġu entum
Ġu iri
Ġab j
Ġab esse
Ġab esset
av es
av as
Ġvid issent
ell es
ĠL ot
ĠL ist
ĠL az
ĠH ec
ĠH il
ĠH uc
ĠH ols
Ġvel ox
Ġid us
Ġid eae
Ġer ratum
Ġer gone
ĠR ot
ĠR ap
Ġam bi
Ġam icae
Ġam ores
Ġam az
Ġam abilia
Ġam ittere
ĠT i
ĠT itus
ĠT rad
ĠT attoo
ult am
ĠF er
ĠF am
ĠF ig
ĠF ris
Ġpag inarum
Ġpar ibus
Ġinc ept
Ġvol ent
Ġpl u
Ġcons im
Ġcons ob
Ġcons ign
Ġcons angu
ĠV end
ĠV obis
ĠV ulg
ĠV eritas
Ġim ponere
Ġnec ne
ert atem
ari z
ust i
ig oth
ĠB ra
ĠB ay
ĠB rev
ĠG ens
ĠG rec
Ġr ite
Ġr uf
Ġr asa
Ġint ol
Ġint raverunt
Ġint uitu
Ġprop ugn
Ġcomm ota
Ġmod ice
âĢ ŀ
Ġor ae
Ġor amus
Ġfu erimus
Ġst ag
Ġst ric
Ġst antes
Ġres pectum
erat um
Ġsec utae
Ġdix issem
ri ll
Ġpat eretur
Ġpat iantur
int on
ad s
ad am
oqu i
Ġreg iam
Ġreg inam
Ġanim Ã¦
Ġar as
Ġar ce
Ġ3 01
Ġ3 19
Ġ3 50
Ġ3 26
Ġmin ui
Ġmin uta
Ġmin utis
ĠO ratio
Ġcor onam
Ġcre antur
Ġleg as
Ġleg atur
Ġleg endum
Ġleg amus
Ġleg ationem
ate ur
Ġnost re
issim eque
Ġ19 2
Ġ19 15
abul o
Ġsp ace
Ġerat que
Ġloqu emur
Ġnum eris
Ġnum mus
Ġman ent
Ġaud ent
ĠU no
ĠU tique
Ġmort es
Ġcaus idicus
Ġal c
Ġal as
Ġob c
Ġob tem
Ġob ru
Ġob sign
Ġob ject
Ġinv itum
Ġinv idere
pon d
Ġann ot
Ġimp ro
Ġimp udic
ch es
Ġdeb erent
aud i
aud eo
Ġac errim
Ġrat ioc
Ġven und
Ġpraes ide
Ġput anda
Ġput aram
Ġvoc ans
Ġtr op
Ġtr ag
Ġtr ucid
ire ct
Ġcog i
Ġcog at
Ġcog itate
Ġsuper f
Ġsuper ab
Ġsuper iores
Ġsuper emin
Ġhabet o
Ġsan itas
Ġsan itatem
Ġexp ecta
Ġexp ensi
Ġexp ensum
Ġexp ectare
Ġrep res
Ġcap io
Ġcap ill
ux erit
Ġ18 1
Ġ18 21
Ġ18 40
Ġiudic atur
Ġiudic atus
Ġcur s
Ġcur abo
Ġamic issimi
Ġdisc unt
Ġdisc itur
ali i
Ġmal ev
Ġnomin ant
Ġdec ided
Ġded isset
Ġcomp ens
Ġnot io
Ġnot ionem
Ġnot ione
Ġdes ili
Ġsua pte
Ġtot i
Ġtot iens
ret is
ĠFranc icis
Ġserv a
Ġserv atur
Ġserv ivit
Ġconc in
Ġlit ora
Ġscrib es
Ġconf lig
Ġcl avis
ĠÐ ĵ
ĠÐ ĺ
Ġiust am
Ġel ectum
Ġinf antia
Ġviv ebat
Ġplac ebit
Ġpraec ise
Ġcol ores
Ġins picere
Ġquos libet
ĠAm icus
Ġcar issime
Ġcar ried
Ġten eo
Ġten ui
Ġten uerunt
Ġdef ensio
Ġdef erre
Ġcred is
Ġcred amus
Ġcred erem
Ġpraeter g
Ġj uris
ĠJ erem
Ġfi eres
Ġexc er
Ġprov eniunt
Ġdoc eri
Ġdoc endum
Ġdoc uerit
Ġconsequ entibus
Ġcirc uitum
Ġprob aret
Ġrespon sa
Ġred de
Ġred dam
rav erit
Ġgl ut
Ġcert ae
Ġcert issime
Ġcontra xit
Ġfactum que
Ġadh ae
Ġux orum
Ġux oribus
Ġquaer endo
Ġext at
ix erit
ĠW IZ
Ġimper are
Ġimper atum
Ġmund itiam
pic ius
Ġnecess arius
ulis que
Ġtest e
vers us
Ġ12 18
Ġabs entibus
ord ia
Ġdign am
Ġfaci endo
Ġfam osi
Ġrei ectus
Ġexerc uit
Ġsens ibilia
ĠEccles ias
Ġmut etur
Ġmut antur
Ġmut ua
Ġvic is
Ġvic iss
Ġcognosc amus
Ġlong er
Ġlong itudinem
Ġ17 4
Ġ15 6
Ġign otum
Ġmed iam
Ġind ur
Ġmaior que
Ġcet ero
Ġstud ios
Ġsup remum
Ġverum tamen
Ġfor san
Ġher self
ĠPr ag
Ġpertin eret
ĠUn ione
ĠUn igeniti
Ġbell is
Ġbell orum
Ġtim ent
Ġtim idus
ath ena
Ġdiscip ula
Ġem in
Ġem erit
Ġem erat
Ġem ail
oll a
Ġintellig at
Ġintellig ibilis
Ġtant as
Ġtant undem
Ġpropr ius
Ġmens ium
iant ibus
Ġfact iones
Ġlat ent
Ġpraedic ere
Ġpraedic andum
Ġpraedic ans
Ġpraedic tis
Ġpraedic tae
Ġaccus et
Ġaccus atorem
Ġk ik
Ġrex it
Ġspec ul
Ġspec ific
Ġimm ane
ĠOmn ino
Ġoper or
ĠCiv itas
ĠTh ec
Ñģ Ð¿
Ġauct oris
Ġaedific abis
Ġadi ectum
Ġdon ate
ĠSic y
Ġmov ed
Ġmov eret
Ġregn ante
Ã© r
Ã© runt
Ġdiff usa
ĠZ ach
ĠZ Ã¡
Ġadd idit
Ġsing illatim
Ġexs ilio
ung ar
Ġcan itur
Ġluc os
Ġli qu
Ġult imus
Ġnoc eret
13 4
Ġmil f
Ġmil itiam
Ġperfect am
Ġpraecip ere
In c
Ġcontr itum
Ġcontr actus
ĠPl ur
ĠPl ura
ĠPl ures
Ġeffic iatur
Ġtrib ui
Ġtrib uitur
Ġaudi erat
Ġaudi rem
Ġfer as
Ġtrad uc
Ġcond iscip
Ġpossess or
ĠReg io
Ġch ir
lis ip
Ġinveni et
Ġinveni ret
Ġinveni etis
Ġed oc
Ġpostea quam
Ġmot a
Ġobs ol
Ġpulch ram
Ġpulch rius
Ġrespond etur
Ġrespond ebo
Ġnol it
Ġnol uerunt
Ġmiser ias
Ġarbit ram
Ġarbit retur
ĠÃ ¡
ĠÃ İ
Ġinstit uere
Ġref erunt
Ġref ers
Ġref ug
Ġscire nt
Ġredd eret
Ġbre uiter
Ġbib entes
Ġscript ae
Ġcogitat ionis
Ġpraest a
Ġpraest ol
Ġpraest ari
Ġpraest aret
Ġdiss on
Ġalic ujus
ĠSc ient
Ġhuman issimi
Ġdep rehens
Ġveniam us
Ġav ailable
Ġ20 5
ãĥ Ī
ĠCur io
Ġsept im
ĠChristi anos
Ġdiu inae
Ġclar issima
Ð¾Ð ¿
Ġrecip iant
Ġadv enae
Ġhost iae
Ġsimil itudines
ress ing
Ġlo quamini
Ġdelect amur
Ġiuris dictio
ĠSt atu
Ġincip iebat
ereb antur
Ġreper iantur
Ġ22 5
Ġpauc ae
ĠCar olo
Ġindic e
ĠNov ember
Ġ23 5
Ġaccid erat
Ġaccid isset
Ġperv ertere
Ġuid eat
Ġsucc urrit
ĠAs li
Ġport ione
Ġmitt e
Ġpriv ato
Ġdisput at
Ġinim ico
Ġpraed itus
ãĤ ģ
ãĤ Ĭ
ãĤ Į
Ġteneb antur
Ġperd uxit
Ġmori eris
Ġ26 0
Ġ26 8
Ġaff erre
ĠLib ro
Ġini ung
Ġiac tus
Ġeu enire
ĠSept ember
Ġlev iter
Ġ28 4
Ġextra ordin
Ġambul as
Ġconiunct us
Ġhor re
Ġads ent
Ġdis ert
Ġvers ari
Ġdux isse
Ġcompos itis
Ġjust ific
Ġexspect atio
Ġvideb amus
Ġ30 8
usc ulum
Ġoff eruntur
Ġmanifest i
Ġmanifest atum
Ġadhib et
Ġadhib entur
Ġadhib endam
Ġignor abant
Ġhabuit que
Ñĥ Ñİ
Ġrel ationes
Ġrel ativa
Ġcircum ven
Î¿ Ïħ
Ġsimplic itate
Ġordin ibus
Ġcompar atio
Ġmilit arem
Ġconsum ps
Ġturp issimum
Ġnat am
Ġ197 0
Ġconting ebant
ĠMed iae
Ġcustod ite
Ġvix erunt
Ġaestim andum
Ġvac abit
Ġexper ientia
Ġsalv abor
Ġcomed isti
Ġconced am
Ġpraesid ii
ĠÎ ³
ĠÎ ļ
ose um
Ġostend atur
Ġostend imus
Ġostend eret
Ġamb orum
ĠFac tum
Ġstult i
ĠBritann iam
Ġir rog
Ġbenefic iis
à´ ¨
Ġ198 5
Ġobl ita
Ġobl iti
Ġgenerat ionis
Ġquad ring
Ġ36 5
Ġalt ior
ĠImper io
Ġpros picere
Ġsuffic iunt
Ġsuffic iens
Ġsuffic ientiam
Ġcompl etur
Ġcompl acui
Ġrelinqu eret
Ġot ii
Ġot iosum
Ġtoll erem
Ġoccup averunt
ĠArist o
Ġprud enter
Ġconsider ari
Ġconsider emus
ĠAng elus
ĠMin ima
ĠMin erv
Ġarm ati
Ġarm iger
Ġcredit is
Ġcredit or
Ġdioeces ano
Ġclam ant
Ġclam are
Ġextrem is
Ġoperat a
Ġoperat ionis
ĠAtt icus
Ġconcess is
ÏĦ Îµ
Ġdelic iae
ĠAcc edit
Ġparticip ationem
Ġsuspic atus
Ġsuspic iones
Ġort h
Ġprohib eret
Ġrevert atur
circ a
ĠPol emo
ĠPol oniae
ä¸ »
ä¸ Ģ
Ġexter n
Ġexter no
Ġdeduc entur
Ġrecord atus
Ġsepar ata
At t
Ġconsc ius
Ġadduc i
Ġ186 1
Ġ186 9
Ġtribun um
Ġz odia
Ġcondit ionem
Ġcondit ione
Ġaccept am
Ġorn ate
Ġduod enique
Ġconfic ere
Ġconfic ior
Ġhabeb itur
Ġmemin eris
Ġmemb rorum
Ġmont is
Ġoccas um
Ġpraepos itus
Ġvocatur que
Ġretin et
Ġretin etur
Ġdig iti
Ġoccult o
ĠProp e
Ġsci res
Ġinqu iet
Ġuoc ibus
ĠFeb r
Ġ187 3
Ġcern it
Ġoblig ari
Ġcolleg ii
Ïĥ ÏĥÎ±
Ã³ m
Ġcarn es
Ġdissim ulare
Ġconvert ere
Ġdamn ationem
Ġgreg is
Ġgreg ibus
Ġexpet it
Ġadulesc ent
Ġadulesc entiam
Ġappet itum
led ge
ĠSy me
Ġ189 0
Ġprot inus
Ġoccurr eret
Ġhuc usque
Ġeduc ationem
Ġeduc ationis
Ġexhib endum
ĠGall os
Ġå ¤
Ġå ¹
Ġconstant ia
Ġcongreg avit
Ġcongreg abo
Ġany thing
omet imes
ĠPic tav
ĠTro i
ĠTro iae
Ġpleb em
Ġpraecept o
Ġcathol icam
Ġfab er
ĠSum mus
Ġingeni is
ĠAlb ertus
Ġconven iri
pat er
Ġdefic ere
ĠRep lac
Ġ190 3
Ġ190 6
Ġ190 9
Ġsort em
ĠBib ulo
Ġpoet am
Ġpict ure
Ġmend icus
Ġcub ili
Ġcub itum
Ġdifficult as
Ġinp une
ĠLab orum
ĠAmeric ana
Ġinsign ia
Ġerud itus
Ġerud iti
ĠMaxim i
Ãª runt
Ġorig inis
Ġinfirm um
ï¼ Ī
ï¼ ī
Ġpraeclar us
Ġpess imo
Ġgra u
ĠJes um
Ġingredi eris
Ġec quid
Ġplant ae
Ġfrig id
Ġtradit is
Ġtradit ionem
ĠLingu am
Ġsanctific ata
ĠBel t
Ġresist o
Ġnou a
Franc iscus
Ġsta dia
Ġcav endum
Ġcav ern
Ġexprim it
Ġobliv io
Ġtransl ationem
Ġpasc unt
ĠSyr us
ĠMal um
Ġexst ingu
Ġdomest icum
XXX III
Ġreced ant
ĠÐ¸ Ð·
Ġfelic itate
Ġpun iatur
Ġintellex it
yri e
ĠAustr iac
ment s
ĠSac ra
ĠSac ri
Ġgign itur
ĠHeb domad
Ġcommut are
hn ess
ĠAem iliae
Ġgrammat icae
Ġgrammat icus
Ġnumer ari
Ġger endum
Ð¾ÑĤ ÑĢ
Prae sent
Ġmo en
ĠDom us
Ġconcord ia
Ġprocur atorem
Ġsacram ento
Ġnarrat ur
Ġ179 7
Ġdescrip tio
Ġdesiderat i
Ġcrudel itatem
Ġcave atur
Ġmiseri or
Ġmedioc ris
Ġoppugn andum
Ġsubsist it
Ġumb il
Ġfrum enti
Ġru ina
Ġfamiliar itate
Ġrevel abis
Ġaffic i
Ġpiet atis
Ġna utae
Ġcommitt i
Ġpraesum pt
Ġchristi ana
Ġchristi ani
Ġcontemn enda
Ġmall et
ĠGuliel mo
Ġcomment ariis
Ġdefens ionem
Ġdefens ione
Ð¾Ð¼ Ñĥ
Ġnarr abo
urp ris
Ġpropinqu us
Ġaudac ia
Ġaure am
Ġpign ori
ĠCant ab
Ġuide antur
Ġconson antia
ĠVis igoth
Ġcorpora libus
Ġfals ae
Com m
ĠCel torum
ĠÐ´ ÐµÐ²
Ġproduct Variants
Ġtang i
Ġtang et
ĠEbor aco
Ġwor ld
Ġcolor atum
ĠPhili ppi
Ġcorrig ere
ĠVic inoniae
Ġterm ini
lav iae
Ġvar ias
Ġerip i
Ġinvestig atio
Ġdesert ae
Ġsatisfac ere
Ġtransf re
Ġcontumeli a
Ġcontumeli ae
Ġparoec ia
Ġvine ae
Ġinnumer abilibus
Ġexpon am
Ġperdit orum
Ġhead s
ĠEvangeli i
Ġgraec i
ĠInd ia
ĠInd iae
Ġartic ulus
Ġperegr ini
Ġpraevaric atus
Ġabb ati
Ġprol ong
Ġredit u
ĠTub ulo
Ġgess erunt
Ġseem s
Ġabomin ationibus
Ġadiung it
Ġadiung atur
Ġosc ulum
Ġeunt ibus
Ġinfer entem
Ġexcog it
Ġexcog itavit
Ġtransfer ri
Ġrett ulerunt
ĠAntioch us
ĠPhilipp o
Ġbu y
Ġpraetere o
Ġregim inis
Ġdeprec ationem
Ġaegrot um
ĠPhilosoph us
ĠGab a
æĹ ¶
Ġverec unde
Ġsecret o
Ġhaeret ici
Ġtet ig
Ġacquir itur
ĠCass ium
Ġresurrect ione
Ġcathed rali
Ġabst ulit
con f
Ġconj ug
Ġfidel em
Ġacquis itum
Ġconfite ar
Ġsusp ir
ĠCorne lio
Ġdaemon ium
Ġmit ig
Ġceler itatem
ĠCalifor nia
ĠLoc utus
ĠLitter ae
Ġvideam ini
ĠTol le
Ġmodest e
ĠĠĠĠĠĠĠĠĠĠĠĠ ĠĠĠ
ĠChrys ippum
ĠDolorem que
ww w
Ġteg enda
ĠCain an
Ġconiur atio
Ġmonaster ium
Ġterritor ium
Ġpress uram
Ġpotu issent
Ġincho avit
Ġmediae v
Ġincorrupt ibile
Ġcith ar
Ġhapp ened
Ġconfec isse
"\"\"\"\"\"\"\"\"\"\"\"\"\"\"\"\"\"\"\"\"\"\"\"\"\"\"\"\"\"\"\"\"\"\"\"\"\"\"\"\"\"\"\"\"\"\"\"\"\"\"\"\"\"\"\"\"\"\"\"\"\"\"\"\ "\"\"\"\"\"\"\"\"\"\"\"\"\"\"\"\"\"\"\"\"\"\"\"\"\"\"\"\"\"\"\"\"\"\"\"\"\"\"\"\"\"\"\"\"\"\"\"\"\"\"\"\"\"\"\"\"\"\"\"\"\"\"\"\
Inter rog
Cont ainer
Ġseg n
Ġpra erog
Ġpraedest inati
Ġsabb ati
Ġinha er
ĠRosc ium
ĠFin landia
ĠpoÃ« ta
ĠAccus amus
Ġconfect ae
ĠSm yr
Ġcommin isc
Ġreplet i
Ġreplet us
Ġproverb ium
å¹ ´
acc ess
ĠSina i
ĠPub li
Ġpraeterm issum
Ð¾Ð³ Ð¾
Ġsess io
Ġpervers ius
ĠPecun iam
Ġconduc ere
Ġcancell arius
eng th
ĠPart s
ãģ¾ ãģĻ
Ġimbec ill
ĠReliqu um
Sec undum
Ġax is
Ġcurios orum
Ġclem entiae
Ġcolumb arum
Ġavunc ulus
Ġsyllogis mus
Ġpug no
Ġnoll em
Ġreverter etur
ĠHisp ani
ĠTheodisc ae
ĠAcha ia
Ġgymnas io
Ġgymnas ium
Ġdit avi
ĠRuf us
Ġstop ped
Ġremans erunt
Ġadha er
fi eld
Ġclim b
ĠMediol ani
ĠNeap oli
Ġreb ell
Ġnuc es
ĠMard oc
ĠFerdin andus
Ġtyp ograph
ĠMalmog ia
Ġpersev erent
ÑĨÐ¸ Ð¸
Ġfreg it
Ġexord ium
ĠLup us
ĠTul liae
åĽ ½
Ġdraw ing
Ġrequis itus
Ġplat form
ĠQuaest io
Ġmerid ionali
ĠGalilae am
prehens ibilia
Ġhar mon
Ġexequ iae
ĠMeli or
ĠHug son
Ġincont entae
Ġsuperfl uum
Ġquadr up
Serv i
Ġeici endum
Ġnup sit
Ġves pere
ĠLater ensis
ĠPhry g
ĠâĪ Ļ
ĠMesopotam iam
Mort ui
pret atio
ĠDed ic
Ġcook ies
ĠVerb o
Ġreminisc or
Ġmurm ur
pig let
Ġausc ulta
Ġnund inae
ĠQuoc irca
Ġatram ento
Ġlabefac tare
ĠProd est
ĠCalend ario
Ġlantern s
à¥ ĭ
Ġinnit itur
ĠAra uris
ĠSurg e
ĠExpect oque
Ġretex ueris
Ġdulced inem
Oper a
Ġadprop inqu
ĠBU CH
Ġjour ney
Ġiuriscons ultus
ĠAristox eni
Ġdigest orum
Ġperdidic eriti
Ġtenebros um
ĠSamu hel
Ġ$(" #
Ġsina pis
Ġnih ili
Ġquipp iam
ĠWIZ ARD
ĠReplac ement
! Â»
( "
0 3
1 10
> </
A lex
B r
B as
B Ã©
B onum
C uius
C oll
C upid
D es
D uo
D iscip
E G
E O
E d
E os
E odem
F am
G l
H i
I L
I gn
I uli
I gitur
I mp
L ae
L ire
M A
N ow
O pp
P G
P ol
P hil
P ropter
S equ
T ub
T amen
U G
V ery
X III
] ;
a urum
b re
b unt
b ack
c re
c ar
d s
d oc
d el
d le
d ownload
e ed
e are
f ree
g reen
h ae
h ar
i j
k on
l v
l ad
l ittle
l ength
m s
m ed
n h
n u
n isi
n si
n ote
o em
o ff
p um
p ub
p heus
r one
r oll
s crip
t w
t emp
t iles
u rem
u ff
u hn
v ia
v as
v entum
v ÄĽ
w ho
z ed
| |
° Ø´
È Ľ
Ë Ĳ
Ð ĺ
Ð Ŀ
Ø °Ø´
Ù ĥ
à ª
à ¬
æ Ħ
æ Į
æ ķ
ç ľ
è ¦
è ¯
è ĭ
é Ĥ
é Ŀ
ĉ ĉ
Ġ ..
Ġ ict
Ġ iturum
Ġ Ñħ
Ġ ÏĦÎ¿
ļ nor
Ġe ar
Ġe amus
Ġe quest
Ġe ither
qu ick
um bit
er avit
Ġa vi
Ġa ulae
Ġs erunt
Ġs urpris
in itas
in di
it et
it al
it anice
us um
us eb
Ġqu erim
Ġp ingu
Ġp urum
Ġp ensum
Ġc s
Ġc ass
Ġc enter
Ġc ena
Ġc oming
Ġn u
Ġn od
Ġn anc
Ġn ave
Ġn ationum
ae orum
st on
Ġd r
Ġd ent
Ġd oli
Ġm ae
Ġm im
Ġm ih
Ġm outh
Ġin hib
Ġin fectum
Ġin access
em et
ic c
ic ii
Ġt om
Ġt ris
ur go
Ġv a
Ġv in
Ġv ap
Ġv ii
Ġv ento
Ġv illae
Ġv oto
ut ius
ut atio
ut ioni
ut orium
Ġi ret
Ġi rent
Ġf ist
Ġf ata
Ġf rem
Ġf ire
Ġf ores
Ġf ram
Ġf icus
Ġf anum
Ġf eruntur
Ġf light
Ġf icul
Ġf eatures
en ne
li e
li ke
om es
Ġh ot
Ġh aus
Ġh arm
Ġh ours
Ġh arness
es um
unt ing
an ov
an ea
ar im
ar ta
ar int
id ibus
os sa
ec erim
ul f
ul y
ul aria
ent iorem
Ġpr and
Ġpr ioris
ia h
ib a
ib ia
ol em
un it
Ġre stant
Ġre ach
Ġl u
Ġl am
Ġl ana
Ġad de
se at
se en
Ġquod si
ac is
Ġut ere
Ġut ens
Ġut ram
Ġut erentur
Ġut ebantur
Ġut emur
as h
ion a
Ġquae nam
ere unt
ot ting
Ġde ad
Ġde ath
op ad
il aus
il ty
ant iqu
ĠI is
ĠI ob
Ġan hel
Ġsu ffectus
ĠE ST
ĠA L
ĠA u
ĠA us
ĠA si
Ġex ult
Ġex sequi
Ġex struc
al ing
ĠS ant
ĠS irm
ĠS urre
ĠC rim
ĠC up
ĠC ann
ĠC olis
ĠC ON
el lia
ag en
ĠD A
ĠD at
ĠD im
Ġme g
Ġdi oc
Ġb c
Ġb ab
Ġb ra
Ġb ox
Ġb racch
Ġqui es
Ġqui eta
est e
Ġdic enti
Ġali menta
Qu os
ip es
ter it
Ġprae erat
Ġprae nunt
ra xerunt
ĠP S
ĠP i
ĠP ob
ĠP lease
Ġg n
Ġg eograph
itur ae
ist e
ob ile
ĠQu ote
Ġsed iti
Ġsed ebunt
Ġco al
Ġco limus
ir am
ir or
Ġen c
Ġen g
ĠN ota
ĠN ah
ĠN orth
ens que
Ġhab eres
Ġhab iturum
Ġhab uerint
Ġtu li
eg ner
eg anter
Ġsc at
Ġsc ivit
iv ere
uc ium
ĠM A
ĠM ae
ĠM ent
ĠM ov
ĠM ons
ĠM AN
ĠM CCCC
und urus
Ġpot um
Ġpot entior
gn y
Ġcom itibus
Ġ2 19
Ġse io
and s
Ġ( "
pt us
Ġetiam ne
Ġu an
Ġab err
Ġab usus
Ġab eced
Ġvid erer
ĠL ion
ĠL ith
ĠL oca
ĠL iturg
ĠL eden
ĠL incoln
ĠH ig
ĠH all
Ġop tare
Ġop ifex
Ġer cisc
ĠR E
ĠR ic
ĠR od
ĠR ip
ĠR he
Ġam ov
Ġam ong
Ġat ria
ĠDe v
ĠDe pos
ĠT el
ĠT eg
ĠT otam
ĠF re
ĠF ul
ĠF ere
ĠF est
ĠF av
ĠF all
Ġanno unc
Ġpro ident
Ġpro lix
Ġpag o
Ġpag um
ing at
Ġpar ric
Ġte p
Ġte ipsum
Ġcu rem
Ġinc ons
Ġinc ensa
Ġaliqu ip
Ġvol entes
Ġvol ebant
Ġvol uerint
Ġcons ect
Ġcons ulis
Ġcons uerunt
Ġcons olid
ĠV es
ĠV as
ĠV erc
ĠV asc
ĠV ER
Ġim itatio
ro e
ro y
Ġqua ere
Ġma ii
ert y
ert itur
Ġun icus
Ġun ivoce
ĠB i
ĠB aet
ĠB ÅĻ
ĠB revi
ĠG ris
ĠG oth
ĠG rad
ĠG nae
Ġsol iti
Ġsol utio
Ġtemp ori
Ġint ulit
Ġint uitus
Ġo vis
Ġprop ior
Ġprop ero
Ġprop itium
Ġcont ulerunt
Ġw ww
Ġcomm eat
Ġcomm issis
âĢ į
Ġor di
Ġor atorum
Ġfili arum
Ġst olis
Ġres pici
Ġlib ellis
Ġsec urus
Ġsic que
Ġpat ebit
ad or
ad io
ran ea
Ġanim antia
Ġ3 10
Ġ3 20
Ġmin imis
eni x
ĠO lisip
Ġcor ne
Ġcre m
Ġcre ari
Ġleg erunt
Ġleg entibus
ate or
uli er
uli ae
Ġfec eras
ĠIn noc
de us
Ġ19 31
Ġsp o
Ġsp iss
Ġsp ars
Ġsp atii
Ġus itata
Ġnum en
Ġsub ici
Ġsub acta
Ġsub stanc
Ġpost remus
Ġob d
ator ium
Ġinv isit
Ġinv ictus
Ġinv ectio
Ġprim itiae
pon ius
ĠSed i
Ġquibus libet
Ġdu e
Ġimp ium
Ġimp ugn
Ġimp ressa
Ġimp raes
ĠAn n
ĠAn ni
Ġag erem
Ġag entis
Ġag ebatur
Ġag ros
Ġag reed
ch is
Ġnatur arum
ug no
Ġdeb uerit
Ġdeb ebam
Ġdeb ebatur
Ġdeb itor
Ġdeb ebitur
Ġhis p
Ġgen u
Ġgen eri
Ġgen itum
Ġgen ui
Ġgen imine
Ġac uta
Ġas pexit
Ġven alem
Ġput abis
Ġvoc i
Ġvoc avi
Ġvoc abitur
Ġvoc abuli
Ġtr am
Ġtr acta
Ġtr iduum
Ġurb anis
Ġpec orum
Ġrem is
Ġrem ove
Ġcog antur
Ġrerum que
Ġsuper at
Ġsuper iora
ĠÂ Ĺ
Ġexp ecto
Ġexp ressa
Ġexp ressum
Ġrep ort
Ġrep rehendi
Ġrep entina
Ġcap iuntur
Ġ18 3
Ġ18 19
Ġiudic andum
Ġcur is
Ġciv ilem
Ġamic ti
Ġdiv isi
Ġdiv ortium
ali m
Ġdec ursus
he im
Ġnot iced
sequ atur
Ġdes erat
Ġcogn ito
Ġsent iamus
ĠFranc is
ĠFranc icam
Ġserv avi
Ġserv itio
ont a
Ġconc epta
Ġconc urrent
Ġeos que
Ġrec e
Ġrec on
Ġmol li
Ġgrat us
Ġscrib a
Ġact orum
Ġact uum
ori atur
Ġusque quo
Ġcl ose
ĠCh a
ĠCh in
ĠCh iliae
ve h
Ġpublic anis
ĠÐ ĳ
ĠÐ ł
Ġel eph
Ġinf antibus
Ġinf lu
Ġviv e
Ġviv am
Ġviv es
Ġviv entes
Ġfid enter
Ġplac es
Ġplac eo
Ġcol oris
Ġcol lum
Ġsequ ere
Ġins er
Ġins pect
Ġins aniam
Ġfr ight
Ġfr actum
Ġten endum
Ġten emus
Ġten ue
Ġten eretur
Ġmis isse
Ġdef uisse
Ġcred eret
Ġcred enda
ĠJ anu
Ġep ic
Ġep hem
Ġsap it
Ġexc epit
Ġexc epta
Ġdoc to
Ġdoc uerunt
Ġconsequ entia
Ġdel ub
Ġdel atum
Ġdel inqu
Ġdel ectare
Ġvis urus
Ġprob etur
Ġprob itatem
Ġprob abilis
Ġrespon demus
Ġmolest iam
Ġy a
ĠLat inarum
Ġcae dem
Ġform ali
Ġform ale
Ġgl oss
Ġprincip e
Ġvest rorum
unct ae
iet as
iti orum
iti Ã¦
ard um
Ġnesc iat
Ġquaer endi
Ġquaer entes
Ġext ant
Ġeg eat
Ġeg red
Ġeg issent
Ġeg omet
ĠW ith
Ġsanct issimo
Ġduc i
Ġduc is
Ġduc et
Ġnecess itudinem
Ġval ebit
Ġtest atur
Ġsus pect
Ġabs entis
Ġintelleg amus
Ġsatis d
Ġexerc itio
Ġexerc itium
10 7
ĠEccles iis
ĠEccles iarum
Ġmut atus
Ġhum um
Ġhum ilis
Ġhum ilitate
Ġvic ta
Ġvic imus
Ġvic ini
Ġbeat itudinem
Ġcognosc e
Ġcognosc unt
Ġcognosc ite
Ġlong itudo
ĠMar s
ĠMar ius
Ġord ini
Ġ17 1
Ġ17 8
Ġ17 05
Ġreliqu isset
Ġpet itis
Ġpet iit
Ġ15 1
ĠEx onae
Ġind utiae
Ġaed ilibus
Ġappell abatur
Ġiur atum
Ġiur andum
Ġiur amentum
Ġstud ent
Ð¸ ÑĢ
Ġveni endum
Ġveni endo
rah ere
ĠCum undurus
Ġtui que
ĠCon d
Ġconstit it
Ġsen escit
Ġibi que
Ġtim orem
Ġtim ide
Ġtim eatur
Ġem p
Ġem is
Ġem ori
ĠCae lium
Ġintellig entiam
Ġintellig entiis
Ġtant arum
Ġtant opere
Ġmens us
iant es
enta libus
Ġpul vis
Ġlat ae
Ġlat ius
Ġlat inum
Ġpraedic tum
Ġpraedic atio
Ġpraedic ationem
Ġaccus atoribus
Ġmuli erc
Ġk n
Ġpecc ator
Ġadm ittere
Ġ16 7
ãģ ı
Ġspec ulat
Ġspec iebus
Ġtrans ig
ĠK osoviae
ĠK vÄĽ
Ġsignific ent
Ġsoc i
Ġsoc ial
ĠAb bat
ĠAb ba
ĠPat av
ĠPat res
ĠOmn i
ĠOmn em
Ġrect o
ĠMa i
ĠMa ior
Ġaequ itatis
ĠTh ars
ver im
Ġon era
Ġgrav itas
Ġsimul atione
Ġaedific abitis
Ġpon s
ach i
ach us
ĠGerman ice
Ġquant itatis
ĠSic uli
Ġdist incta
Ġepiscop is
Ġcontin ere
Ġdiff erat
crip to
lo yd
ĠZ elph
ider ant
ĠIo atham
Ġadd et
Ġsing ulus
Ġult imam
13 5
Ġpor rig
Ġperfect o
Ġpraecip i
Ġquaest ores
ĠPl ut
Ġeffic iam
Ġaudi atur
Ġunivers am
Ġfer rum
Ġfer amus
Ġfer enda
Ġpac ifice
Ġantiqu issima
Ġadvers aria
Ġadvers ario
Ġtrad o
Ġtrad id
15 3
Ġmon ere
Ġmon uit
Ġmir ific
Ġmir abuntur
Ġmir abili
Ġmir acula
Ġmir abiliter
Ġinveni retur
Ġed itum
Ġed untur
Ġed uxerunt
Ġmand are
Ġmand ati
Ġfin itas
Ġeas ily
Ġart iculum
Ġaetern ae
Ġsecund is
Ġarbit rii
Ġspir itibus
ĠÃ ®
ĠÃ ļnor
Ġimag inis
Ġreprehend at
Ġcoll ect
Ġredd unt
Ġredd atur
Ġredd ita
Ġprof eruntur
.... .....
Ġscript uram
Ġgaud eat
Ġprofect ae
uetud ine
ĠAli is
ĠSc iebat
ĠSc ientiam
ĠSc yth
Ġprom ulg
Ġprom issa
Ġatt igit
eh em
Ġcal end
Ġlect ione
Ġdep lor
ĠThe olog
Ġdict atura
Ġcop iose
Ġerr oris
Ġav us
Ġ20 3
Ġ20 6
ĠAegypt ios
ãĥ ĩ
Ġsept aginta
Ġdei ectum
Ġexistim atione
Ġexistim avi
Ġclar itatis
Ġclar issimum
ros oft
Ġadv eniens
Ġhost ili
Ġsimil itudine
Ġmagist ros
Ġsalut at
Ġeff ecerit
Ġreper ies
Ġreper tae
Ġ22 0
Ġterr ibilia
Ġsper ant
ĠCar m
ĠMag ic
Ġindic ant
Ġhonest atem
Ġproxim os
Ġcong ress
Ġcong ressus
Ġ23 0
Ġ23 7
Ġaccid erunt
Ġaccid eret
Ġdim idio
ĠPer g
ĠCat ulo
Ġmeli oris
Ġcupid itatis
Ġcupid itatibus
ĠAs sumenda
Ġport u
Ġport is
Ġport ae
Ġmitt itur
ĠAut hor
Ġ24 5
Ġdo ubt
Ġdisput o
Ġdisput ationis
Ġdisput andi
Ġpass word
Ġarbitr arer
Ġdefin ire
Ġpropos uit
Ġpropos itionis
Ġpropos itiones
Ã¡ c
Ġiuv entus
ĠAug usta
Ġaff ecta
ĠLib enter
ĠSpir itui
Ġaug et
Ġaug mentum
Ġass ist
Ġass imil
Ġla ure
Ġla ici
Ġeu eniunt
Ġinterrog atus
Ġinterrog abant
Ġpret ia
Ġsuas it
Ġ28 1
Ġcast ellum
Ġconiunct is
Ġconiunct ionis
Ġnav icula
Ġhor rea
Ġads c
ĠVol c
ĠNum idiae
Ġdivis um
Ġperf ugium
Ġcompos iti
Ġhered e
Ġconveni ret
Ġjust itia
Ġexspect andum
âĢ¦ )
Ġrelig iosi
ĠCl ass
ĠCl odi
Ġarch aeolog
Ġ30 4
Ġ30 6
Ġ30 7
Ġ30 9
Ġoff ert
Ġadhib enda
Ġignor ant
ĠIacob o
Ġpossid es
Ġpossid ebat
Ġlabor ant
Ġorient e
Ġtut ius
Ġsch is
Ñĥ ÑĪ
elli um
fac tus
ĠIp si
Ġaudire nt
Ġ29 2
Ġcens us
Ġcens uit
Ġcens entur
Ġsubstantia le
pl ures
Ġrel ata
Ġarc em
Ġordin arius
Ġcunct os
Ġmer eri
Ġasper a
Ġcompar atum
amp s
Ġinvent u
Ġnonn isi
Ġquaes iv
Ġturp itudinis
Ġvinc unt
ÃŃ jen
Ġprophet iae
Ġconting unt
Ġlaet itiae
Ġargum entis
Ġcustod imus
Ġcreatur as
Ġcrim e
Ġcrim inibus
ĠDol oribus
Ġcapt i
Ġvac uitatem
ĠUrb e
ĠUrb em
Ġgener al
Ġsalv ator
Ġsalv avit
ĠIoseph um
ĠPar oec
Ġcomed ere
Ġcomed eres
Ġconced as
Ġconced imus
Ġanimal s
Ġpraesid ia
Ġpraesid ens
Ġprocess ion
ĠÎ ´
Ġvul nus
ãĢ ī
Ġrestit uta
Ġrestit utus
Ġecclesiast icarum
Ġecclesiast icas
Ġpert im
ĠLuc ret
Ġpere undum
Ġtac ite
Ġfe ar
ĠFac io
Ġangel os
Ġconsec rata
Ġsacerd ote
ĠEpiscop is
Ġir ration
Ġcorrupt ionem
Ġsempiter nae
Ex erc
201 6
à´ ²
à´ ³
Ġfest i
Ġacced ent
Ġeleg antia
ĠRes publica
Ġtra i
Ġsil va
Ġobl ationem
Ġobl ationes
Ġgenerat im
Ġquad rata
Ġ36 3
ĠVen etiae
Ġconsol atus
Ġindig enae
Ġinu enit
ĠOr ig
Ġconsider anda
Ġcib aria
ĠSim onis
Ġpossib le
Ġpossib ilis
Ġspect aculum
Ġclam ore
Ġpolit icae
Ġpolit ica
ĠEs perant
Ġoperat i
ĠAtt amen
Ġconvers um
Ġrelic ti
Ġsolv eret
Ġfacies que
Ġapostol um
Ġconcess eris
arn ed
ĠSto icos
ĠRe ipublicae
Ġori undus
Ġillae que
Ġrepet it
Ġiucund itas
Ġsh owed
ĠAcc ip
Ġimperator iae
Ġobi ecti
Ġcult orem
Ġprohib etur
Ġrevert ere
Ġdemonst ratum
Ġincom modi
Ġtotius que
ĠPers as
Ġlegit imus
ä¸ į
Ġ37 0
Ġrecord ari
Ġedit io
Ġmunicip io
Ġsumpt is
Ġsumpt ibus
Ġimpet r
Ġtract atu
Ġtribun o
Ġz u
Ġcondit ionibus
Ġaccept urus
Ġconclus ione
ĠMult as
Ġhim self
ĠAlp es
Ġur atur
Ġ38 8
Ġinterpret atur
Ġinterpret etur
Ġexig uo
Ġpercip it
ĠNo Ã«
Ġimped ire
ĠXX V
ĠIst am
ĠIst uc
ĠQuint e
Ġartific ium
Ġ187 5
Ġdecre vimus
Ġagnosc itur
Ġcern i
Ġmerit i
Ġmerit us
Ġdiscess um
Ġcolleg io
ĠVerum tamen
Ġquaereb ant
ĠEv el
ĠSequ enti
Ġaccess io
arch us
Ġquoc unque
Ġdissim iles
Ġfing as
ĠIust us
ĠIust itiae
Ġ48 0
Ġoccid isti
Ġabund at
Ġdeclar ata
ĠMet rop
ĠBo et
Ar g
Ar rotundimentum
Ġimprob i
Ġimprob um
Ġimprob os
Ġrid ens
Ġâ ĸ
Ġventur am
Ġventur ae
Ġdivid endo
Ġoccurr ere
Ġpraeced enti
Ġdetermin atur
Ġdetermin are
Ġhosp ites
ĠMarc ell
ĠMarc elli
Ġuolunt atis
Ġexcell entiam
Ill um
Ġtrist itiae
86 6
Ġpollic entur
Ġeat enus
ĠFort una
inn er
Ġcathol icus
Ġdilect ione
ĠAlexand riam
Ġador avit
Ġador abunt
ĠAlb um
Ġconp ens
Ġdefic iunt
Ġconfus i
Ġpropon it
sec undum
Ġmend ac
Ġvindic andum
Ġlign eum
ĠOctob er
Iac op
ĠLab ienus
Ġinsign i
Ġinsign es
Ġvulg us
Ġerud itum
Ġnegleg entia
ĠMaxim a
Ġconcupisc entia
Ġhodiern us
Ãª n
Ġnef aria
Ġoeconom ia
Ġoeconom icae
ĠLatin orum
Ġpraepar atio
Ġintent ione
Ġconfit emur
Ġpraeclar ius
Ġperven iant
Ġdidic erim
ĠVal erius
Ġcommemor ationem
Ġplant atum
Ġfrig idum
Ġtradit ione
Ġvad o
Ġuerb orum
ĠIoh annis
Ġnut u
ĠHen ry
ĠHen rico
Ġincred ibili
Ġservit utes
ĠSex tus
Ġcontent ionem
Ġcontent iones
Ġglori atur
Ġglori atus
Ġsta d
Ġdere liquit
Ġfav or
ĠBeat um
Ġcler icis
Ġcler icos
ĠApostol orum
Ġnig er
Ġnequit iae
Ġamo en
Ġinduc itur
Ġdescend ens
Ã´ n
Ġpasc uae
Ġinm ut
Ġtene am
ĠOp pi
Ġsuffrag iis
Ġexst incta
Ġmatrim onii
Ġrap uerunt
Ġschol ast
Ġvan itatis
Ġreduc i
Ġeae dem
Ġspon sum
Ġconfer endum
Ġcollig i
ĠTheod orus
Ġfelic itatem
Ġaus pic
Ġdulc ius
Ġaccipi endo
Ġsuad ere
Ġsuad eas
Ġcommunic ant
ĠÐº Ð¾Ð¼
Ð¾Ð² Ð°Ð½
Ġadministrat io
Ġconiung ere
Ġconiung untur
dom us
Ġcaec itas
ĠAene ae
Ġsplend orem
ĠPlac et
esper asc
Ġgrammat icam
Ġconfess ione
Ġger endi
Ġillumin are
Ġtemper antia
Ġprocur atore
Ġnarrat io
Ġmultiplic atur
Ġignosc e
Ġignosc o
Ġcanon iz
Ġcanon icam
ĠPlat oni
ä» ¥
ĠConf ecta
Ġcrudel itas
Ġtrah ere
Ġumb ram
Ġfrum ento
ĠLae lio
Ġinsid iantem
ĠAntioc ho
Ġdemonstr andum
Ġru inas
ĠAnglic us
ĠConc ilii
Ġcalam itatis
Ġcalam itatum
Ġiunct ae
Ġplan ius
Ġpulcherrim um
ez en
Ġcod ice
Ġcomment arios
Ġdefens ionis
Ġferm e
ĠLu k
Ġconsiderat ionem
Ġindivid uum
Ġindivid uis
Ġfornic atae
Ġantepon at
Ġuxoris que
Ġdisper d
Ġsect am
Ġsect abantur
ĠIap oniae
Ġexaud ias
ĠInde x
Ġeb ur
Ġeb riet
ĠMil onis
ĠMil ites
Ġterm inum
ĠUnivers a
Ġdevor avit
Ġcelebr abitur
ES S
á¿ ¦
Ġheb rae
Ġcompon endo
ĠHier oboam
Ġornam entum
Ġdecess isse
Ġpup illum
ĠArg ob
Ġtyran nus
Prim a
Ġimit ari
Ġnorm a
Ġinnumer abilis
Ġpersequ itur
Ġpersequ eris
Ġgraec a
Ġcoeper at
ĠLand arum
Ġtermin atur
Ġquer atur
Ġual et
Ġcorpor alis
Ġcorpor alia
Ġced rinam
ĠCa iet
ĠNaz istae
Ġrust icorum
ĠUr gent
Ġindustr iae
Ġobsc urum
Ġpunct is
Ġinan ima
Ġtel um
Ġtel ev
Ġexcit are
Ġmyster io
Ġuirtut is
Ġuirtut em
Pro vinc
Ġiung untur
ĠSap ientia
ĠClaud ii
åĪ ĩ
Ġvect es
Ġrede unt
ĠIdeo que
Ġplor at
Ġconscrip ta
Ġinterfect is
Ġaspic ere
Ġconclud itur
Ġexcog itasse
Ġoffend itur
Ġduct or
Ġcarm inibus
ĠExerc i
Ġmedit ari
Ġpus illum
Ġadim ple
ĠPo en
ĠTri arium
Ġtul isse
ĠLam ech
Ġremitt unt
Ġelev ati
ĠEli as
Ġsuppon it
Ġchar itas
Ġresurrect ionis
Ġincend ium
Ġrhet orum
Ġpraecl ari
Ġsupp edit
Ġ140 4
ĠPlanc i
Ġhiem s
variant s
Ġgent iles
Ġseptentr ionali
Ġincommut abilem
eff erson
æĪ ĸ
æĸ ĩ
Ġvendit ione
ĠMD CCCC
ĠHomin em
Ġstir pis
ĠPeripatet ici
Ġflagiti ose
Sal ve
Ġmix tio
Ġconsoc iata
Ġlibid ini
Ġtrip lex
Dol orem
ĠTib erius
Ġdup lo
Ġremed ia
Ġadiut or
Ġiurisdict ionis
Ġbrach ia
Ġtor que
Ġherb is
Ġsublim itas
ĠSalom onis
uter onom
Ġdeclina verunt
Ġconiur ationem
Ġmasc ulum
Ġbenedixit que
Ġgratul or
ĠMartin us
Ġdiffin itionem
Ġcontrist atur
Ġliturg ici
ĠIon adab
ĠMath at
Ġsei uncta
Ġobsequ ium
Ġdecip it
Ïī Î½
Ġthron o
ĠRosc ius
Ġdiscipl inis
Ġstart ed
Ġfidelium ve
Ġfluct u
htt p
ĠMichae lis
Ġgeomet ria
Ġcoop erantur
Ġclav es
Ġmedicam enta
Ġliv ed
Ġattul eris
Ġintegr itate
ĠMercur ium
à· Ĭ
ĠDub en
Ġcoaeter na
ĠBl ack
ĠBrix iae
Ġmilli ones
Ġpericulos a
ĠCapit ol
ĠArchid ioeces
ĠNapole one
cont ent
Ġpoc ulum
Ġnas um
Ġinert iae
Ġiu u
alog us
Ġrost ra
Ġstre et
Ġstet it
Ġtrit icum
Ġá½ ģ
Om ne
word s
Ġadquir itur
ĠNim irum
ĠBat av
ĠOper a
Ġobj ectum
ĠArm eni
En im
Ġnoll et
Ġmax illis
Ġascens ura
Ġtorm entum
ĠTrin itate
Ġsemit onium
Ġjo ined
Ġprovis a
ĠLaod iciae
Es se
Ġexha ur
Ġabys so
Ġpleas ed
Ġconsurg ens
Ġspha era
ĠQuaes ita
Ġkal endas
ĠCler icus
ĠArchiepiscop us
Ġsuggest ed
ĠBrunsv ici
åĮ º
ĠSeg or
Ġabdic avit
ĠBy zant
Ġrecurr ant
Ġfideicomm issum
Ġlacess itus
Ð°Ð¹ ÑĤ
ĠParisi orum
ĠFlorent iae
???????? ????????
Ġprouinc iae
Ġvov erit
ĠPisc atoris
ĠAmic itiam
Ġfestiv iorem
Ġstand ing
Ġlatron es
ĠPho en
ĠÄĮerven ec
rist us
ĠCed ar
Ġauth ent
ĠMic rosoft
ĠLo ide
ĠHo egner
ĠfÅĵ dus
ĠSallust ius
Ġgro up
ĠLux emb
Ġmad uras
Ġextr erno
Ġfair y
Ġthesaur os
ĠSul picius
ĠTry get
Ġmaiest atis
ĠSucc essor
Ġcalciam entis
Ġsynagog a
Homin es
oniz atus
ĠDist inctio
ĠFact ionis
escrip tion
Ġbeh ind
ĠThemist oc
Ġmercenn arii
Ġpercut iam
Ġfle w
Ġincur v
Ġeph ipp
Ġepul arer
Ġattent ion
ãĤ¦ ãĥł
ĠObs erv
Ġselected Product
Ga ius
Ġoccurre bat
ĠAmp lius
Ġindoc tum
Ġflet u
Ġbreak fast
Ġastonis hed
ĠéĿĴ ç´Ļéĭ¼
Ġsmo oth
ĠEun ice
ĠHie z
ĠInfer iorem
Ġconflat ilem
Ġtransc end
ĠElector alem
á¿Ĩ ÏĤ
Ġintervall o
Hen ricus
Luneburg ensem
famili as
ç½ ĳ
Ġadip isicing
Ġbeli eve
ĠLuneburg ensis
Ġamar itudine
Ġdisappe ared
ĠÅĺ ÃŃjen
Ġpellibus que
ĠÚ¯ Ø°Ø´
Ioseph us
åŁ İ
Ġinel eganter
Ġinlic itum
ĠSr pen
ĠList opad
Ġcapill oque
ĠZÃ¡ ÅĻÃŃ
Ġarbitram ur
Ġdeprehens us
ĠSyme on
Ġercisc undae
ĠBÅĻ ezen
ĠKvÄĽ ten
Ġadimple o
ĠÚ¯Ø°Ø´ ØªÙĩ
! âĢĿ.
' ?
) {
+ +
, ..
/ .
1 01
A V
B l
B y
B ulg
C ui
C red
D et
D id
D el
D acoroman
F a
F ort
F usce
G ame
H ae
H uius
H anc
I ste
J hn
K S
M o
M od
M arc
N ote
N atura
P ellentesque
R A
R ed
R ev
S int
T am
T ext
T extus
V et
V os
V ill
W izard
W ho
] )
a j
c m
c y
c am
c oni
d ay
e an
e ad
f aliae
g ere
g round
h as
h ad
h ler
j ust
l os
l arum
m undus
n at
n ac
n emo
o is
o om
o und
p as
r alis
s er
s que
s per
s erit
s isse
s up
s aces
t os
t ium
t itor
u ol
u istis
v in
v isset
w ill
x issent
y g
z ing
ª ãĥĸ
¸ ãĤ¦ãĥł
Å ĳ
Ì Ĩ
Ð ĳ
Ð ĵ
Ð ļ
Ñ Ĭ
Ó ©
á ¼
å §
å ī
å ĳ
æ º
è ª
è ¾
é ĥ
é Ĺ
Ġ ^
Ġ omin
Ġ unc
Ġ Ñĩ
Ġ à¤
Ġ ÏĨ
Ġe ra
Ġe undum
Ġe lid
Ġe recta
qu in
qu ibus
er ing
er entia
Ġs que
Ġs arc
Ġs entiant
Ġs ometimes
in f
in ec
in ata
in ario
it ta
it ari
us sit
Ġqu or
Ġqu onam
is a
Ġp od
Ġp lic
Ġp enit
Ġp uro
Ġp ink
Ġp ila
Ġp abulum
Ġp ower
Ġp inxit
at Ã¦
am um
am ar
Ġc b
Ġc y
Ġc oc
Ġc rast
Ġn atio
Ġn iti
Ġn edum
Ġd b
Ġd os
Ġd amus
Ġd entibus
Ġd ark
Ġd riv
Ġm m
Ġm Ã¡s
Ġin it
Ġin num
Ġin ania
ic les
ic le
ic Ã¦
Ġt utus
Ġt itium
Ġt aet
Ġt oday
or os
or di
Ġv om
Ġv iew
Ġet h
ut os
ut ion
Ġf ust
Ġf eris
Ġf oli
Ġf illed
en h
en w
li ma
Ġest a
om as
Ġh tt
im onium
im br
et z
et em
et as
et ric
an ed
an ch
an icae
an ima
an ensis
ar rae
id itatem
id era
id elis
os issime
ec isse
ul m
ul sit
ul sa
ent y
Ġpr id
Ġpr ag
ia verit
ib ilibus
ol et
ed em
Ġre tor
Ġl an
Ġl ed
Ġl ess
Ġl ente
Ġl enis
Ġl east
Ġad qu
Ġad dic
Ġad sumus
Ġad fectum
Ġad numer
oc o
se lli
ud a
ab led
ab ilitatis
Ġut etur
Ġes paÃ±
Ġquae ve
Ġquae vis
ot oc
Ġde ep
op e
op ag
il it
il ed
ant ed
ĠI C
ĠI ur
ĠI ucundum
Ġan cip
Ġan glice
Ġsu ade
ĠE cc
ĠE ri
ĠE ffic
Ġcon qu
Ġcon atum
Ġcon di
Ġcon plex
ĠA le
ĠA urum
ĠA eque
ĠA udi
ĠA elius
ĠA uctor
Ġex empt
Ġex ierit
al m
al y
al liae
ĠS w
ĠS ion
ĠS and
ĠS ert
ĠS ard
ĠS uo
ĠS ortes
ĠC P
ĠC u
ĠC ust
ĠC inc
ĠC ret
ĠC all
ĠC ord
ĠD io
ĠD ip
ĠD ate
ĠD ici
ĠD icam
ĠD iab
Ġme ipso
Ġdi uis
Ġqui esc
Ġqui eti
est ius
Ġdic ione
Ġdic atis
Ġdic etis
ih el
Qu aec
Ġper a
Ġper cur
Ġper ivit
Ġper acta
ore tur
Ġfac ilia
Ġfac ilem
Ġfac ete
Ġfac ilitate
ĠP H
ĠP e
ĠP re
ĠP unt
ĠP ann
ĠP oll
ĠP anam
ĠP rior
Ġg a
Ġg us
Ġg as
Ġg enti
Ġg rec
itur ig
ist s
atur abilia
ob ar
ect an
ĠQu ad
ĠQu inti
ĠQu attuor
Ġsed ent
Ġsed itionem
no vit
per unt
Ġco act
Ġco acta
Ġen ar
ĠN in
ĠN ine
ĠN ord
ĠN ationalis
ĠN epos
Ġhab erentur
Ġhab uimus
Ġpos itae
Ġpos uisset
uit que
Ġsc op
Ġsc ita
Ġsc orp
iv ed
uc und
ĠM r
ĠM id
ĠM eg
ĠM are
ĠM AR
ĠM unicipia
ĠM obile
Ġpot entem
Ġpot ueris
aec at
Ġcom item
Ġ2 11
Ġap es
Ġap tavit
Ġse orsum
Ġ( '
Ġth or
Ġth ick
Ġu h
Ġu inc
Ġu idit
Ġu indic
Ġab ali
Ġab rip
Ġab ierunt
ell at
ell as
go viae
ĠL i
ĠL ord
ĠH et
ĠH odi
ĠH age
Ġop ertum
Ġvel itis
Ġid on
Ġne ptis
ĠR en
ĠR et
ĠR atis
Ġca utio
Ġam emus
Ġam entem
Ġam abo
Ġam issio
Ġat tr
Ġat rio
ĠDe orum
ĠDe lig
ĠT or
ĠT ok
ĠT iro
ĠF it
ĠF iat
ĠF ide
ĠF red
ĠF rib
emp ta
Ġpar as
Ġpar iunt
Ġpar ies
Ġpar abiles
Ġcu ivis
Ġinc urr
Ġinc erti
Ġinc urrit
Ġinc erto
Ġinc umbit
Ġaliqu atenus
Ġvol emus
Ġcons ortium
Ġnec avit
Ġqua propter
lib er
ust is
ig e
ig ur
ig rationem
Ġun s
Ġun icam
Ġun seen
ĠB ow
ĠB ez
ĠB remae
ĠG entes
ĠG ubern
Ġsol eant
Ġsol utionem
Ġr os
Ġr iv
Ġr arum
Ġr ivum
Ġint emper
Ġo il
Ġprop erant
Ġw oman
Ġcomm isit
Ġmod orum
âĢ ĭ
Ġfili abus
Ġinter pos
Ġfu rem
Ġst ra
Ġst abile
Ġst ock
Ġres ol
ĠEt h
ĠEt rusc
Ġlib eretur
Ġlib rari
Ġsec reta
Ġpat ent
Ġpat eris
fect o
int h
int o
int ed
ov icus
ad dit
ad elph
Ġreg iae
Ġar mon
Ġ3 22
Ġ3 28
Ġ3 29
Ġ3 27
Ġmin uit
Ġmin uere
Ġmin uitur
eni ente
ĠO Z
ĠO sc
Ġcor io
Ġcor ner
ap se
Ġleg atio
ers i
atum que
Ġ" .
Ġfec istis
ĠIn do
ĠIn ven
de a
de am
Ġ19 1
Ġof ferre
Ġant i
Ġsp ort
Ġsp ea
Ġloc os
Ġloc utiones
Ġdol ens
Ġdol endum
Ġnum mis
Ġincol atus
Ġoc ting
Ġman es
Ġman erent
Ġsub it
Ġsub tem
Ġaud itu
Ġaud issent
Ġaud eas
Ġaud eam
Ġmult itudini
ific i
ific at
Ġob ire
Ġob ici
Ġinv itavit
rem ur
pon o
ĠSed em
Ġdu Ã¦
Ġimp ar
Ġimp un
Ġimp rop
Ġimp ulsu
ĠAn im
ĠAn imum
Ġag itat
Ġag endo
Ġag ente
Ġag rorum
Ġsim onia
ris on
ch us
ch en
ch om
ug ae
Ġdeb ebunt
Ġac riter
Ġac ross
Ġ4 00
Ġ4 01
Ġnull atenus
Ġas otos
Ġrat e
Ġven erint
Ġven erant
Ġven issem
Ġven isses
Ġven eno
Ġpraes idi
Ġvit i
Ġvit etur
Ġput ent
Ġput ares
Ġvoc etur
Ġvoc ales
Ġtr ial
Ġtr ices
Ġurb an
Ġto uch
Ġcog untur
ern ae
entur um
Ġsuper atus
ĠÂ Ń
Ġexp resse
Ġrep rom
Ġrep ugno
Ġcap iti
Ġcap ax
Ġ18 4
Ġ18 23
Ġ18 30
Ġ18 29
Ġ18 33
Ġ18 37
Ġ18 43
Ġiudic avit
Ġiudic ati
Ġiudic abis
Ġei ectus
Ġcur ta
Ġcur ata
Ġcur ator
Ġcur ric
Ġcur asset
Ġciv ilia
iat ionem
Ġamic issime
Ġamic issimus
Ġdisc am
Ġdisc edit
Ġdisc endo
Ġdisc overed
Ġdiv item
Ġmal os
Ġmal uit
Ġnomin ari
Ġnomin atum
Ġnomin amus
itud inibus
ĠSi quidem
ranc e
Ġded issem
Ġcomp le
Ġnot ius
Ġnot issimum
Ġdes um
Ġdes inis
Ġdes ino
Ġdes pici
ill s
ica lly
Ġcogn ata
Ġcogn ationem
Ġsent iri
ĠFranc of
Ġserv at
Ġserv iebat
Ġserv ientem
Ġrec edit
Ġrec epta
Ġrec olo
Ġomnis que
osc e
Ġlit is
Ġlit ium
Ġgrat ae
Ġscrib ebat
Ġscrib ebam
Ġconf ert
Ġconf idunt
Ġconf lixit
Ġsemper que
Ġcl oud
ĠCh am
ĠCh ir
ĠCh ald
ĠCh ampion
Ġiust issimum
Ġiust itias
Ġplac uerat
ura stis
Ġcol untur
Ġcol oniam
Ġcol enda
Ġcol uisti
Ġins it
Ġins im
Ġins pic
Ġins pex
Ġins aturabilia
ĠAm bit
ĠCom mod
Ġsign i
Ġcar is
Ġcar issimus
Ġmat ut
Ġpers aepe
Ġpers olv
Ġten eret
Ġten ebatur
Ġmis ere
Ġdef endo
Ġlab itur
Ġlab ef
Ġcred eretur
Ġpraeter ii
Ġpraeter ierunt
Ġj un
Ġj oy
Ġj ucund
Ġnov erca
anc ed
ĠJ ellia
Ġsap iebam
Ġsap ien
Ġdoc ebis
Ġdel ine
Ġdel ata
Ġpa ulus
Ġpa ulis
Ġprob et
Ġprob amus
Ġprob abiliter
Ġrespon deo
Ġneg atur
Ġneg abat
Ġred actus
Ð° Ñı
Ġform e
Ġform ed
Ġform ata
Ġprincip i
ĠAr iob
Ġ8 00
Ġ8 59
Ġvest itum
Ġvest iuntur
Ġmem ori
Ġsumm itatem
[...]
