{"<s>":0,"<pad>":1,"</s>":2,"<unk>":3,"<mask>":4,"!":5,"\"":6,"#":7,"$":8,"%":9,"&":10,"'":11,"(":12,")":13,"*":14,"+":15,",":16,"-":17,".":18,"/":19,"0":20,"1":21,"2":22,"3":23,"4":24,"5":25,"6":26,"7":27,"8":28,"9":29,":":30,";":31,"<":32,"=":33,">":34,"?":35,"@":36,"A":37,"B":38,"C":39,"D":40,"E":41,"F":42,"G":43,"H":44,"I":45,"J":46,"K":47,"L":48,"M":49,"N":50,"O":51,"P":52,"Q":53,"R":54,"S":55,"T":56,"U":57,"V":58,"W":59,"X":60,"Y":61,"Z":62,"[":63,"\\":64,"]":65,"^":66,"_":67,"`":68,"a":69,"b":70,"c":71,"d":72,"e":73,"f":74,"g":75,"h":76,"i":77,"j":78,"k":79,"l":80,"m":81,"n":82,"o":83,"p":84,"q":85,"r":86,"s":87,"t":88,"u":89,"v":90,"w":91,"x":92,"y":93,"z":94,"{":95,"|":96,"}":97,"~":98,"¡":99,"¢":100,"£":101,"¤":102,"¥":103,"¦":104,"§":105,"¨":106,"©":107,"ª":108,"«":109,"¬":110,"®":111,"¯":112,"°":113,"±":114,"²":115,"³":116,"´":117,"µ":118,"¶":119,"·":120,"¸":121,"¹":122,"º":123,"»":124,"¼":125,"½":126,"¾":127,"¿":128,"À":129,"Á":130,"Â":131,"Ã":132,"Ä":133,"Å":134,"Æ":135,"Ç":136,"È":137,"É":138,"Ê":139,"Ë":140,"Ì":141,"Í":142,"Î":143,"Ï":144,"Ð":145,"Ñ":146,"Ò":147,"Ó":148,"Ô":149,"Õ":150,"Ö":151,"×":152,"Ø":153,"Ù":154,"Ú":155,"Û":156,"Ü":157,"Ý":158,"Þ":159,"ß":160,"à":161,"á":162,"â":163,"ã":164,"ä":165,"å":166,"æ":167,"ç":168,"è":169,"é":170,"ê":171,"ë":172,"ì":173,"í":174,"î":175,"ï":176,"ð":177,"ñ":178,"ò":179,"ó":180,"ô":181,"õ":182,"ö":183,"÷":184,"ø":185,"ù":186,"ú":187,"û":188,"ü":189,"ý":190,"þ":191,"ÿ":192,"Ā":193,"ā":194,"Ă":195,"ă":196,"Ą":197,"ą":198,"Ć":199,"ć":200,"Ĉ":201,"ĉ":202,"Ċ":203,"ċ":204,"Č":205,"č":206,"Ď":207,"ď":208,"Đ":209,"đ":210,"Ē":211,"ē":212,"Ĕ":213,"ĕ":214,"Ė":215,"ė":216,"Ę":217,"ę":218,"Ě":219,"ě":220,"Ĝ":221,"ĝ":222,"Ğ":223,"ğ":224,"Ġ":225,"ġ":226,"Ģ":227,"ģ":228,"Ĥ":229,"ĥ":230,"Ħ":231,"ħ":232,"Ĩ":233,"ĩ":234,"Ī":235,"ī":236,"Ĭ":237,"ĭ":238,"Į":239,"į":240,"İ":241,"ı":242,"Ĳ":243,"ĳ":244,"Ĵ":245,"ĵ":246,"Ķ":247,"ķ":248,"ĸ":249,"Ĺ":250,"ĺ":251,"Ļ":252,"ļ":253,"Ľ":254,"ľ":255,"Ŀ":256,"ŀ":257,"Ł":258,"ł":259,"Ń":260,"Ġe":261,"qu":262,"um":263,"er":264,"Ġa":265,"Ġs":266,"in":267,"it":268,"us":269,"Ġqu":270,"is":271,"Ġp":272,"at":273,"nt":274,"on":275,"am":276,"Ġc":277,"Ġn":278,"ae":279,"st":280,"Ġd":281,"Ġm":282,"re":283,"Ġin":284,"em":285,"ic":286,"Ġt":287,"or":288,"ur":289,"Ġv":290,"Ġet":291,"ut":292,"Ġi":293,"Ġf":294,"en":295,"li":296,"Ġest":297,"om":298,"Ġh":299,"im":300,"es":301,"unt":302,"od":303,"et":304,"an":305,"ar":306,"id":307,"os":308,"ec":309,"ul":310,"ent":311,"Ġnon":312,"Ġpr":313,"ia":314,"ib":315,"ol":316,"un":317,"ed":318,"Ġre":319,"que":320,"Ġl":321,"Ġad":322,"oc":323,"se":324,"ud":325,"Ġquod":326,"ac":327,"ll":328,"ab":329,"Ġut":330,"as":331,"ius":332,"iam":333,"ion":334,"Ġes":335,"Ġquae":336,"ere":337,"Ġsunt":338,"ot":339,"Ġde":340,"op":341,"Ġcum":342,"il":343,"ant":344,"ĠI":345,"Ġan":346,"Ġsu":347,"io":348,"ĠE":349,"ibus":350,"Ġcon":351,"ĠA":352,"Ġex":353,"Ġquam":354,"al":355,"ĠS":356,"ĠC":357,"el":358,"ag":359,"ĠD":360,"omn":361,"Ġme":362,"Ġdi":363,"Ġesse":364,"Ġ1":365,"Ġomn":366,"Ġb":367,"Ġqui":368,"est":369,"Ġdic":370,"end":371,"ih":372,"ta":373,"Ġali":374,"iae":375,"itat":376,"Qu":377,"ip":378,"Ġper":379,"orum":380,"Ġaut":381,"ore":382,"ter":383,"Ġfac":384,"Ġprae":385,"ra":386,"ĠP":387,"Ġg":388,"Ġill":389,"rat":390,"itur":391,"ist":392,"ium":393,"atur":394,"ob":395,"ect":396,"ĠQu":397,"Ġsi":398,"ili":399,"Ġsed":400,"no":401,"per":402,"Ġco":403,"omin":404,"ir":405,"Ġen":406,"ĠN":407,"Ġip":408,"quam":409,"ens":410,"Ġhab":411,"Ġtu":412,"Ġenim":413,"Ġpos":414,"cc":415,"uit":416,"eg":417,"ost":418,"Ġsc":419,"iv":420,"are":421,"uc":422,"Ġeius":423,"ĠM":424,"und":425,"Ġquid":426,"Ġhoc":427,"eb":428,"Ġpot":429,"arum":430,"gn":431,"aec":432,"Ġcom":433,"Ġ2":434,"iss":435,"Ġap":436,"Ġse":437,"and":438,"Ġ(":439,"ort":440,"Ġver":441,"Ġquo":442,"pt":443,"Ġetiam":444,"Ġips":445,"Ġth":446,"ina":447,"čĊ":448,"Ġposs":449,"Ġu":450,"Ġab":451,"Ġautem":452,"av":453,"ihi":454,"Ġvid":455,"ell":456,"go":457,"fic":458,"Ġmihi":459,"imus":460,"ĠL":461,"Ġsit":462,"ĠH":463,"Ġop":464,"Ġvel":465,"Ġid":466,"Ġer":467,"ita":468,"erunt":469,"Ġne":470,"ionem":471,"ĠR":472,"Ġca":473,"ct":474,"Ġam":475,"Ġat":476,"ĠDe":477,"ĠT":478,"ult":479,"ĠF":480,"Ġanno":481,"Ġpro":482,"Ġpag":483,"emp":484,"lic":485,"ĠĠ":486,"ing":487,"Ġpar":488,"Ġte":489,"ihil":490,"Ġcu":491,"ione":492,"Ġpagina":493,"Ġinc":494,"Ġaliqu":495,"isc":496,"Ġapud":497,"erit":498,"Ġvol":499,"Ġpl":500,"etur":501,"Ġcons":502,"ĠV":503,"Ġim":504,"atus":505,"ro":506,"Ġthe":507,"Ġnec":508,"Ġqua":509,"Ġnihil":510,"Ġquia":511,"ess":512,"Ġea":513,"lib":514,"Ġtam":515,"Ġma":516,"Ġeum":517,"ibi":518,"Ġmag":519,"unc":520,"ert":521,"ĠEa":522,"ari":523,"Ġfuit":524,"Ġpotest":525,"ust":526,"ig":527,"Ġun":528,"ĠB":529,"ĠG":530,"Ġsol":531,"Ġr":532,"Ġtemp":533,"Ġint":534,"..":535,"Ġacc":536,"Ġo":537,"Ġess":538,"ub":539,"Ġprop":540,"erum":541,"Ġscr":542,"Ġcont":543,"Ġw":544,"Ġcomm":545,"ine":546,"Ġeo":547,"Ġmod":548,"ull":549,"âĢ":550,"Ġsum":551,"Ġatque":552,"Ġhaec":553,"res":554,"Ġor":555,"Ġfili":556,"obis":557,"Ġinter":558,"Ġfu":559,"Ġst":560,"eri":561,"Ġres":562,"ĠEt":563,"Ġlib":564,"erat":565,"tum":566,"orem":567,"inc":568,"ep":569,"Ġhomin":570,"Ġsec":571,"Ġ[":572,"bi":573,"Ġdix":574,"ri":575,"Ġsic":576,"Ġpat":577,"lig":578,"Ġbon":579,"fect":580,"00":581,"int":582,"ov":583,"ad":584,"oqu":585,"ran":586,"Ġreg":587,"eat":588,"Ġanim":589,"Ġar":590,"Ġ3":591,"Ġmin":592,"eni":593,"Ġita":594,"rum":595,"ĠO":596,"Ġcor":597,"Ġcre":598,"Ġtibi":599,"Ġomnia":600,"ap":601,"Ġleg":602,"les":603,"ate":604,"upt":605,"uli":606,"ers":607,"Ġnost":608,"undum":609,"atum":610,"Ġ\"":611,"itum":612,"eris":613,"Ġfec":614,"ĠIn":615,"Ġneque":616,"de":617,"untur":618,"ient":619,"Ġvir":620,"ata":621,"issim":622,"isi":623,"Ġ19":624,"abul":625,"Ġof":626,"Ġant":627,"Ġsp":628,"Ġquidem":629,"atis":630,"Ġloc":631,"Ġerat":632,"Ġ,":633,"Ġus":634,"iter":635,"Ġter":636,"Ġloqu":637,"Ġdol":638,"ccles":639,"Ġquis":640,"antur":641,"Ġnum":642,"Ġser":643,"Ġincol":644,"Ġego":645,"Ġoc":646,"Ġman":647,"Ġsub":648,"Ġpost":649,"Ġaud":650,"Ġmult":651,"isti":652,"ĠU":653,"Ġmort":654,"Ġcaus":655,"Ġal":656,"ific":657,"Ġ-":658,"Ġob":659,"le":660,"Ġipsum":661,"ator":662,"endum":663,"Ġinv":664,"ior":665,"Ġprim":666,"rem":667,"Ġtamen":668,"Ġdom":669,"Ġomnes":670,"Ġmodo":671,"ĠĠĠĠ":672,"esc":673,"Ġscrip":674,"urb":675,"eo":676,"pon":677,"ĠDomin":678,"ĠSed":679,"Ġnobis":680,"Ġnos":681,"Ġquibus":682,"Ġvolupt":683,"Ġincolarum":684,"ero":685,"Ġann":686,"itas":687,"Ġmagn":688,"ii":689,"entia":690,"Ġcuius":691,"Ġdu":692,"eret":693,"Ġimp":694,"amus":695,"ĠAn":696,"ĠRom":697,"Ġag":698,"avit":699,"Ġsim":700,"ris":701,"isse":702,"Ġesset":703,"ch":704,"Ġnisi":705,"Ġsecundum":706,"udic":707,"alis":708,"Ġnatur":709,"Ġcommun":710,"xim":711,"ionis":712,"Ġaliquid":713,"ug":714,"Ġquem":715,"Ġdeb":716,"Ġhis":717,"ati":718,"itus":719,"dam":720,"Ġgen":721,"aud":722,"Ġac":723,"Ġsem":724,"Ġvero":725,"Ġ4":726,"Ġnull":727,"Ġas":728,"Ġrat":729,"Ġpart":730,"Ġand":731,"Ġven":732,"dic":733,"itate":734,"Ġiam":735,"iis":736,"Ġpraes":737,"Ġergo":738,"itatem":739,"cip":740,"tus":741,"Ġvit":742,"Ġput":743,"Ġvoc":744,"Ġtr":745,"ile":746,"ire":747,"Ġurb":748,"Ġist":749,"ie":750,"Ġeam":751,"gitur":752,"orm":753,"Ġpec":754,"Ġrem":755,"Ġante":756,"atio":757,"oniam":758,"rae":759,"pe":760,"Ġille":761,"Ġto":762,"ĠNon":763,"Ġcog":764,"ne":765,"Ġnunc":766,"itt":767,"lli":768,"iunt":769,"Ġtabul":770,"ĠDeus":771,"Ġis":772,"ern":773,"Ġquas":774,"entur":775,"Ġrerum":776,"Ġsuper":777,"si":778,"ias":779,"Ġhabet":780,"Ġsan":781,"ĠÂ":782,"Ġexp":783,"Ġrep":784,"Ġcap":785,"icae":786,"ui":787,"ux":788,"ando":789,"Ġ18":790,"Ġipse":791,"ebat":792,"\"\\":793,"Ġiudic":794,"antum":795,"Ġei":796,"Ġcur":797,"iones":798,"Ġciv":799,"iat":800,"Ġilli":801,"uius":802,"Ġamic":803,"Ġverb":804,"\"\\\"\\":805,"stit":806,"atem":807,"Ġdisc":808,"endi":809,"dem":810,"Ġdiv":811,"Ġdixit":812,"Ġigitur":813,"oris":814,"erc":815,"ores":816,"Ġapp":817,"ali":818,"Ġeccles":819,"Ġmal":820,"ĠâĢ":821,"Ġnomin":822,"Ġsicut":823,"itud":824,"ene":825,"Ġdec":826,"Ġcui":827,"ff":828,"ulo":829,"ulum":830,"ure":831,"ationem":832,"ĠSi":833,"ranc":834,"emus":835,"ĠQuid":836,"ept":837,"Ġmaxim":838,"Ġded":839,"Ġcomp":840,"dit":841,"Ġpop":842,"Ġmortu":843,"Ġillud":844,"he":845,"Ġquoniam":846,"Ġnot":847,"sequ":848,"Ġdes":849,"01":850,"itatis":851,"Ã¦":852,"Ġilla":853,"Ġomnibus":854,"ill":855,"ingu":856,"Ġmea":857,"sum":858,"anno":859,"Ġsua":860,"ici":861,"Ġtot":862,"Ġintell":863,"Ġquoque":864,"Ġeorum":865,"Ġpu":866,"inem":867,"Ġ200":868,"ram":869,"ret":870,"ublic":871,"rim":872,"icum":873,"ica":874,"entes":875,"Ġ5":876,"Ġcogn":877,"Ġmagis":878,"Ġsent":879,"Ġtempore":880,"era":881,"Ġdicitur":882,"Ġ:":883,"ĠQuod":884,"ĠFranc":885,"Ġserv":886,"ont":887,"Ġconc":888,"Ġhic":889,"Ġdie":890,"Ġeos":891,"irc":892,"Ġrec":893,"Ġocc":894,"di":895,"Ġomnis":896,"itatus":897,"Ġfort":898,"isset":899,"Ġpossunt":900,"entum":901,"osc":902,"Ġmol":903,"eli":904,"Ġcausa":905,"Ġlit":906,"Ġgrat":907,"uct":908,"Ġscrib":909,"ffic":910,"ex":911,"Ġact":912,"Ġconf":913,"quid":914,"Ġsemper":915,"ori":916,",\"":917,"Ġusque":918,"ĠRoman":919,"Ġcorp":920,"Ġit":921,"Ġcl":922,"Ġsine":923,"Ġfacere":924,"Ġtua":925,"ĠCh":926,"Ġsint":927,"Ġillum":928,"ĠAt":929,"Ġvos":930,"omen":931,"ve":932,"Ġpublic":933,"II":934,"ĠÐ":935,"Ġiust":936,"tin":937,"Ġel":938,"og":939,"raec":940,"bus":941,"Ġinf":942,"Ġviv":943,"quit":944,"Ġfid":945,"Ġplac":946,"icus":947,"Ġsuo":948,"Ġnam":949,"Ġnumquam":950,"ura":951,"Ġpossit":952,"Ġpraec":953,"Ġcol":954,"Ġsequ":955,"Ġins":956,"Ġ'":957,"Ġquos":958,"Ġfrat":959,"ĠAm":960,"Ġeis":961,"ĠCom":962,"Ġsign":963,"Ġcar":964,"Ġmortuus":965,"umque":966,"oribus":967,"Ġipsa":968,"Ġlingu":969,"ilis":970,"Ġminus":971,"Ġ7":972,"ĠNam":973,"Ġmat":974,"Ġlitter":975,"Ġubi":976,"Ġpers":977,"Ġfr":978,"Ġdicit":979,"Ġten":980,"Ġmis":981,"urae":982,"Ġdef":983,"Ġconv":984,"Ġlab":985,"Ġcred":986,"Ġ6":987,"Ġpraeter":988,"Ġsibi":989,"atione":990,"stant":991,"isp":992,"Ġprinc":993,"Ġvobis":994,"Ġsolum":995,"Ġsuam":996,"Ġj":997,"Ġsae":998,"Ġnov":999,"anc":1000,"ĠJ":1001,"Ġep":1002,"Ġerit":1003,"ass":1004,"Ġfi":1005,"Ġsap":1006,"Ġexc":1007,"Ġ201":1008,"ora":1009,"Ġprov":1010,"Ġfecit":1011,"ong":1012,"ĠIta":1013,"Ġbonum":1014,"Ġvide":1015,"to":1016,"Ġdoc":1017,"Ġconsequ":1018,"up":1019,"Ġopp":1020,"Ġopt":1021,"erm":1022,"Ġhuius":1023,"Ġcommune":1024,"ula":1025,"inis":1026,"odi":1027,"Ġdel":1028,"Ġbene":1029,"Ġvis":1030,"Ġpraefect":1031,"entiam":1032,"all":1033,"sit":1034,"oed":1035,"Ġcirc":1036,"Ġquasi":1037,"ilia":1038,"...":1039,"Ġpa":1040,"ann":1041,"enda":1042,"icet":1043,"Ġprob":1044,"Ġrespon":1045,"Ġmolest":1046,"itia":1047,"Ġneg":1048,"ale":1049,"Ġmeum":1050,"Ġred":1051,"ou":1052,"Ġaliud":1053,"ti":1054,"Ð°":1055,"Ġy":1056,"ĠLat":1057,"odo":1058,"Ġcae":1059,"Ġnomen":1060,"entiae":1061,"Ġdomin":1062,"Ġtantum":1063,"Ġform":1064,"ino":1065,"rav":1066,"Ġgl":1067,"Ġprincip":1068,"Ġvidetur":1069,"erem":1070,"ĠAr":1071,"Ġcert":1072,"Ġ8":1073,"Ġvest":1074,"ulta":1075,"andum":1076,"Ġmem":1077,"Ġsumm":1078,"Ġpropter":1079,"ini":1080,"ĠĠĠĠĠĠĠĠ":1081,"ĠDominus":1082,"ea":1083,"unct":1084,"Ġpars":1085,"Ġcontra":1086,"Ġfug":1087,"enti":1088,"iet":1089,"Ð¾":1090,"Ġfactum":1091,"iti":1092,"ard":1093,"lius":1094,"oth":1095,"one":1096,"Ġalter":1097,"Ġadh":1098,"ĠGraec":1099,"Ġux":1100,"Ġsal":1101,"ite":1102,"reh":1103,"Ġnesc":1104,"ĠQuae":1105,"Ġquaer":1106,"Ġnulla":1107,"glic":1108,"ue":1109,"ice":1110,"ulus":1111,"Ġpecun":1112,"Ġtum":1113,"ĠIs":1114,".\"":1115,"Ġev":1116,"ans":1117,").":1118,"Ġaet":1119,"entem":1120,"Ġund":1121,"sus":1122,"ima":1123,"aret":1124,"Ġpossum":1125,"aria":1126,"Ġnatura":1127,"Ġmaxime":1128,"Ġreli":1129,"Ġvolunt":1130,"ĠDei":1131,"Ġext":1132,"ix":1133,"Ġeg":1134,"ĠW":1135,"Ġquando":1136,"ato":1137,"Ġsuum":1138,"lum":1139,"tut":1140,"Ġterra":1141,"Ġsanct":1142,"Ġimper":1143,"Ġmund":1144,"Ġtran":1145,"pic":1146,"uta":1147,"Ġius":1148,"Ġhom":1149,"eretur":1150,"Ġdicere":1151,"Ġdilig":1152,"itatibus":1153,"Ġpraefecturae":1154,"Ġduc":1155,"Ġnecess":1156,"Ġval":1157,"ulis":1158,"edit":1159,"ĠQui":1160,"Ġing":1161,"ĠHoc":1162,"Ġillis":1163,"ĠDeo":1164,"esse":1165,"iscop":1166,"epit":1167,"Ġtest":1168,"Ġ9":1169,"Ġoffic":1170,"oli":1171,"vers":1172,"ĠChr":1173,"ectus":1174,"Ġsus":1175,"Ġillo":1176,"Ġ12":1177,"Ġabs":1178,"Ġcogit":1179,"Ġprimum":1180,"cr":1181,"glice":1182,"Ġtempus":1183,"Ġfilius":1184,"ios":1185,"Ġrebus":1186,"ord":1187,"Ġdign":1188,"Ġaliquam":1189,"uv":1190,"Ġfaci":1191,"Ġsaepe":1192,"equ":1193,"Ġintelleg":1194,"Ġcaput":1195,"ĠComitatus":1196,"Ġomnium":1197,"Ġfam":1198,"eper":1199,"erb":1200,"Ġregione":1201,"Ġsatis":1202,"Ġposse":1203,"Ġvita":1204,"utus":1205,"ĠAd":1206,"Ġrei":1207,"Ġexerc":1208,"Ġsens":1209,"10":1210,"Ġtab":1211,"urum":1212,"ĠEccles":1213,"Ġbe":1214,"\"\\\"\\\"\\\"\\":1215,"Ġsapient":1216,"ow":1217,"Ġhon":1218,"Ġmut":1219,"Ġquaedam":1220,"Ġhum":1221,"erv":1222,"Ġvic":1223,"Ġunum":1224,"Ġhabere":1225,"Ġvirtut":1226,"rog":1227,"aris":1228,"Ġait":1229,"Ġsaec":1230,"Ġaccip":1231,"Ðµ":1232,"Ġhomo":1233,"Ġfacta":1234,"Ġinquit":1235,"iqu":1236,"fer":1237,"Ġbeat":1238,"itiae":1239,"Ġmeus":1240,"endo":1241,"th":1242,"Ġcognosc":1243,"Ġlong":1244,"Ġhomines":1245,"ĠMar":1246,"Ġord":1247,"ev":1248,"mn":1249,"Ġ17":1250,"ecta":1251,"Ġtuum":1252,"Ġreliqu":1253,"tor":1254,"Ġiure":1255,"rad":1256,"iens":1257,"Ġpet":1258,"Ġalia":1259,"Ġfut":1260,"Ġ15":1261,"ĠEx":1262,"Ġign":1263,"Ġomni":1264,"ĠX":1265,"Ġmed":1266,"Ġind":1267,"Ġvitae":1268,"Ġmaior":1269,"itis":1270,"Ġaed":1271,"Ġtuam":1272,"Ġappell":1273,"Ġfieri":1274,"ente":1275,"ĠAmer":1276,"ionibus":1277,"Ġiur":1278,"cce":1279,"Ġmulta":1280,"act":1281,"mon":1282,"Ġcet":1283,"Ġstud":1284,"pos":1285,"Ġvelit":1286,"ast":1287,"hil":1288,"iores":1289,"Ġipso":1290,"Ġloquitur":1291,"Ð¸":1292,"Ġsup":1293,"ito":1294,"Ġpatr":1295,"emo":1296,"12":1297,"Ġverum":1298,"ly":1299,"ilium":1300,"Ġhanc":1301,"Ġconi":1302,"dum":1303,"Ġull":1304,"pect":1305,"Ġ|":1306,"Ġlaud":1307,"Ġ13":1308,"Ġtuus":1309,"Ġveni":1310,"Ġhabent":1311,"Ġfor":1312,"Ġher":1313,"rehend":1314,"rah":1315,"ĠPr":1316,"ĠHaec":1317,"erent":1318,"Ġpertin":1319,"omodo":1320,"oph":1321,"Ġstat":1322,"ĠUt":1323,"Ġunde":1324,"Ġidem":1325,"Ġintel":1326,"Ġiis":1327,"ecum":1328,"ĠCum":1329,"Ġtui":1330,"ĠCon":1331,"inde":1332,"Ġproc":1333,"Ġurbs":1334,"idit":1335,"enter":1336,"ĠUn":1337,"Ġconstit":1338,"Ġbell":1339,"if":1340,"Ġsen":1341,"inam":1342,"Ġibi":1343,"Ġtim":1344,"Ġillius":1345,"ÑĤ":1346,"ath":1347,"str":1348,"Ġ14":1349,"Ġdiscip":1350,"Ġprovinc":1351,"Ġmolestiae":1352,"uum":1353,"Ġ11":1354,"Ġdolorem":1355,"ith":1356,"ide":1357,"Ġnomine":1358,"Ġem":1359,"Ġfl":1360,"oll":1361,"ĠCae":1362,"Â»":1363,"ana":1364,"Ġsuae":1365,"Ġista":1366,"Ġintellig":1367,"Ġod":1368,"uper":1369,"Ġtant":1370,"asc":1371,"Ġpropr":1372,"Ġfilii":1373,"ay":1374,"vit":1375,"inum":1376,"Ġmens":1377,"iant":1378,"ĠDeum":1379,"Ġfact":1380,"Ġwh":1381,"ĠFoed":1382,"Ġsubstant":1383,"An":1384,"Ġannum":1385,"Ġecclesia":1386,"Ġmun":1387,"imo":1388,"Ġiste":1389,"Ġpo":1390,"Ġexist":1391,"Ġoport":1392,"uerunt":1393,"Ġdomum":1394,"Ġaliis":1395,"ĠLorem":1396,"ph":1397,"sa":1398,"vis":1399,"Ġsac":1400,"abo":1401,"Ġplur":1402,"erman":1403,"Ġomne":1404,"Ġerant":1405,"\":":1406,"enta":1407,"Ġpul":1408,"Ġhominum":1409,"entis":1410,"lin":1411,"entibus":1412,"ĠSan":1413,"Ġlat":1414,"Ġ10":1415,"ĠQuam":1416,"Ġadhuc":1417,"Ġconsequatur":1418,"ĠIud":1419,"Ġpraedic":1420,"Ġaccus":1421,"Ġaqu":1422,"Ġaper":1423,"Ġmuli":1424,"Ġfacit":1425,"Ġloco":1426,"Ġpotius":1427,"ĠBr":1428,"Ġk":1429,"Ġrex":1430,"Ġplus":1431,"Ġpecc":1432,"Ġmeam":1433,"Ġadm":1434,"avi":1435,"bit":1436,"Ġmor":1437,"Ġsubi":1438,"Ġquin":1439,"Ġ16":1440,"Ġdicta":1441,"ãģ":1442,"arent":1443,"Ġspec":1444,"urg":1445,"Ġtrans":1446,"Ġimm":1447,"ĠÂ·":1448,"ĠIll":1449,"cumque":1450,"ĠK":1451,"oria":1452,"iorem":1453,"Ġsive":1454,"Ġvoluptatem":1455,"Ġsignific":1456,"Ġdisp":1457,"ĠQuis":1458,"ffect":1459,"umquam":1460,"itiam":1461,"Ġyou":1462,"irm":1463,"Ġcup":1464,"Ġsoc":1465,"Ġdub":1466,"ang":1467,"Ġliber":1468,"ĠAb":1469,"ebant":1470,"ĠPat":1471,"ĠOmn":1472,"ies":1473,"Ġoper":1474,"Ġuna":1475,"Ġrect":1476,"iles":1477,"âĢĿ":1478,"ilius":1479,"Ġideo":1480,"ĠCiv":1481,"arii":1482,"odie":1483,"ĠAl":1484,"ivers":1485,"Ġost":1486,"ationis":1487,"alem":1488,"ĠMa":1489,"eres":1490,"Ġomnem":1491,"Ġmater":1492,"Ġsui":1493,"ĠCaes":1494,"Ġopus":1495,"tem":1496,"Ġaequ":1497,"itio":1498,"ĠTh":1499,"ver":1500,"ht":1501,"Ñģ":1502,"Ġon":1503,"Ġauct":1504,"Ġtunc":1505,"Ġnostra":1506,"ĠAp":1507,"Ġdeus":1508,"Ġgrav":1509,"Ġfuisse":1510,"ectum":1511,"14":1512,"Ġhe":1513,"ane":1514,"Ġoppid":1515,"uo":1516,"Ġipsi":1517,"Ġwas":1518,"ĠâĢľ":1519,"Ġtamquam":1520,"Ġnostrum":1521,"Ġsimul":1522,"ani":1523,"ount":1524,"Ġsuis":1525,"Ġdies":1526,"eque":1527,"enit":1528,"Ġomnino":1529,"Ġfuerit":1530,"jus":1531,"so":1532,"Ġaedific":1533,"Ð½":1534,"Ġpon":1535,"Ġsumus":1536,"erint":1537,"ach":1538,"ĠAnno":1539,"nam":1540,"ĠIes":1541,"Ġtuae":1542,"ĠGerman":1543,"Ġratione":1544,"Ġquomodo":1545,"Ġadi":1546,"ĠSanct":1547,"Ġdon":1548,"Ġcumque":1549,"Ġquant":1550,"ĠSic":1551,"arem":1552,"itudo":1553,"Ġvoluptas":1554,"Ġpater":1555,"Ġterram":1556,"Ġmov":1557,"asse":1558,"ric":1559,"Ġdem":1560,"Ġdist":1561,"Ġregn":1562,"uerit":1563,"Ġnatus":1564,"Ġnemo":1565,"imum":1566,"ulos":1567,"Ġdedit":1568,"issime":1569,"Ġepiscop":1570,"xit":1571,"arium":1572,"Ġcontin":1573,"Ġitaque":1574,"Ã©":1575,"Ġbona":1576,"issimum":1577,"Et":1578,"Ġdiff":1579,"crip":1580,"lo":1581,"Ġmet":1582,"Ġmagna":1583,"bul":1584,"uet":1585,"inae":1586,"ebam":1587,"Ġfactus":1588,"Ġscripta":1589,"iz":1590,"ĠZ":1591,"odem":1592,"ano":1593,"ider":1594,"anum":1595,"Ġthat":1596,"ĠIo":1597,"Ġpossimus":1598,"Ġverba":1599,"Ġadd":1600,"Ġsing":1601,"Ġexs":1602,"libus":1603,"ĠFoederat":1604,"ung":1605,"Ġuti":1606,"Ġloqui":1607,"tere":1608,"Ġcan":1609,"Ġhac":1610,"Ġluc":1611,"anus":1612,"lar":1613,"Ġli":1614,"ilicet":1615,"Ġparte":1616,"18":1617,"Ġdet":1618,"Ġult":1619,"Ġnoc":1620,"13":1621,"ma":1622,"te":1623,"idunt":1624,"Ġquantum":1625,"Ġpor":1626,"atae":1627,"Ġhominem":1628,"Ġratio":1629,"ĠEcclesiae":1630,"tr":1631,"Ġmil":1632,"Ġperfect":1633,"Ġcreatus":1634,"Ġprod":1635,"Ġquorum":1636,"Ġanima":1637,"hilos":1638,"ales":1639,"Ġpraecip":1640,"Ġvoluptate":1641,"In":1642,"ĠIuli":1643,"%)":1644,"Ġquaest":1645,"ena":1646,"uxta":1647,"Ġmalum":1648,"ÑĢ":1649,"inus":1650,"hilosoph":1651,"Ġcontr":1652,"emb":1653,"Ġscilicet":1654,"Ġinquam":1655,"Ġfit":1656,"lia":1657,"Ġdictum":1658,"ĠPl":1659,"Ġscient":1660,"Ġperson":1661,"Ġeffic":1662,"Ġmodi":1663,"Ġtrib":1664,"reg":1665,"ĠAmericae":1666,"num":1667,"itatu":1668,"ave":1669,"Ġessent":1670,"Ġdolor":1671,"Ġaudi":1672,"iorum":1673,"uri":1674,"Ġunivers":1675,"Ġecclesiae":1676,"Ġfer":1677,"ĠFranciae":1678,"11":1679,"Ġpac":1680,"Ġaliqua":1681,"andi":1682,"Ġantiqu":1683,"ua":1684,"vi":1685,"Ġquic":1686,"icam":1687,"Ġadvers":1688,"Ġduo":1689,"19":1690,"Ġlibero":1691,"Ð»":1692,"Ġtrad":1693,"Ġcond":1694,"Ġvult":1695,"entium":1696,"ibile":1697,"Ġdico":1698,"ĠHic":1699,"Ġverbum":1700,"ĠFrancicum":1701,"15":1702,"averunt":1703,"Ġarg":1704,"Ġdum":1705,"Ġvet":1706,"Ġearum":1707,"ĠquÃ¦":1708,"Ġmon":1709,"Ġprius":1710,"Ġpossess":1711,"Ġinven":1712,"plic":1713,"ĠReg":1714,"Ġanimi":1715,"Ġprimo":1716,"aus":1717,"Ġ{":1718,"Ġelig":1719,"Ġmir":1720,"),":1721,"Ġ%)":1722,"abit":1723,"ĠEr":1724,"Ġfal":1725,"Ġmulto":1726,"Ġch":1727,"Ġutrum":1728,"Ġconsul":1729,"Ġdebet":1730,"lis":1731,"ime":1732,"Ġinveni":1733,"Ġed":1734,"lex":1735,"Ġquisquam":1736,"Ġcomitatus":1737,"Ġvenit":1738,"Ġlingua":1739,"ivi":1740,"Ġsa":1741,"Ġmand":1742,"Ġhunc":1743,"Ġdici":1744,"Ġnecesse":1745,"16":1746,"Ġhabit":1747,"Ġpostea":1748,"ĠEst":1749,"Ġmot":1750,"ĠSp":1751,"Ġmelius":1752,"Ġcomitatu":1753,"Ġanimo":1754,"Ġobs":1755,"iatur":1756,"Ġhaud":1757,"Ġrationem":1758,"Ġeiusdem":1759,"terea":1760,"ĠDomini":1761,"ĠItaque":1762,"erbum":1763,"Ġpulch":1764,"Ġlic":1765,"Ġannos":1766,"Ġfin":1767,"ebatur":1768,"Ġrespond":1769,"Anglice":1770,"na":1771,"Ġeas":1772,"Ġcel":1773,"Ġamp":1774,"endam":1775,"Ġeadem":1776,"Ġart":1777,"onis":1778,"utum":1779,"Ġexplic":1780,"Ġsequitur":1781,"Ġfamili":1782,"Ġphilosoph":1783,"ĠPro":1784,"Ġgenere":1785,"ĠCount":1786,"Ġhabeat":1787,"Ġaetern":1788,"17":1789,"mo":1790,"Ġnol":1791,"ulp":1792,"Ġsecund":1793,"Ġmiser":1794,"Ġtert":1795,"urus":1796,"Ġrev":1797,"ĠCan":1798,"Ġipsam":1799,"Ġarbit":1800,"Ġspir":1801,"ĠÃ":1802,"Ġinstit":1803,"Ġhodie":1804,"ĠNihil":1805,"Ġimag":1806,"Ġfilium":1807,"ĠRomae":1808,"ypt":1809,"red":1810,"Ġref":1811,"ĠCounty":1812,"cur":1813,"Ġall":1814,"ationes":1815,"Ġscire":1816,"Ġtuo":1817,"Ġreprehend":1818,"Ġecce":1819,"ation":1820,"uti":1821,"abat":1822,"Ġexemp":1823,"ates":1824,"ĠAnt":1825,"ilio":1826,"Ġfide":1827,"ĠCivitatibus":1828,"ĠPh":1829,"ebit":1830,"Ġamet":1831,"qui":1832,"Ġcr":1833,"Ġcoll":1834,"hib":1835,"Ġtur":1836,"Ġiuxta":1837,"Ġdicunt":1838,"Ġuel":1839,"Ġredd":1840,"ĠFoederatis":1841,"onem":1842,"icip":1843,"idi":1844,"Ġlocum":1845,"ivit":1846,"ico":1847,"Ġsoluta":1848,"Ġcausam":1849,"Ġdomus":1850,"ys":1851,"Ġlae":1852,"Ġwith":1853,"Ġmeo":1854,"ĠÂ«":1855,"Ġpossumus":1856,"ce":1857,"Ġeodem":1858,"Ġillam":1859,"alia":1860,"Ġbre":1861,"ĠPost":1862,"Ġprof":1863,"icis":1864,"ĠPrae":1865,"anda":1866,"Ġtempora":1867,"Ġsermon":1868,"Ġcorporis":1869,"ĠChrist":1870,"22":1871,"inta":1872,"ĠId":1873,"Ġperm":1874,"ke":1875,"Ġbib":1876,"Ġparv":1877,"....":1878,"itudinem":1879,"quis":1880,"ĠAeg":1881,"Ġscript":1882,"Ġcogitat":1883,"?\"":1884,"uis":1885,"Ġgaud":1886,"ensis":1887,"arius":1888,"Ġpraest":1889,"Ġprofect":1890,"Ġminima":1891,"Ġunus":1892,"Ġhominis":1893,"uetud":1894,"Ġdicuntur":1895,"Ġhabe":1896,"Ġcirca":1897,"ĠAli":1898,"ign":1899,"Ġdiss":1900,"ident":1901,"Ġnaturae":1902,"ĠIsrah":1903,"ĠIsrahel":1904,"Ġ.":1905,"erim":1906,"Ġalic":1907,"Ġang":1908,"Ġoportet":1909,"uic":1910,"lim":1911,"ĠSc":1912,"\"\\\"\\\"\\\"\\\"\\\"\\\"\\\"\\":1913,"let":1914,"Ġprom":1915,"Ġso":1916,"ons":1917,"Ġatt":1918,"Ġaliquo":1919,"Ġprima":1920,"Ġimpedit":1921,"Ġpecuniam":1922,"ich":1923,"ario":1924,"Ġdicam":1925,"ĠNunc":1926,"Ġepist":1927,"eh":1928,"onium":1929,"endit":1930,"essit":1931,"ĠAnglice":1932,"Ġnegot":1933,"ĠĠĠĠĠĠĠĠĠĠĠĠĠĠĠĠ":1934,"la":1935,"Ġcal":1936,"Ġquamquam":1937,"itates":1938,"Ġ2000":1939,"Ġmanu":1940,"21":1941,"ento":1942,"Ġlocutus":1943,"Ġhuman":1944,"Ġlect":1945,"Ġdicendum":1946,"ox":1947,"ulg":1948,"Ġdixi":1949,"acob":1950,"Ġdicimus":1951,"Ġdolore":1952,"ispan":1953,"Ġauctor":1954,"Ġdep":1955,"Ġfaciam":1956,"ĠThe":1957,"Ġconsuetud":1958,"Ġoptio":1959,"Ġejus":1960,"Ġfinem":1961,"Ġveniam":1962,"elim":1963,"mod":1964,"ulae":1965,"Ġdicens":1966,"Ġerunt":1967,"Ġdomu":1968,"Ġcust":1969,"etis":1970,"Ġessentia":1971,"idem":1972,"Ġlux":1973,"antium":1974,"Ġipsius":1975,"Ġdict":1976,"Ġcop":1977,"Ġsex":1978,"Ġerr":1979,"Ġaccep":1980,"Ġav":1981,"Ġmeae":1982,"Ġdiffic":1983,"Ġ20":1984,"Ġmortem":1985,"ĠAegypt":1986,"ures":1987,"ãĥ":1988,"ĠCur":1989,"istis":1990,"Ġsept":1991,"Ġterrae":1992,"land":1993,"erant":1994,"Ġthey":1995,"\",":1996,"Ġdil":1997,"ĠChristi":1998,"modi":1999,"art":2000,"Ġdei":2001,"Ġdiu":2002,"ĠÂ§":2003,"Ġexistim":2004,"Ġ&":2005,"Ġumquam":2006,"iri":2007,"Ġclar":2008,"Ð¾Ð":2009,"Ġrecip":2010,"ĠIm":2011,"ros":2012,"Ġadv":2013,"Ġmei":2014,"ok":2015,"Ġhost":2016,");":2017,"ĠEgo":2018,"Ġaliquando":2019,"Ġlege":2020,"Ġcerte":2021,"Ġvell":2022,"andae":2023,"Ġmagnam":2024,"Ġsimil":2025,"rob":2026,"itionem":2027,"Ġlicet":2028,"Ġdiem":2029,"Ġpugn":2030,"Ġeligendi":2031,"Ġvidentur":2032,"ress":2033,"\\/":2034,"Ġhominibus":2035,"Ġplaceat":2036,"Ġpol":2037,"Ġlo":2038,"ĠIos":2039,"Ġmagist":2040,"Ġnaturam":2041,"Ġdelect":2042,"Ġglor":2043,"Ġiuris":2044,"Ġbellum":2045,"Ġtecum":2046,"ĠSt":2047,"Ġincip":2048,"eph":2049,"Ġtabulat":2050,"Ġsupra":2051,"Ġmy":2052,"ĠPet":2053,"Ġvera":2054,"Ġgenus":2055,"Ġuxorem":2056,"XX":2057,"iarum":2058,"Ġvig":2059,"ereb":2060,"ĠInt":2061,"Ġsalut":2062,"uere":2063,"Ġeff":2064,"Ġpotestate":2065,"anu":2066,"our":2067,"liae":2068,"Ġreper":2069,"Ġ22":2070,"Ġpauc":2071,"par":2072,"issima":2073,"Ġpopulo":2074,"nis":2075,"Ġseu":2076,"Ġpropri":2077,"Ġterr":2078,"Ġcorpus":2079,"Ġsper":2080,"Ġdeinde":2081,"ĠCar":2082,"ĠMag":2083,"Ġaliter":2084,"itu":2085,"Ġmi":2086,"Ġindic":2087,"issent":2088,"Ġhonest":2089,"Ġhad":2090,"Ġtotum":2091,"Ġalio":2092,"Ġmultis":2093,".,":2094,"Ġdesc":2095,"ĠNov":2096,"Ġproxim":2097,"Ġmodum":2098,"ixit":2099,"ĠIesus":2100,"cus":2101,"Ġcong":2102,"ipisc":2103,"Ġposset":2104,"Ġvitam":2105,"Ġnob":2106,"imur":2107,"Ġ23":2108,"Ġaccid":2109,"Ġreprehenderit":2110,"ron":2111,"Ġdim":2112,"Ġperv":2113,"ĠPer":2114,"ren":2115,"eces":2116,"ĠCat":2117,"Ġmeli":2118,"âĢĻ":2119,"Ġlibert":2120,"Ġfugiat":2121,"Ġuid":2122,"Ġpartes":2123,"Ġvocem":2124,"Ġtuis":2125,"Ġ2009":2126,"rac":2127,"Ġvelim":2128,"Ġquot":2129,"ĠEp":2130,".)":2131,"Ġpae":2132,"Ġopin":2133,"uncta":2134,"ĠIudae":2135,"Ġcupid":2136,"ain":2137,"Ġsucc":2138,"ioeces":2139,"Ġpotentia":2140,"eram":2141,"aliter":2142,"Ġuno":2143,"20":2144,"ĠAs":2145,"ĠErgo":2146,"Ġport":2147,"Ġquaerat":2148,"Ġsumma":2149,"embris":2150,"28":2151,"50":2152,"Ġmundum":2153,"Ġmitt":2154,"Ġipsis":2155,"Ġmaius":2156,"Ġsuscip":2157,"athol":2158,"ulam":2159,"Ġalien":2160,"andem":2161,"Ġmultum":2162,"Ġcogitari":2163,"Ġequ":2164,"Ġnunt":2165,"abitur":2166,"23":2167,"Ġlac":2168,"accur":2169,"ĠAut":2170,"ĠNec":2171,"Ġquidam":2172,"Ġ24":2173,"Ġwe":2174,"Ġfuerunt":2175,"Ġiudicium":2176,"ni":2177,"uss":2178,"ict":2179,"accurate":2180,"ecto":2181,"ebus":2182,"Ġnim":2183,"Ġdo":2184,"Ġaliae":2185,"Ġhabeo":2186,"Ð°Ð":2187,"iuntur":2188,"Ġpriv":2189,"Ġfaciunt":2190,"Ġlibro":2191,"Ġputo":2192,"Ġfrater":2193,"Ġdisput":2194,"26":2195,"Ġpass":2196,"Ġinim":2197,"Ġfur":2198,"Ġalii":2199,"Ġpraed":2200,"Ġcorr":2201,"Ġforte":2202,"Ġgratiam":2203,"Ġsaid":2204,"rent":2205,"uld":2206,"Ġsuos":2207,"ĠQuo":2208,"ĠQuia":2209,"Ġvolo":2210,"III":2211,"Ġarbitr":2212,"Ġrog":2213,"Ġfortasse":2214,"Ġiterum":2215,"Ġpublica":2216,"Ġdefin":2217,"24":2218,"ugn":2219,"ãĤ":2220,"inct":2221,"atu":2222,"Ġpropos":2223,"Ġmanus":2224,"pet":2225,"ond":2226,"entus":2227,"Ġadipisc":2228,"Ġthem":2229,"Ġtemporibus":2230,"Ġtabula":2231,"Ġteneb":2232,"pr":2233,"erus":2234,"atibus":2235,"Ġculp":2236,"Ġfere":2237,"Ġperic":2238,"epta":2239,"Ġfruc":2240,"Ġmemor":2241,"Ġprovincia":2242,"Ġrecte":2243,"Ġquaecumque":2244,"Ġfecisti":2245,"Ġlabore":2246,"Ġquicquam":2247,"ulorum":2248,"Ġpuer":2249,"ĠUnde":2250,"Ã¡":2251,"Ġeffect":2252,"uris":2253,"Ġiuv":2254,"ariae":2255,"ĠDor":2256,"issimus":2257,"Ġopera":2258,"Ġ194":2259,"'s":2260,"25":2261,"ened":2262,"Ġutil":2263,"Ġpostquam":2264,"het":2265,"oni":2266,"Ġperd":2267,"irum":2268,"tu":2269,"Ġ<":2270,"Ġcas":2271,"Ġmori":2272,"ioni":2273,"ĠAug":2274,"Ġ26":2275,"Ġoratio":2276,"iit":2277,"natus":2278,"Ġ;":2279,"Ġare":2280,"Ġno":2281,"antes":2282,"Ġalias":2283,"Ġ199":2284,"Nam":2285,"Ġ/":2286,"Ġaest":2287,"ĠNeque":2288,"Ġdomo":2289,"erentur":2290,"anae":2291,"izard":2292,"ras":2293,"Ġq":2294,"Ġnar":2295,"Ġmecum":2296,"Ġnondum":2297,"Ġincidunt":2298,"hen":2299,"rb":2300,"Ġaff":2301,"itationem":2302,"ĠLib":2303,"ĠHispan":2304,"Ġviri":2305,"ĠSpir":2306,"Ġmiss":2307,"Ġvi":2308,"ĠDav":2309,"ensi":2310,"Ġusus":2311,"Ġlud":2312,"ĠHi":2313,"Ġpopulum":2314,"Ġgratia":2315,"othy":2316,"Ġfuturum":2317,"Ġaug":2318,"Ġini":2319,"Ġquodam":2320,"Ġfacile":2321,"Ġquibusdam":2322,"Ġpopulus":2323,"annes":2324,"ifest":2325,"Ġped":2326,"oss":2327,"abis":2328,"Ġdiebus":2329,"Ġpotuit":2330,"Ġaliquod":2331,"Ġhomine":2332,"Ġdam":2333,"Ġiac":2334,"Ġfem":2335,"Ġgest":2336,"Ġannis":2337,"Ġass":2338,"Ġpertinet":2339,"rag":2340,"erd":2341,"tare":2342,"Ġ25":2343,"Ġtestim":2344,"Ġla":2345,"Ġfacti":2346,"Ġlocus":2347,"Ġpuell":2348,"Ġsententia":2349,"Ġrespondit":2350,"Ġnesciunt":2351,"Ġvalde":2352,"30":2353,"ood":2354,"Ġeu":2355,"erimus":2356,"rec":2357,"Ġhos":2358,"ilem":2359,"libet":2360,"Ġcoram":2361,"Ġnullum":2362,"Ġcogno":2363,"Ġsequi":2364,"Ġson":2365,"Ġdeum":2366,"Ġanni":2367,"itudine":2368,"Ġfortun":2369,"endus":2370,"ĠGal":2371,"Ġinterrog":2372,"Ġvivere":2373,"Ġlinguam":2374,"lus":2375,"Ġsor":2376,"icem":2377,"Ġfoed":2378,"ĠSept":2379,"Ġvidere":2380,"Ġsane":2381,"Ġverbis":2382,"Ġlitteras":2383,"aretur":2384,"lam":2385,"Ġpret":2386,"ese":2387,"Ġagere":2388,"Ġsententiae":2389,"ru":2390,"ial":2391,"Ġlev":2392,"ionum":2393,"Ġsuas":2394,"Ġ28":2395,"Ġscriptum":2396,"Ġurbe":2397,"Ġextra":2398,"Ġsin":2399,"Ġcast":2400,"Ġambul":2401,"ĠVerbum":2402,"ĠEtiam":2403,"Ġforma":2404,"ĠWizard":2405,"Ġra":2406,"itiis":2407,"Ġfig":2408,"Ġsaeculo":2409,"Ġconiunct":2410,"Ġnav":2411,"Ġmerc":2412,"Ġveh":2413,"Ġiuc":2414,"Ġpublicae":2415,"ĠAugust":2416,"ĠDavid":2417,"icorum":2418,"Ġhor":2419,"Ġret":2420,"Ġads":2421,"iscum":2422,"Ġmaiores":2423,"Ġpatrem":2424,"Ġscrips":2425,"ĠDomine":2426,"Ġrepell":2427,"Ġintellect":2428,"antibus":2429,"ĠVol":2430,"Ġnostri":2431,"Ġdid":2432,"ĠAc":2433,"ĠPa":2434,"ĠNum":2435,"ostol":2436,"Ġmulti":2437,"Ġurbem":2438,"Ġdivis":2439,"Num":2440,"Non":2441,"olog":2442,"Ġdivers":2443,"The":2444,"pici":2445,"Ġta":2446,"Ġrelin":2447,"Ġmeis":2448,"Ġlinguae":2449,"Ġmundo":2450,"Ġoppidum":2451,"Ġdis":2452,"ulit":2453,"itati":2454,"Ġperf":2455,"eperunt":2456,"ked":2457,"Ġaux":2458,"Ġnasc":2459,"Ġetsi":2460,"Ġvers":2461,"Ġessem":2462,"issimi":2463,"Ġdux":2464,"ĠâĢĵ":2465,"Ġcompos":2466,"ania":2467,"endis":2468,"Ġwere":2469,"Ġpartem":2470,"Ġpraesens":2471,"Ġcaelum":2472,"Ġhered":2473,"Ġodio":2474,"ĠProv":2475,"quir":2476,"itae":2477,"Ġaccepit":2478,"yr":2479,"ola":2480,"Ġillos":2481,"ares":2482,"ĠÂ»":2483,"uisse":2484,"qua":2485,"Ġhuic":2486,"Ġpopuli":2487,"Ġtota":2488,"Ġconveni":2489,"Ġjust":2490,"Ġullam":2491,"Ġexspect":2492,"29":2493,"âĢ¦":2494,"Ġanimae":2495,"Ġcura":2496,"rip":2497,"amur":2498,"Ġrelig":2499,"Ġadf":2500,"ĠCl":2501,"Ġvideb":2502,"Ġarch":2503,"Ġ30":2504,"Ġvideatur":2505,"ense":2506,"ulator":2507,"ĠPom":2508,"ines":2509,"usc":2510,"Ġpal":2511,"Ġle":2512,"Ġfiliis":2513,"Ġoff":2514,"Ġmanifest":2515,"Ġcorpore":2516,"Ġmulier":2517,"Ġsust":2518,"Ġfabul":2519,"ĠII":2520,"ĠDec":2521,"Ġmemoria":2522,"Ġsociet":2523,"pi":2524,"anis":2525,"Ġbonorum":2526,"Ġnullo":2527,"Ġ2011":2528,"Ġadhib":2529,"Ġignor":2530,"Ġparum":2531,"eth":2532,"Ġlum":2533,"ĠIacob":2534,"Ġhabuit":2535,"Ġpatris":2536,"onte":2537,".'":2538,"Ġfre":2539,"endere":2540,"Ġpossid":2541,"Ġlabor":2542,"urr":2543,"Ġ27":2544,"ertim":2545,"Ġorient":2546,"Ġstatim":2547,"nit":2548,"Ġtut":2549,"Ġsch":2550,"Ġmundus":2551,"Ðº":2552,"Ñĥ":2553,"Ġaffect":2554,"Ġfore":2555,"enus":2556,"elli":2557,"ĠDic":2558,"ĠPrim":2559,"ectetur":2560,"Ġthis":2561,"Ġdixerunt":2562,"Ġnostro":2563,"fac":2564,"rorum":2565,"enn":2566,"unquam":2567,"Ġrefer":2568,"ĠIp":2569,"ariis":2570,"Ġaudire":2571,"Ġlitteris":2572,"uram":2573,"idie":2574,"Ġfidem":2575,"33":2576,"eros":2577,"onia":2578,"Ġhist":2579,"ĠIun":2580,"ĠIanu":2581,"Quis":2582,"Quid":2583,"Ġpariatur":2584,"Ġaliquis":2585,"ustr":2586,"Ġculpa":2587,"ĠDorothy":2588,"mus":2589,"rop":2590,"Ġiniqu":2591,"Ġdicis":2592,"Ġ29":2593,"ĠTum":2594,"ĠVid":2595,"Ġbonis":2596,"Ġlegem":2597,"Ġmanum":2598,"orios":2599,"Ġfratres":2600,"27":2601,"Ġcens":2602,"Ġdeo":2603,"iva":2604,"Ġquidquid":2605,"Ġmagni":2606,"Ġmala":2607,"Ġ2010":2608,"Ġnescio":2609,"Ġsubstantia":2610,"Ġalicuius":2611,"pl":2612,"Ġmar":2613,"Ġhort":2614,"ara":2615,"Ġrel":2616,"endae":2617,"Ġarc":2618,"Ġcircum":2619,"Î¿":2620,"oniae":2621,"Ġdare":2622,"Ġvia":2623,"Ġvere":2624,"issem":2625,"Ġaudivi":2626,"Ġamicitia":2627,"Ġpecunia":2628,"pectu":2629,"\",\"":2630,"ry":2631,"ister":2632,"Ġtem":2633,"ack":2634,"Ġuol":2635,"Ġscripsit":2636,"Ġsimplic":2637,"Ġtotam":2638,"ĠAtque":2639,"Ġordin":2640,"Ġdemon":2641,"Ġpossessionem":2642,"ei":2643,"Ġcunct":2644,"Ġmer":2645,"ante":2646,"Ġhabebat":2647,"andam":2648,"Ġsolus":2649,"Ġasper":2650,"Ġcompar":2651,"Ġmilit":2652,"amp":2653,"Ġinde":2654,"ĠNull":2655,"ĠMos":2656,"Ġ21":2657,"Ġboni":2658,"Ġofficia":2659,"Sed":2660,"Ġro":2661,"opt":2662,"Ġuero":2663,"Ġvidit":2664,"Ġregem":2665,"Ġnostris":2666,"ĠLatine":2667,"Ġvalet":2668,"Ġtanta":2669,"ho":2670,"ecit":2671,"Ġnonne":2672,"Ġquamvis":2673,"Ġanimam":2674,"Ġinvent":2675,"Ġassum":2676,"ĠRomani":2677,"Ġmundi":2678,"Ġmateria":2679,"ĠProvinc":2680,"itione":2681,"stat":2682,"Ġconsectetur":2683,"Ġoculis":2684,"Ġsententiam":2685,"quidem":2686,"Ġuxor":2687,"ha":2688,"erg":2689,"Ġquat":2690,"Ġment":2691,"Ġnonn":2692,"Ġbut":2693,"ive":2694,"Ġnumquid":2695,"Ġpraesertim":2696,"eptum":2697,"Ġsaep":2698,"Ġsensus":2699,"Ġprovinciae":2700,"age":2701,"Ġconsum":2702,"Ġsy":2703,"Ġparent":2704,"Ġquaes":2705,"Ġanimus":2706,"Ġfaciat":2707,"Ġfacilis":2708,"Ġregis":2709,"Ġfeci":2710,"Ġturp":2711,"Î±":2712,"umb":2713,"Ġagn":2714,"Ġnat":2715,"Ġvinc":2716,"Ġfel":2717,"abile":2718,"Ġtemporis":2719,"Ġ197":2720,"Ġquisque":2721,"Ġlittera":2722,"'t":2723,"quod":2724,"Ġquar":2725,"Ġhi":2726,"ulc":2727,"000":2728,"Ġnumero":2729,"amen":2730,"Ġha":2731,"Ġ196":2732,"Ġdominus":2733,"--":2734,"32":2735,"ÃŃ":2736,"ute":2737,"ech":2738,"entius":2739,"Ġquaeso":2740,"Ġprophet":2741,"Ġconting":2742,"De":2743,"oh":2744,"rin":2745,"uam":2746,"atores":2747,"ete":2748,"ĠMed":2749,"Ġantea":2750,"ĠLatina":2751,"Ġlaet":2752,"36":2753,"Ġprimus":2754,"Ġdev":2755,"iore":2756,"ĠNe":2757,"Ġscel":2758,"Ġprincipio":2759,"Ġargum":2760,"Ġcustod":2761,"Ġisti":2762,"Ġfund":2763,"ĠCic":2764,"Ġperpet":2765,"Ġpraet":2766,"eps":2767,"Ġcreatur":2768,"abulator":2769,"Ġplacet":2770,"ĠQuamquam":2771,"Ġdiffer":2772,"cript":2773,"gu":2774,"lator":2775,"the":2776,"itam":2777,"Ġcrim":2778,"ĠItem":2779,"ĠDol":2780,"Ġbest":2781,"ĠQua":2782,"uch":2783,"Ġplane":2784,"enique":2785,"Ġisto":2786,"crib":2787,"Ġviam":2788,"Ġvix":2789,"ecim":2790,"ĠEcce":2791,"Ġpossint":2792,"Ġcapt":2793,"Ġfecerit":2794,"Ġduae":2795,"Ġecclesiam":2796,"Ġalterum":2797,"Ġaestim":2798,"Ġiniur":2799,"Ġvac":2800,"Ġlex":2801,"Ġadul":2802,"Ġpotes":2803,"Ġdolores":2804,"ĠUrb":2805,"bulator":2806,"Ġporro":2807,"Ġnati":2808,"queb":2809,"ĠSunt":2810,"Ġdicat":2811,"Ġscio":2812,"Ġfilios":2813,"Ġamplius":2814,"Ġintellectu":2815,"non":2816,"unda":2817,"Ġgener":2818,"ĠâĢĺ":2819,"Ġprincipium":2820,"ĠPater":2821,"quo":2822,"quae":2823,"Ġexper":2824,"ratus":2825,"Ġconsilium":2826,"Ġusu":2827,"Ġpauper":2828,"Ġsalv":2829,"Ġsusc":2830,"Ġproprium":2831,"ĠIoseph":2832,"Ġhave":2833,"Ġcondic":2834,"ĠPar":2835,"Ġcomed":2836,"Ġcivitatis":2837,"Ġdecem":2838,"ontific":2839,"Ġexercitationem":2840,"Ġceteris":2841,"ĠIuda":2842,"az":2843,"eas":2844,"Ġone":2845,"Ġdata":2846,"Ġconced":2847,"ĠEcclesia":2848,"Ġpropria":2849,"rus":2850,"eremus":2851,"Ġsemp":2852,"imi":2853,"ĠSa":2854,"rare":2855,"Ġanimal":2856,"Ġpraesid":2857,"Ġprocess":2858,"Ġutique":2859,"uae":2860,"Ġquare":2861,"ocrat":2862,"ĠCor":2863,"itatum":2864,"Ġaliquem":2865,"Ġtestimonium":2866,"ered":2867,"Ġshe":2868,"Ġph":2869,"ule":2870,"ĠEpic":2871,"Ġvideri":2872,"ight":2873,"Ġ33":2874,"Ġalb":2875,"Ġsignum":2876,"ĠInter":2877,"ĠIanuarii":2878,"iebat":2879,"Ñĭ":2880,"ĠÎ":2881,"Ġtres":2882,"Ġfiat":2883,"Ġvideo":2884,"Ġpartibus":2885,"Ġdistinct":2886,"Haec":2887,"Ġaquam":2888,"Ġvul":2889,"ose":2890,"abatur":2891,"ilibus":2892,"Ġhabemus":2893,"Ġveritatis":2894,"Ġsitum":2895,"Ġvirum":2896,"Ġantequam":2897,"Ġmisit":2898,"ĠBrit":2899,"Ġsubiectum":2900,"Ġostend":2901,"Ġregnum":2902,"Ġutrumque":2903,"eant":2904,"oy":2905,"ãĢ":2906,"abilis":2907,"ĠIam":2908,"Ġpraem":2909,"Ġgrad":2910,"Ġprofic":2911,"ressus":2912,"Ġpecuniae":2913,"Ġaquae":2914,"com":2915,"Ġrestit":2916,"Quod":2917,"Ġamb":2918,"Ġpotestatem":2919,"inti":2920,"Ġceleb":2921,"Ġmus":2922,"Ġtandem":2923,"Ġvim":2924,"eta":2925,"Ġhomini":2926,"Ġnoster":2927,"Ġpostul":2928,"Ġgeneris":2929,"Ġputas":2930,"Ġitem":2931,"Ġtestam":2932,"Ġecclesiast":2933,"Ġfrequ":2934,"ribus":2935,"ind":2936,"ulli":2937,"Ġpert":2938,"ĠQuare":2939,"ĠLuc":2940,"ĠTu":2941,"Ġfilio":2942,"Ġloquor":2943,"Ġpraeses":2944,"Ġurbis":2945,"Ġvoluntatem":2946,"Ġingen":2947,"CC":2948,"].":2949,"Ġbened":2950,"Ġcorde":2951,"Ġasc":2952,"Ġfrom":2953,"cum":2954,"Ġ...":2955,"Ġpere":2956,"Ġtac":2957,"Ġtalis":2958,"Ġfe":2959,"Ġharum":2960,"antia":2961,"ĠAg":2962,"ĠCap":2963,"ĠFac":2964,"Ġstult":2965,"Ġnomina":2966,"Ġtenetur":2967,"Ġcetera":2968,"Ġdubit":2969,"Ġangel":2970,"Ġcommod":2971,"Ġmagnum":2972,"Ġ0":2973,"urre":2974,"aniae":2975,"Ġquaeque":2976,"Ġdepos":2977,"Ġconsec":2978,"Ġamicitiae":2979,"Ġfugit":2980,"Ġvoluntate":2981,"Ġsacerd":2982,"ĠOmnia":2983,"ĠEpiscop":2984,"ĠBritann":2985,"inist":2986,"atorum":2987,"Ġir":2988,"abunt":2989,"Ġfecerunt":2990,"Ġbenefic":2991,"eperit":2992,"Ġcorrupt":2993,"Ġsempiter":2994,"!\"":2995,"Ex":2996,"Ġnunquam":2997,"redi":2998,"eniti":2999,"ĠEn":3000,"ĠCathol":3001,"ĠRh":3002,"ugh":3003,"iret":3004,"Ġcivitate":3005,"itudinis":3006,"ĠIsrae":3007,"201":3008,"à´":3009,"itias":3010,"onom":3011,"Ġfest":3012,"enim":3013,"esimo":3014,"ĠEur":3015,"Ġbland":3016,"Ġalius":3017,"Ġacced":3018,"Ġeleg":3019,"Ġsuscipit":3020,"uisti":3021,"Ġpe":3022,"tav":3023,"Ġplen":3024,"Ġcausae":3025,"Ġ2012":3026,"Ġulla":3027,"ioc":3028,"rib":3029,"Ġau":3030,"Ġpen":3031,"iderat":3032,"averit":3033,"Ġplures":3034,"Ġorb":3035,"Ġdesider":3036,"Ġ2008":3037,"Ġscribere":3038,"Ġhuiusmodi":3039,"iu":3040,"Î½":3041,"Ġque":3042,"atam":3043,"Ġden":3044,"abant":3045,"ĠRes":3046,"Ġconsilio":3047,"Ġtabulato":3048,"Ġactum":3049,"\":\"":3050,"ĠProvincia":3051,"umus":3052,"Ġtra":3053,"orsus":3054,"ĠSal":3055,"sign":3056,"\"\\\"\\\"\\\"\\\"\\\"\\\"\\\"\\\"\\\"\\\"\\\"\\\"\\\"\\\"\\\"\\":3057,"Ġsil":3058,"inqu":3059,"uto":3060,"etiae":3061,"idere":3062,"ĠIt":3063,"ĠDeinde":3064,"Ġbono":3065,"Ġ198":3066,"Ġobl":3067,"Ġgenerat":3068,"Ġofficium":3069,"Ġofficiis":3070,"Ġfutura":3071,"Ġmensis":3072,"Ġprofecto":3073,"iendum":3074,"mat":3075,"Ġmore":3076,"Ġcoepit":3077,"Ġhabes":3078,"Ġquad":3079,"Ġmaiorem":3080,"Ġcommodi":3081,"Ġ36":3082,"Ġvirtus":3083,"Ġalt":3084,"own":3085,"Ġsingul":3086,"ĠImper":3087,"Si":3088,"inibus":3089,"ome":3090,"Ġpoterit":3091,"eruntur":3092,"ĠDomino":3093,"ÐµÐ":3094,"ka":3095,"Ġdorm":3096,"icarum":3097,"iderunt":3098,"Ġpros":3099,"antem":3100,"Ġaliam":3101,"Ġtabulas":3102,"Ġverborum":3103,"Ġelect":3104,"Ġquaeritur":3105,"ĠCaesar":3106,"ĠIulii":3107,"ĠIsrael":3108,"ationibus":3109,"onum":3110,"Ġalium":3111,"ĠVen":3112,"Ġcontem":3113,"Ġlocis":3114,"Ġexped":3115,"Ġdeserunt":3116,"Ġ2007":3117,"dign":3118,"Ġcaelo":3119,"Ġquinque":3120,"ĠPompe":3121,"Ġflum":3122,"Ġsuffic":3123,"Ġens":3124,"Ġhabitat":3125,"ĠLut":3126,"Ġplura":3127,"Ġconsol":3128,"Ġfuisset":3129,"rix":3130,"ade":3131,"iora":3132,"Ġcompl":3133,"Ġvirtute":3134,"Ġindig":3135,"ÑģÑĤ":3136,"Ġsecundo":3137,"Ġrelinqu":3138,"lud":3139,"Ġot":3140,"Ġinu":3141,"Ġtoll":3142,"Ġsep":3143,"Ġfiliae":3144,"ĠOr":3145,"Ġmale":3146,"Ġnota":3147,"Ġoccup":3148,"Ġpraecepta":3149,"ĠArist":3150,"Ġfaciem":3151,"Ġbeatus":3152,"Ġgloriam":3153,"hor":3154,"Ġprud":3155,"Ġconsider":3156,"Ġmali":3157,"Ġprope":3158,"Ġinterp":3159,"adem":3160,"Ġ34":3161,"Ġsermo":3162,"ĠAng":3163,"Ġiudicio":3164,"Ġdedisti":3165,"Ġactu":3166,"Ġelit":3167,"Ġsigna":3168,"Ġexcept":3169,"Ġdomine":3170,"ĠPrinc":3171,"angeli":3172,"Ġanc":3173,"Ġfacult":3174,"ĠMin":3175,"erumque":3176,"Ġarm":3177,"Ġsubs":3178,"Ġcivitatem":3179,"Ġnotare":3180,"Ġiustitiam":3181,"Ġquaerere":3182,"Ġreliqua":3183,"ĠOmnes":3184,"\".":3185,"39":3186,"Ġcib":3187,"Ġcant":3188,"ursus":3189,"ĠSim":3190,"ensum":3191,"Ġpossib":3192,"Ġcredit":3193,"illa":3194,"Ġoptime":3195,"Ġlonge":3196,"iantur":3197,"ps":3198,"Ġdioeces":3199,"uro":3200,"Ġfirm":3201,"Ġby":3202,"ebantur":3203,"Ġveritatem":3204,"Ġquaerit":3205,"Ġminor":3206,"Ġtria":3207,"Ġcivitas":3208,"Ġmaxima":3209,"retur":3210,"Ġscribis":3211,"Ġsummum":3212,"ĠGermaniae":3213,"¿½":3214,"ï¿½":3215,"Ġ?":3216,"Ġdatur":3217,"icula":3218,"iamus":3219,"Ġscit":3220,"Ġsola":3221,"Ġsecum":3222,"Ġlegatus":3223,"Ġspect":3224,"Ġsenatus":3225,"Ġerror":3226,"abam":3227,"ala":3228,"Ġalios":3229,"Ġopere":3230,"Ġnostram":3231,"ittle":3232,"Ġclam":3233,"Ġiusto":3234,"Ġinfin":3235,"Ġextrem":3236,"ĠCons":3237,"Ġpolit":3238,"ĠEurop":3239,".[":3240,"37":3241,"Ġinst":3242,"imae":3243,"old":3244,"Ġdex":3245,"ĠEs":3246,"ĠAf":3247,"aginta":3248,"ĠMat":3249,"Ġoperat":3250,"Ġ39":3251,"ĠDominum":3252,"Ġiudices":3253,"ĠRomanae":3254,"ĠAtt":3255,"Ġconvers":3256,"modum":3257,"apt":3258,"Ġiter":3259,"Ġhas":3260,"Ġrelic":3261,"iliter":3262,"Ġpossim":3263,"ĠLa":3264,"Ġunius":3265,"Ġsolv":3266,"Ġpatre":3267,"Ġ185":3268,"Ġconfirm":3269,"Ġiustitiae":3270,"Ġformam":3271,"Ġfacies":3272,"Ġtabern":3273,"35":3274,"åİ":3275,"reat":3276,"Ġvend":3277,"Ġgoth":3278,"Ġapostol":3279,"Ġminist":3280,"Ġ195":3281,"Ġconcess":3282,"Ġiustus":3283,"Ġpluribus":3284,"leg":3285,"olis":3286,"udi":3287,"Ġfacilius":3288,"Ġtheir":3289,"Ġessentiam":3290,"Ġputamus":3291,"uxit":3292,"Ġdefend":3293,"Ġoperam":3294,"Ġbrev":3295,"Ñĩ":3296,"arn":3297,"ĠSto":3298,"ĠCal":3299,"ilii":3300,"Ġetiamsi":3301,"Ġipsorum":3302,"Ġsollic":3303,"Ġwill":3304,"Ġoculi":3305,"other":3306,"Ġeveni":3307,"Ġnecessitatibus":3308,"Ġgothica":3309,"tis":3310,"Î¹":3311,"errim":3312,"Ġnata":3313,"imis":3314,"ĠSec":3315,"Ġdiceret":3316,"ĠRe":3317,"Ġunam":3318,"âĢĶ":3319,"Ġori":3320,"ille":3321,"ĠJim":3322,"Ġcael":3323,"Ġsapientia":3324,"Ġobserv":3325,"Ġx":3326,"aed":3327,"Ġdenique":3328,"Ġillae":3329,"Ġtuas":3330,"ĠMihi":3331,"Ġout":3332,"Ġscripsi":3333,"Ġrepet":3334,"Ġdixitque":3335,"Ã¦c":3336,"Ġcirciter":3337,"Ġbeatae":3338,"Ġadiuv":3339,"Ġfidei":3340,"Ġiucund":3341,"pp":3342,"Ġsh":3343,"ame":3344,"ĠSam":3345,"Ġgentes":3346,"Ġpatet":3347,"ĠSancti":3348,"Ġultra":3349,"Ġscientia":3350,"Ġcupiditate":3351,"ci":3352,"out":3353,"ÏĦ":3354,"ars":3355,"Ġdelic":3356,"ĠAcc":3357,"ĠPot":3358,"obus":3359,"Ġipsos":3360,"Ġvenerunt":3361,"Ġpraesentium":3362,"Ġservus":3363,"Ġyour":3364,"Ġeget":3365,"Ġimperator":3366,"Ġabsol":3367,"Ġvirtutis":3368,"struct":3369,"Ġfructum":3370,"Ġvehem":3371,"ge":3372,"isit":3373,"ota":3374,"ote":3375,"issimo":3376,"Ġservi":3377,"Ġfides":3378,"Ġdoctr":3379,"Ġdelectus":3380,"Ġaperiam":3381,"Ġspecies":3382,"ĠMaii":3383,"Ñı":3384,"Ġfiunt":3385,"ĠUbi":3386,"Ġobi":3387,"Ġnullam":3388,"Ġparticip":3389,"Ġiustitia":3390,"Ġsuspic":3391,"Ġquanto":3392,"Ġexplicabo":3393,"Ġproficisc":3394,"hat":3395,"su":3396,"Ġort":3397,"liv":3398,"Ġpron":3399,"Ġlittle":3400,"ĠIII":3401,"ĠTer":3402,"ĠGen":3403,"ressi":3404,"ĠRomana":3405,"Ġfratrem":3406,"Ġglad":3407,"ĠMart":3408,"Ġodit":3409,"ĠIlle":3410,"Ġadversus":3411,"Ġmiseric":3412,"Ġsuccess":3413,"tuor":3414,"åİ¿":3415,"05":3416,"rig":3417,"Ġsomn":3418,"Ġcult":3419,"Ġsedes":3420,"Ġcad":3421,"ĠTur":3422,"Ġprohib":3423,"Ġintra":3424,"Ġcommend":3425,"ĠInf":3426,"Ġusum":3427,"Ġappar":3428,"Ġactus":3429,"Ġlitterae":3430,"Ġsapientiae":3431,"Ġrevert":3432,"Ġdemonst":3433,"circ":3434,"Ġlig":3435,"itium":3436,"emur":3437,"utis":3438,"abantur":3439,"ĠPol":3440,"Ġup":3441,"Ġincom":3442,"Ġeaque":3443,"Ġproport":3444,"Ġmorte":3445,"Ġscriptor":3446,"Ġtotius":3447,"Ġpublicam":3448,"Ad":3449,"uus":3450,"uimus":3451,"à«":3452,"erta":3453,"atim":3454,"onae":3455,"Ġmoribus":3456,"ipp":3457,"ĠPers":3458,"Ġlegit":3459,"Ġdomi":3460,"alium":3461,"Ġrecus":3462,"Ġnocte":3463,"Ġmelior":3464,"34":3465,"uas":3466,"uisset":3467,"ä¸":3468,"eribus":3469,"Ġfa":3470,"Ġexter":3471,"Ġconserv":3472,"ubern":3473,"Ġ37":3474,"Ġannorum":3475,"Ġgenera":3476,"Ġdeduc":3477,"eam":3478,"ximus":3479,"Ã¢":3480,"ĠQ":3481,"Ġsoli":3482,"ites":3483,"Ġprorsus":3484,"Ġpraeterea":3485,"ĠPis":3486,"ellum":3487,"ertum":3488,"ertur":3489,"âĢī":3490,"Ġfilia":3491,"Ġinterfic":3492,"Ġleges":3493,"Ġcommunia":3494,"Ġrecord":3495,"Ġaltera":3496,"ĠChristus":3497,"Ġsalutem":3498,"eatur":3499,"Ġedit":3500,"itter":3501,"Ġcot":3502,"uras":3503,"ĠCol":3504,"Ġsepar":3505,"Ġdiximus":3506,"Ġantep":3507,"Ġsangu":3508,"Ġmalo":3509,"Ġlitterarum":3510,"Ġvestra":3511,"Ġsensu":3512,"Ġmutationem":3513,"Ġappellatur":3514,"Ġmunicip":3515,"Ġloqueb":3516,"Ġhistor":3517,"Ġsaepius":3518,"Ġprocessus":3519,"At":3520,"ogn":3521,"Ġom":3522,"Ġcess":3523,"Ġhorum":3524,"ock":3525,"ĠScip":3526,"Ġillic":3527,"ĠNost":3528,"Ġconsc":3529,"Ġconspectu":3530,"row":3531,"Ġsumpt":3532,"Ġoculos":3533,"Ġimpet":3534,"Ġvocabul":3535,"Ġistud":3536,"Ġcomprehend":3537,"Ġsubstantiae":3538,"Ġadduc":3539,"ria":3540,"ida":3541,"erest":3542,"Quae":3543,"âĢľ":3544,"Ġmortui":3545,"Ġdebent":3546,"Ð¸Ð":3547,"Ġvenire":3548,"Ġsubstantiam":3549,"Ġvelle":3550,"Ġviginti":3551,"piciatis":3552,"uitur":3553,"erius":3554,"Ġaeg":3555,"Ġnem":3556,"Ġdy":3557,"Ġindign":3558,"aecati":3559,"ĠHel":3560,"Ġbonus":3561,"Ġregum":3562,"Ġnostrae":3563,"Ġtract":3564,"Ġ186":3565,"Ġamici":3566,"Ġpraecepit":3567,"Ġconsequuntur":3568,"Ġdeleniti":3569,"Ġducimus":3570,"Ġaqua":3571,"Ġtribun":3572,"Ġfalsum":3573,"Ġsacerdot":3574,"ĀĀ":3575,"Ġz":3576,"erer":3577,"Ġsis":3578,"Ġmente":3579,"able":3580,"abilia":3581,"Ġcondit":3582,"ĠSuper":3583,"Ġperitus":3584,"ella":3585,"Ġplerumque":3586,"Ġaccept":3587,"Ġorn":3588,"Ġmagister":3589,"Ġconclus":3590,"ĠXV":3591,"Ġuniversa":3592,"ould":3593,"Ġent":3594,"Ġturb":3595,"Ġii":3596,"Ġfall":3597,"entr":3598,"olus":3599,"Ġquaeris":3600,"Ġanimum":3601,"ĠOz":3602,"Ġduod":3603,"Ġduas":3604,"ittere":3605,"Ġpueri":3606,"diu":3607,"ĠRomanus":3608,"Ġperspic":3609,"Ġnovum":3610,"ĠItaliae":3611,"Ġepiscopalis":3612,"ĠVolupt":3613,"ierunt":3614,"of":3615,"Ġsese":3616,"ones":3617,"ursum":3618,"utio":3619,"Ġconfic":3620,"Ġillorum":3621,"Ġhabeb":3622,"ĠMo":3623,"ĠMirum":3624,"ĠLeg":3625,"Ġminime":3626,"Ġlegis":3627,"Ġmultae":3628,"Ġelectus":3629,"ermin":3630,"Ġmemin":3631,"Ġfuga":3632,"Ġfactionis":3633,"Ġpoen":3634,"Ġinventore":3635,"',":3636,"ity":3637,"Ġcec":3638,"org":3639,"olae":3640,"ĠMult":3641,"Ġmagno":3642,"ustra":3643,"resc":3644,"Ġlegibus":3645,"deo":3646,"issimos":3647,"Ġ40":3648,"Ġtrig":3649,"Ġdedi":3650,"Ġlaborum":3651,"Ġnovi":3652,"Ġmemb":3653,"Ġabsc":3654,"Ġpeccatum":3655,"ĠAliquam":3656,"ĠRhod":3657,"ns":3658,"rius":3659,"vent":3660,"itor":3661,"Ġnub":3662,"Ġmont":3663,"Ġvox":3664,"Ġire":3665,"Ġhim":3666,"Ġline":3667,"Ġuir":3668,"Ġvidet":3669,"Ġagit":3670,"Ġagitur":3671,"Ġbello":3672,"Ġdiscipuli":3673,"Ġaccusamus":3674,"Ġadminist":3675,"âĢĿ.":3676,"ĠAlp":3677,"Ġmotus":3678,"ĠSpiritus":3679,"Ġquattuor":3680,"31":3681,"48":3682,"natur":3683,"way":3684,"Ã¨":3685,"ÏĤ":3686,"Ġur":3687,"atore":3688,"Ġmom":3689,"Ġty":3690,"utionem":3691,"Ġif":3692,"Ġhae":3693,"iac":3694,"Ġpraef":3695,"ĠPontific":3696,"ecti":3697,"Ġuerbum":3698,"Ġvides":3699,"Ġproeli":3700,"Ġ38":3701,"Ġnominis":3702,"Ġoccas":3703,"Ġjudic":3704,"Ġalterius":3705,"ĠZeb":3706,"Ġpersonae":3707,"Ġterrarum":3708,"Ġpaene":3709,"Ġinterpret":3710,"circo":3711,"Ġos":3712,"Ġexig":3713,"Ġpercip":3714,"Ġpraepos":3715,"ĠNo":3716,"Ġinteg":3717,"Ġimped":3718,"Ġvocatur":3719,"ĠâĢ¢":3720,"ĠComm":3721,"Ġaccipere":3722,"Ġmedio":3723,"Ġpacem":3724,"Ġproprie":3725,"PD":3726,"ga":3727,"ĠY":3728,"Ġmentem":3729,"Ġretin":3730,"sel":3731,"Ġdig":3732,"issa":3733,"ĠFilius":3734,"Ġpatri":3735,"Ġ35":3736,"ientia":3737,"Ġnullus":3738,"Ġoccult":3739,"Ġmoll":3740,"Ġcertum":3741,"Ġaetate":3742,"ĠXX":3743,"ĠProp":3744,"Ġpaenit":3745,"Ġpereg":3746,"ĠCatholicae":3747,"ueris":3748,"Ġdur":3749,"Ġsci":3750,"Ġamore":3751,"Ġaliquot":3752,"ravit":3753,"ĠIllud":3754,"ĠIoannes":3755,"Ġspiritus":3756,"ĠÂ»Â»":3757,"Ġassumenda":3758,"Ġmisericord":3759,"da":3760,"erere":3761,"Ġnoli":3762,"rect":3763,"Ġtit":3764,"ĠIst":3765,"eles":3766,"Ġperfic":3767,"ĠRuss":3768,"Ġfuerint":3769,"Ġspes":3770,"Ġvoluptatum":3771,"Ġcaeli":3772,"Ġcogitare":3773,"Ġimago":3774,"Ġlectorum":3775,"Ġfructus":3776,".âĢĿ":3777,"Ġquarum":3778,"Ġpres":3779,"Ġinqu":3780,"ĠCuius":3781,"Ġuoc":3782,"erte":3783,"Ġviro":3784,"Ġistis":3785,"icumque":3786,"Ġactio":3787,"Ġwhen":3788,"namicus":3789,"Ġfalsa":3790,"ĠPrimum":3791,"Cum":3792,"au":3793,"Ġquum":3794,"Ġpig":3795,"Ġgubern":3796,"ĠQuint":3797,"ensio":3798,"ĠMan":3799,"Ġvolumus":3800,"ponitur":3801,"Ġmagnus":3802,"Ġverbo":3803,"Ġnotae":3804,"Ġscribam":3805,"Ġlaborios":3806,"ĠGraeci":3807,"ĠZen":3808,"Ġartific":3809,"Ġadipiscing":3810,"men":3811,"sent":3812,"Ġuit":3813,"Ġsat":3814,"atorem":3815,"ona":3816,"Ġmilia":3817,"aculum":3818,"Ġsuff":3819,"ĠDem":3820,"Ġcoep":3821,"Ġsita":3822,"Ġamor":3823,"ĠFeb":3824,"Ġoratione":3825,"Ġfiliorum":3826,"Ġinterdum":3827,"Ġ187":3828,"Ġcivitates":3829,"Ġdecre":3830,"Ġepiscopus":3831,"Ġcondita":3832,"Ġtertio":3833,"Ġsustin":3834,"Ġagnosc":3835,"44":3836,"Hoc":3837,"ppe":3838,"Ġaf":3839,"Ġcern":3840,"Ġmerit":3841,"emor":3842,"enis":3843,"ibulum":3844,"Ġadeo":3845,"Ġdierum":3846,"Ġfacie":3847,"raph":3848,"ectae":3849,"Ġloquuntur":3850,"Ġoblig":3851,"Ġinvicem":3852,"Ġcommunis":3853,"Ġdiscess":3854,"ĠÐ¿":3855,"Ġfiduc":3856,"Ġpatria":3857,"Ġcolleg":3858,"ĠĠĠĠĠĠĠĠĠĠĠĠĠĠĠĠĠĠĠĠĠĠĠĠĠĠĠĠĠĠĠĠ":3859,"Ġconsuetudium":3860,"ĠPetrum":3861,"Ġtriginta":3862,"'.":3863,"ER":3864,"Ïĥ":3865,"Ġdicatur":3866,"ratum":3867,"ivum":3868,"ĠVel":3869,"ĠVerum":3870,"Ġquaereb":3871,"Ġcontemp":3872,"Ġminister":3873,"issimis":3874,"Ġserm":3875,"Ġmanibus":3876,"ioribus":3877,"Ġsimilis":3878,"Ġmaximum":3879,"Ġgloria":3880,"Ġvoluntas":3881,"Ġtabu":3882,"Ġsignificat":3883,"Ġsermonem":3884,"Ġseptem":3885,"Ġadipisci":3886,"Ġdynamicus":3887,"Ġore":3888,"eras":3889,"isus":3890,"Ġpisc":3891,"Ġvale":3892,"ĠEv":3893,"Ġconstat":3894,"ĠSequ":3895,"Ġquippe":3896,"Ġub":3897,"Ġvidemus":3898,"ellae":3899,"Ġaccess":3900,"lev":3901,"Ġpublicus":3902,"Ġplacuit":3903,"Ġperspiciatis":3904,"Ġconvenit":3905,"ĠAmerica":3906,"Ġblanditiis":3907,"40":3908,"nus":3909,"nae":3910,"Ã³":3911,"Ġsod":3912,"atos":3913,"imentum":3914,"arch":3915,"ole":3916,"Qui":3917,"Ġtempor":3918,"Ġlibri":3919,"Ġ31":3920,"Ġspem":3921,"Ġvoce":3922,"Ġiudicia":3923,"Ġconcup":3924,"Ġcarn":3925,"Ġhonor":3926,"Ġbeatum":3927,"Ġtime":3928,"ĠCaesaris":3929,"laritas":3930,"Ġfortuna":3931,"quaquam":3932,"Lorem":3933,"for":3934,"min":3935,"Ġquoc":3936,"Ġpre":3937,"Ġcentum":3938,"Ġdissim":3939,"Ġfing":3940,"anquam":3941,"abiles":3942,"ĠIust":3943,"ĠPy":3944,"rata":3945,"ectura":3946,"ĠVir":3947,"ertus":3948,"Ġdolorum":3949,"Ġvoluptates":3950,"Ġduos":3951,"Ġ48":3952,"Ġpeculi":3953,"Ġcapit":3954,"Ġoccid":3955,"103":3956,"Ġsaeculum":3957,"Ġordine":3958,"Ġquaestio":3959,"Ġalbum":3960,"ĠInferi":3961,"IV":3962,"plex":3963,"ÑĮ":3964,"Ġquoddam":3965,"ĠEl":3966,"Ġdicentes":3967,"Ġgr":3968,"Ġscimus":3969,"Ġabund":3970,"ĠTemp":3971,"Ġquaero":3972,"Ġnihilo":3973,"Ġintr":3974,"admodum":3975,"Ġloci":3976,"ioris":3977,"Ġduobus":3978,"Ġdeclar":3979,"Ġoccident":3980,"Ġconvert":3981,"Ġdomino":3982,"Ġvictor":3983,"Ġordinem":3984,"Ġadversum":3985,"Ġparva":3986,"Ġdamn":3987,"Sa":3988,"bat":3989,"man":3990,"utem":3991,"ĠAlex":3992,"Ġgreg":3993,"obiscum":3994,"ĠNumquam":3995,"Ġhabetur":3996,"ĠMet":3997,"Ġabi":3998,"ĠBo":3999,"Ġexpet":4000,"Ġtoto":4001,"Ġfratribus":4002,"Ġabsque":4003,"Ġpraecipue":4004,"Ġfamiliae":4005,"Ġarbitror":4006,"Ġrepellendus":4007,"Ġadulesc":4008,"Ġdistinctio":4009,"Ar":4010,"Ut":4011,"cta":4012,"ous":4013,"rit":4014,"Ġá":4015,"Ġdap":4016,"Ġinitio":4017,"Ġtale":4018,"arc":4019,"ĠDuo":4020,"ings":4021,"Ġmultos":4022,"Ġimprob":4023,"ugg":4024,"Ġamicus":4025,"Ġitin":4026,"Ġvivit":4027,"Ġmatrem":4028,"Ġvideantur":4029,"Ġvisum":4030,"Ġvestrum":4031,"Ġdignum":4032,"asti":4033,"ĠOmnis":4034,"Ġorientalis":4035,"Ġdapibus":4036,"46":4037,"modo":4038,"tae":4039,"vol":4040,"Ġ*":4041,"icos":4042,"Ġiub":4043,"Ġlap":4044,"abor":4045,"now":4046,"ĠNemo":4047,"Ġrid":4048,"Ġcontro":4049,"ĠIns":4050,"Ġinvid":4051,"Ġappet":4052,"Ġintellectus":4053,"Ġcredo":4054,"Ġoppos":4055,"ariant":4056,"led":4057,"Ġâ":4058,"ĠÑģ":4059,"ins":4060,"onius":4061,"Ġventur":4062,"anti":4063,"ĠSy":4064,"Ġfaciet":4065,"enses":4066,"Ġpossis":4067,"Ġanimad":4068,"Ġsponte":4069,"Ġvoluptatibus":4070,"Ġimpl":4071,"Ġimposs":4072,"Ġdebeat":4073,"Ġ46":4074,"Ġ189":4075,"eptus":4076,"Ġnecessaria":4077,"Ġsapientiam":4078,"Ġlucem":4079,"Ġpulchra":4080,"Ã«":4081,"Ïģ":4082,"inarum":4083,"onus":4084,"ement":4085,"lium":4086,"liam":4087,"Ġhodi":4088,"arb":4089,"econom":4090,"Ġprot":4091,"Ġrequir":4092,"Ġfaceret":4093,"Ġnequaquam":4094,"ultus":4095,"Ġistam":4096,"Ġdivid":4097,"ureka":4098,"Ġoccurr":4099,"Ġpraeced":4100,"Ġinsip":4101,"Ġuxore":4102,"Ġsancti":4103,"Ġexercitus":4104,"Ġstudio":4105,"Ġullo":4106,"Ġfactae":4107,"Ġdetermin":4108,"trib":4109,"Ġhosp":4110,"Ġlaboriosam":4111,"Ġsermone":4112,"rud":4113,"Ġhuc":4114,"ibilis":4115,"ĠIV":4116,"Ġsuav":4117,"ĠDixit":4118,"Ġbl":4119,"ĠQuomodo":4120,"Ġcould":4121,"ensa":4122,"Ġhabens":4123,"ĠMich":4124,"undem":4125,"Ġuer":4126,"Ġupon":4127,"Ġidcirco":4128,"Ġov":4129,"Ġour":4130,"Ġ45":4131,"Ġasked":4132,"Ġamicum":4133,"Ġamicis":4134,"ĠâĢĶ":4135,"ĠMarc":4136,"Ġheres":4137,"Ġspecie":4138,"Ġquanta":4139,"Ġeduc":4140,"Ġpropriet":4141,"Ġnobiscum":4142,"Ġcasu":4143,"Ġuolunt":4144,"Ġcunctis":4145,"ĠFebru":4146,"38":4147,"IT":4148,"lina":4149,"null":4150,"Ġqualis":4151,"utae":4152,"anam":4153,"abuntur":4154,"Ġexhib":4155,"Ġsee":4156,"Ġquoad":4157,"ĠFl":4158,"Ġconsili":4159,"ĠGall":4160,"Ġdixisti":4161,"Ġpati":4162,"Ġnumerus":4163,"Ġsimili":4164,"Ġsimile":4165,"Ġ47":4166,"Ġistum":4167,"Ġexcell":4168,"Ġoptimum":4169,"Ġpatribus":4170,"Ġinvenire":4171,"Ġsermonum":4172,"Ġhabeant":4173,"Ġepistulam":4174,"Ġsimiliter":4175,"ĠLutetiae":4176,"eunt":4177,"sc":4178,"Ġå":4179,"indic":4180,"Ġcuncta":4181,"Ġadmon":4182,"ace":4183,"Ġconstant":4184,"iliae":4185,"Ġquidquam":4186,"Ġuerum":4187,"Ġolim":4188,"Ġpropterea":4189,"Ġfuerat":4190,"incidunt":4191,"ught":4192,"Ġappare":4193,"Ġpaulo":4194,"Ġpatriam":4195,"ĠApr":4196,"Ġcogitatione":4197,"ĠEuropae":4198,"??":4199,"Datum":4200,"Ill":4201,"bor":4202,"nunt":4203,"rot":4204,"Ã®":4205,"Îµ":4206,"Ġaeque":4207,"rep":4208,"anos":4209,"ulas":4210,"aced":4211,"ople":4212,"ĠSu":4213,"ĠQuoniam":4214,"Ġveritate":4215,"Ġamare":4216,"Ġinto":4217,"Ġinterest":4218,"Ġwould":4219,"Ġinterret":4220,"ĠOct":4221,"Ġnumerum":4222,"Ġtrist":4223,"Ġnotum":4224,"sumus":4225,"Ġgratiae":4226,"Ġsequuntur":4227,"Ġcognoscere":4228,"Ġwhich":4229,"ĠÃ¥":4230,"Ġcongreg":4231,"ĠIunii":4232,"49":4233,"Ġnatum":4234,"Ġmalis":4235,"urn":4236,"Ġany":4237,"ĠCont":4238,"Ġhaberet":4239,"Ġvidebatur":4240,"round":4241,"Ġliberi":4242,"Ġ32":4243,"enire":4244,"Ġaudit":4245,"Ġquemadmodum":4246,"Ġcivitatibus":4247,"Ġvehementer":4248,"Ġmollitia":4249,"86":4250,"by":4251,"oque":4252,"Ġtincidunt":4253,"Ġvobiscum":4254,"omet":4255,"une":4256,"Ġdeorum":4257,"Ġaliorum":4258,"ĠPic":4259,"ĠQuem":4260,"ĠNomen":4261,"Ġthere":4262,"Ġrursus":4263,"avitque":4264,"Ġdebitis":4265,"itten":4266,"Ġ180":4267,"ĠâĢ¦":4268,"Ġeloqu":4269,"Ġmotum":4270,"Ġauctoritate":4271,"Ġpollic":4272,"Ġarchit":4273,"Ġcontrovers":4274,"200":4275,"Ita":4276,"me":4277,"vert":4278,"Ġeat":4279,"Ġquale":4280,"Ġmare":4281,"Ġinn":4282,"Ġbapt":4283,"Ġpraeb":4284,"issum":4285,"ĠTro":4286,"ĠFort":4287,"Ġpleb":4288,"ĠVale":4289,"Ġlibris":4290,"ĠInc":4291,"ĠRomam":4292,"Ġtabulis":4293,"Ġgratias":4294,"Ġnova":4295,"Ġmolestias":4296,"Ġprincipes":4297,"ĠSanctum":4298,"Ġquicquid":4299,"ĠPraeterea":4300,"Th":4301,"irat":4302,"king":4303,"inn":4304,"abilem":4305,"Ġbr":4306,"estas":4307,"Ġveritas":4308,"ellus":4309,"Ġsolet":4310,"Ġacceper":4311,"Ġmodus":4312,"Ġstip":4313,"Ġdoloribus":4314,"Ġcausis":4315,"Ġservum":4316,"Ġpraecept":4317,"Ġsapiente":4318,"Ġtanto":4319,"Ġmunus":4320,"Ġscientiae":4321,"Ġpriusquam":4322,"Ġspiritum":4323,"ĠChristo":4324,"ĠNulla":4325,"ful":4326,"usquam":4327,"Ġcathol":4328,"Ġfab":4329,"idum":4330,"iab":4331,"abili":4332,"antis":4333,"ald":4334,"ĠSum":4335,"ĠSit":4336,"ĠSem":4337,"ĠSol":4338,"Ġvidi":4339,"Ġidque":4340,"Ġprog":4341,"Ġparia":4342,"ĠVer":4343,"Ġinterf":4344,"ientes":4345,"atoris":4346,"ponere":4347,"Ġvitium":4348,"Ġtabulae":4349,"Ġcapite":4350,"Ġfratre":4351,"ĠItalia":4352,"inister":4353,"Ġdilect":4354,"Ġeffectum":4355,"Ġrepellat":4356,"Ġlumen":4357,"ĠCicer":4358,"ĠAlexand":4359,"verunt":4360,"Ġequidem":4361,"inas":4362,"Ġcat":4363,"lio":4364,"Ġador":4365,"Ġconstruct":4366,"Ġpraetor":4367,"ĠNos":4368,"Ġpositum":4369,"ebo":4370,"Ġsolo":4371,"Ġard":4372,"ĠOm":4373,"Ġrepudi":4374,"Ġpopul":4375,"ĠAthen":4376,"Ġquaerimus":4377,"Ġingeni":4378,"Ġpoena":4379,"ĠAlb":4380,"Ġinvenitur":4381,"Ġmemoriae":4382,"Ġcorrupti":4383,".]":4384,"iem":4385,"å¸":4386,"ices":4387,"Ġvex":4388,"arg":4389,"arunt":4390,"ulerunt":4391,"edere":4392,"Ġsuorum":4393,"Ġconp":4394,"ĠSch":4395,"Ġperc":4396,"Ġpraev":4397,"ĠLe":4398,"Ġorationem":4399,"Ġlibrum":4400,"Ġlibenter":4401,"ĠOb":4402,"Ġmultip":4403,"Ġprimis":4404,"Ġquemquam":4405,"Ġsemen":4406,"Ġoccaecati":4407,"Ġactionem":4408,"Ġconven":4409,"Ġsapiens":4410,"Ġreliquit":4411,"Ġvirtutem":4412,"Ġsubiecto":4413,"Ġregni":4414,"Ġexemplum":4415,"Ġprofess":4416,"ĠChristum":4417,"ĠAegypti":4418,"Ġmissus":4419,"ĠAcadem":4420,"Ġparentes":4421,"lare":4422,"met":4423,"pat":4424,"Ġedic":4425,"Ġprec":4426,"Ġfun":4427,"lid":4428,"Ġdefic":4429,"isses":4430,"ĠHab":4431,"ĠRep":4432,"Ġrom":4433,"Ġaccidit":4434,"fectum":4435,"fectus":4436,"ientiam":4437,"Ġ190":4438,"ĠRoma":4439,"Ġexpl":4440,"illum":4441,"Ġrecta":4442,"Ġconfus":4443,"Ġfruct":4444,"asset":4445,"Ġaetatis":4446,"Ġdiligenter":4447,"Ġfaciendum":4448,"Ġbeata":4449,"Ġoppido":4450,"Ġaeternum":4451,"ioecesis":4452,"Ġeveniet":4453,"Ġoriunda":4454,"47":4455,"88":4456,"Ġsort":4457,"Ġqual":4458,"orqu":4459,"ides":4460,"ullius":4461,"ialis":4462,"otus":4463,"ĠIdem":4464,"Ġbelli":4465,"Ġdicamus":4466,"Ġviderunt":4467,"ello":4468,"Ġamat":4469,"ĠBut":4470,"ĠBib":4471,"Ġpropon":4472,"Ġdixerit":4473,"Ġfecisse":4474,"Ġloquar":4475,"Ġcommuni":4476,"Ġgenuit":4477,"Ġiudicem":4478,"Ġdivina":4479,"ercule":4480,"Ġdominum":4481,"Ġpoet":4482,"ĠIesu":4483,"Ġpropositum":4484,"Ġpericulo":4485,"Ġsyll":4486,"Ġimpossibile":4487,"ique":4488,"sec":4489,"Â«":4490,"Ã¶":4491,"Ġ)":4492,"eralis":4493,"usque":4494,"Ġpict":4495,"Ġnusquam":4496,"Ġda":4497,"Ġdown":4498,"Ġmend":4499,"Ġvindic":4500,"och":4501,"illi":4502,"ĠCn":4503,"Ġdii":4504,"Ġpossent":4505,"ĠTar":4506,"Ġcub":4507,"Ġconsist":4508,"episcop":4509,"Ġaudiv":4510,"Ġamico":4511,"Ġdiscere":4512,"illam":4513,"Ġdiligit":4514,"Ġpertinere":4515,"Ġadmitt":4516,"Ġlign":4517,"Ġdifficult":4518,"Ġcognovit":4519,"ĠDecembris":4520,"ĠUrbs":4521,"ĠItal":4522,"ĠOctob":4523,"Iac":4524,"ak":4525,"mi":4526,"aepe":4527,"Ġmense":4528,"Ġinp":4529,"Ġinius":4530,"Ġaddit":4531,"agina":4532,"atura":4533,"irl":4534,"Ġscis":4535,"Ġabiit":4536,"ĠLab":4537,"Ġamant":4538,"Ġdixisset":4539,"Ġaudivit":4540,"Ġmagnific":4541,"Ġscribit":4542,"Ġjam":4543,"ĠArch":4544,"Ġsanctum":4545,"Ġsaeculi":4546,"ĠAmeric":4547,"Ġpertinent":4548,"Ġmors":4549,"ĠKal":4550,"Ġdispos":4551,"Ġcrud":4552,"Ġspero":4553,"Ġexpedita":4554,"lu":4555,"Ġdat":4556,"Ġinsign":4557,"Ġtw":4558,"Ġvulg":4559,"ariam":4560,"ions":4561,"undo":4562,"ĠLig":4563,"Ġerud":4564,"Ġerga":4565,"ĠTex":4566,"Ġliberis":4567,"Ġcuiusquam":4568,"Ġpraeteritum":4569,"ĠJoh":4570,"Ġprovident":4571,"Ġnegleg":4572,"Ġformae":4573,"ĠGraeciae":4574,"iosum":4575,"Ġkitten":4576,"Ġoperibus":4577,"ĠMaxim":4578,"Ġcontraria":4579,"Ġmirum":4580,"Ġliceat":4581,"Ġprofectus":4582,"Ġcustodi":4583,"ĠIpsum":4584,"Ġcreatura":4585,"Ġdexter":4586,"Ġconcupisc":4587,"Ġhodiern":4588,"Est":4589,"rom":4590,"Ãª":4591,"Ġiura":4592,"ĠIbi":4593,"ĠSocrat":4594,"ĠQuibus":4595,"Ġpoterat":4596,"Ġnef":4597,"Ġquadam":4598,"Ġoeconom":4599,"ressa":4600,"Ġorig":4601,"Ġrege":4602,"Ġtribus":4603,"Ġsancta":4604,"Ġamicos":4605,"Ġamicitiam":4606,"Ġcuique":4607,"rammat":4608,"Ġinfirm":4609,"Ġcaritas":4610,"Ġdoct":4611,"Ġvisus":4612,"ĠLatin":4613,"ĠLatinam":4614,"Ð¾Ð»":4615,"Ġimperium":4616,"Ġlaudantium":4617,"Ġstatu":4618,"Ġflag":4619,"Ġplurimum":4620,"Ġporta":4621,"ĠIulius":4622,"Ġalienum":4623,"Ġauxilium":4624,"Ġpeople":4625,"But":4626,"Mont":4627,"ek":4628,"iepiscop":4629,"mis":4630,"sh":4631,"ï¼":4632,"Ġ=":4633,"Ġfinis":4634,"enc":4635,"oduct":4636,"acta":4637,"Ġcondem":4638,"Ġperhib":4639,"Ġfacio":4640,"Ġpraepar":4641,"Ġvery":4642,"Ġuis":4643,"Ġnex":4644,"ĠVest":4645,"Ġintent":4646,"Ġreges":4647,"atoribus":4648,"iori":4649,"Ġcompet":4650,"Ġ2006":4651,"Ġconfit":4652,"Ġpraeclar":4653,"Ġsummam":4654,"Ġintellegere":4655,"Ġstudium":4656,"Â».":4657,"Ġferre":4658,"Ġsecunda":4659,"Ġperven":4660,"erusalem":4661,"Ġdidic":4662,"Ġaspernatur":4663,"ĠRespon":4664,"ĠAlpibus":4665,"100":4666,"eorg":4667,"Î»":4668,"Ġpess":4669,"icta":4670,"Ġviae":4671,"Ġhora":4672,"arth":4673,"una":4674,"Ġlaus":4675,"ĠEureka":4676,"Ġquamdiu":4677,"ĠServ":4678,"Ġbec":4679,"Ġgra":4680,"ĠNorm":4681,"ebas":4682,"ĠHodie":4683,"Ġvoluit":4684,"ĠVal":4685,"Ġcommemor":4686,"ove":4687,"Ġsemel":4688,"pex":4689,"Ġdivitiae":4690,"Ġapparet":4691,"ĠÐ²":4692,"Ġnamque":4693,"Ġprinceps":4694,"ĠJes":4695,"Ġ2016":4696,"Ġsummo":4697,"Ġever":4698,"Ġingredi":4699,"Ġdoloremque":4700,"Ġaccusantium":4701,"Ġscientiam":4702,"Ġpaucis":4703,"Ġnimis":4704,"Ġnimium":4705,"ĠFebruarii":4706,"Omn":4707,"pa":4708,"sw":4709,"Ãł":4710,"Ġec":4711,"err":4712,"Ġaer":4713,"Ġaur":4714,"ink":4715,"Ġpap":4716,"ory":4717,"imam":4718,"Ġrevers":4719,"Ġdeos":4720,"alt":4721,"Ġdicas":4722,"Ġsciam":4723,"Ġero":4724,"ĠTe":4725,"Ġplant":4726,"Ġtemporum":4727,"Ġesses":4728,"Ġfiliam":4729,"Ġduplic":4730,"ĠRomanum":4731,"Ġfrig":4732,"Ġexercitum":4733,"Ġmetu":4734,"Ġalicui":4735,"Ġgloriae":4736,"Ġpedes":4737,"ĠSeptembris":4738,"Ġpretium":4739,"Ġtradit":4740,",'":4741,"den":4742,"pecta":4743,"Ġaurum":4744,"Ġmisi":4745,"ick":4746,"iculum":4747,"Ġvad":4748,"Ġib":4749,"Ġhinc":4750,"osum":4751,"elis":4752,"endas":4753,"Quam":4754,"Ġfacias":4755,"iturus":4756,"Ġsig":4757,"Ġuerb":4758,"ĠLingu":4759,"Ġregno":4760,"issimae":4761,"Ġtrium":4762,"Ġsanctific":4763,"Ġdonec":4764,"ĠIoh":4765,"Ġlike":4766,"Ġperfectum":4767,"Ġtertium":4768,"Ġincipit":4769,"Ġtestamentum":4770,"Ġcontempl":4771,"lem":4772,"mum":4773,"Ð²":4774,"inia":4775,"Ġcit":4776,"Ġnut":4777,"Ġetc":4778,"Ġioc":4779,"Ġfat":4780,"anem":4781,"ĠDel":4782,"Ġdiut":4783,"estig":4784,"aturum":4785,"ĠQuin":4786,"ĠQuot":4787,"ĠHen":4788,"Ġincred":4789,"ĠBel":4790,"Ġresist":4791,"Ġlegere":4792,"Ġvirg":4793,"ĠAnd":4794,"Ġdesign":4795,"Ġservit":4796,"Ġcaro":4797,"Ġcarnis":4798,"Ġordo":4799,"Ġmulieres":4800,"Ġimmo":4801,"Ġdubium":4802,"Ġrefert":4803,"Ġpermitt":4804,"Ġdifficile":4805,"Ġclaram":4806,"Ġlook":4807,"Ġutilitatem":4808,"Ġcontingit":4809,"ĠPontificatus":4810,"Ġinterrete":4811,"45":4812,"tio":4813,"Ġago":4814,"Ġnupt":4815,"Ġnou":4816,"reicae":4817,"Ġinh":4818,"Ġtalem":4819,"Ġvinum":4820,"ido":4821,"osa":4822,"illim":4823,"ĠErat":4824,"ĠSex":4825,"ĠDuc":4826,"itatio":4827,"Ġpraestant":4828,"iturum":4829,"Ġhabebit":4830,"Ġattin":4831,"Ġpotestas":4832,"Ġcontent":4833,"Ġregio":4834,"Ġlegatum":4835,"Ġfecisset":4836,"Ġagain":4837,"Ġexpugn":4838,"Ġcurae":4839,"Ġiustum":4840,"Ġubique":4841,"Ġglori":4842,"Ġbeen":4843,"Ġvirtutes":4844,"Ġappellantur":4845,"ĠThreicae":4846,"Ġmandata":4847,"Ġauctoritatem":4848,"Ġhonestum":4849,"Ġeffectus":4850,"Ġlumine":4851,"ĠNostri":4852,"Ġpiglet":4853,"uggy":4854,"å¸Ĥ":4855,"59":4856,"Franc":4857,"uf":4858,"Ã¼":4859,"ÉĻ":4860,"Ġ}":4861,"Ġsta":4862,"Ġcav":4863,"Ġnow":4864,"stin":4865,"Ġdere":4866,"Ġvari":4867,"Ġiud":4868,"Ġfo":4869,"Ġfav":4870,"elicet":4871,"Ġgirl":4872,"undus":4873,"andus":4874,"Ġeram":4875,"Ġtex":4876,"Ġconsent":4877,"ĠBor":4878,"Ġintu":4879,"Ġarb":4880,"ientem":4881,"Ġloca":4882,"Ġobtin":4883,"Ġcuiusque":4884,"Ġdebere":4885,"Ġdebemus":4886,"Ġmortuum":4887,"Ġlatine":4888,"Ġmemoriam":4889,"Ġpuella":4890,"ĠAugusti":4891,"Ġcibum":4892,"41":4893,"],":4894,"din":4895,"eum":4896,"hem":4897,"iebam":4898,"rupt":4899,"Ġæ":4900,"Ġsome":4901,"Ġfine":4902,"aro":4903,"Ġadopt":4904,"actus":4905,"Ġdicant":4906,"ipsum":4907,"Ġfacis":4908,"Ġpraedi":4909,"ĠPor":4910,"Ġgentibus":4911,"Ġamoris":4912,"isci":4913,"ĠBeat":4914,"Ġdebetur":4915,"Ġexprim":4916,"Ġ50":4917,"Ġcognitionem":4918,"Ġreceperunt":4919,"Ġcler":4920,"Ġelem":4921,"Ġpast":4922,"Ð°Ð½":4923,"Ġvestri":4924,"ĠGraece":4925,"Ġofficio":4926,"iosus":4927,"Ġfamilia":4928,"Ġmaiora":4929,"Ġveniunt":4930,"Ġsenect":4931,"Ġwho":4932,"Ġdubio":4933,"ĠCaesarem":4934,"ĠApostol":4935,"Ġoppida":4936,"Ġmetus":4937,"ĠReges":4938,"ĠNovembris":4939,"Ġtenebris":4940,"Ġiuven":4941,"Ġhorse":4942,"ĠNumquid":4943,"Ġrecusandae":4944,"Ġomitt":4945,"ĠHelv":4946,"ĠNormann":4947,"nes":4948,"á½":4949,"Ġeundem":4950,"erae":4951,"Ġnig":4952,"Ġdatum":4953,"utione":4954,"Ġfons":4955,"aring":4956,"otum":4957,"antiam":4958,"Ġsuus":4959,"Ġconcip":4960,"Ġdicebat":4961,"Ġperg":4962,"Ġsiue":4963,"Ġposuit":4964,"ivis":4965,"Ġpotentiam":4966,"Ġvideretur":4967,"Ġnequit":4968,"Ġamo":4969,"Ġorationis":4970,"ientibus":4971,"Ġobliv":4972,"Ġprimam":4973,"Ġ188":4974,"Ġinduc":4975,"Ġceteri":4976,"Ġknow":4977,"Ġtransl":4978,"ĠSicut":4979,"Ġdescend":4980,"Ġlibertatem":4981,"Ġviol":4982,"Ġquarto":4983,"ĠStoici":4984,"ĠRhodano":4985,"Ġarchitecto":4986,"Ġrepudiandae":4987,"?'":4988,"Ch":4989,"Claritas":4990,"Hic":4991,"IX":4992,"Nihil":4993,"burg":4994,"ner":4995,"ze":4996,"Ã´":4997,"isque":4998,"Ġpasc":4999,"Ġcresc":5000,"Ġinm":5001,"Ġtene":5002,"olest":5003,"ĠSyr":5004,"ĠCunt":5005,"Ġaliena":5006,"Ġgentium":5007,"ĠMal":5008,"Ġthan":5009,"Ġincid":5010,"Ġconsult":5011,"ĠVos":5012,"Ġover":5013,"ĠOp":5014,"Ġmanet":5015,"Ġmancip":5016,"Ġsubt":5017,"Ġistius":5018,"ernia":5019,"ograph":5020,"raece":5021,"Ġcredunt":5022,"Ġnegat":5023,"raverunt":5024,"Ġintellego":5025,"Ġdiscipulos":5026,"Ġempt":5027,"arentur":5028,"Ġcruc":5029,"ĠSeptentr":5030,"ĠPiso":5031,"Ġneminem":5032,"Ġsuffrag":5033,"Ġquocumque":5034,"Ġanimadvert":5035,"Ġconstructio":5036,"nic":5037,"pagina":5038,"Ġï¿½":5039,"onam":5040,"Ġtali":5041,"Ġtanquam":5042,"odum":5043,"Ġconu":5044,"Ġexst":5045,"ĠDi":5046,"ĠPhil":5047,"ĠTunc":5048,"ĠVI":5049,"Ġtemplum":5050,"Ġway":5051,"Ġresurre":5052,"riend":5053,"Ġdomest":5054,"Ġactione":5055,"Ġmatrim":5056,"Ġtenere":5057,"Ġsensum":5058,"Ġhumana":5059,"ÐµÐ½":5060,"Ġcognoscit":5061,"Ġdiscipulis":5062,"Ġadmirat":5063,"ĠIlla":5064,"ĠCaesare":5065,"ĠApud":5066,"Ġmilitum":5067,"Ġaeterna":5068,"Ġtertia":5069,"Ġnegotium":5070,"XXX":5071,"Ġrap":5072,"Ġschol":5073,"Ġnonnull":5074,"Ġduodecim":5075,"Al":5076,"ai":5077,"her":5078,"Ø§":5079,"Ġaiunt":5080,"inium":5081,"Ġvan":5082,"ence":5083,"Ġhunt":5084,"asi":5085,"ĠCirc":5086,"Ġtuos":5087,"ĠMont":5088,"undia":5089,"Ġui":5090,"ĠHom":5091,"Ġsolis":5092,"Ġintro":5093,"ĠEtenim":5094,"Ġcord":5095,"Ġpartic":5096,"Ġreman":5097,"Ġclaus":5098,"Ġinfra":5099,"Ġcredere":5100,"ance":5101,"Ġfieret":5102,"annis":5103,"Ġreduc":5104,"ardia":5105,"Ġalteri":5106,"Ġaltero":5107,"Ġvirtutibus":5108,"Ġmedia":5109,"Ġsupplic":5110,"Ġpatriae":5111,"Ġostendit":5112,"Ġproduc":5113,"Ġspiritu":5114,"ĠPraes":5115,"ĠAegypto":5116,"Ġmagistrat":5117,"Ġfoedus":5118,"Ġpronunt":5119,"Ġloquebatur":5120,"ĠÂ»Â»Â»":5121,"Iacob":5122,"aur":5123,"ail":5124,"lend":5125,"son":5126,"Äģ":5127,"Ġeae":5128,"quire":5129,"itionis":5130,"Ġpud":5131,"ster":5132,"anto":5133,"ĠEum":5134,"ĠSent":5135,"Ġdicendi":5136,"Ġgreat":5137,"ĠVide":5138,"Ġsolent":5139,"Ġspon":5140,"Ġduxit":5141,"Ġvitia":5142,"Ġdesin":5143,"Ġreced":5144,"Ġconfer":5145,"ĠRomanorum":5146,"ĠÐ¸":5147,"ĠÐ½":5148,"Ġcollig":5149,"Ġvideamus":5150,"Ġdocet":5151,"Ġglorios":5152,"Ġeven":5153,"Ġegestas":5154,"Ġnecessarium":5155,"Ġdignissimos":5156,"Ġconstitu":5157,"Ġaquas":5158,"Ġmulierem":5159,"Ġpersona":5160,"ĠTheod":5161,"Ġvellet":5162,"Ġproximo":5163,"ĠHispanicum":5164,"Ġnascitur":5165,"ĠVidetur":5166,"Ġconsumm":5167,"Ġfelic":5168,"Ġfrequenter":5169,"ĠTurc":5170,"HE":5171,"ah":5172,"ca":5173,"yl":5174,"Ġaus":5175,"Ġpun":5176,"ater":5177,"onio":5178,"Ġdulc":5179,"unque":5180,"abus":5181,"Ġbuggy":5182,"ipot":5183,"Ġget":5184,"ĠNesc":5185,"undi":5186,"Ġimb":5187,"Ġlibros":5188,"ried":5189,"Ġspe":5190,"Ġimport":5191,"Ġcuiquam":5192,"illae":5193,"Ġintellex":5194,"Ġexcus":5195,"ĠArv":5196,"Ġsanctorum":5197,"Ġaccipi":5198,"Ġignis":5199,"Ġproced":5200,"Ġconstituta":5201,"Ġquanti":5202,"ĠLibero":5203,"Ġsoror":5204,"Ġsimpliciter":5205,"Ġdifferentia":5206,"ĠSax":5207,"ãĢģ":5208,"ĠSecundum":5209,"ĠMartii":5210,"ĠTexiae":5211,"82":5212,"Hispan":5213,"bo":5214,"duc":5215,"ft":5216,"yri":5217,"Ġ+":5218,"item":5219,"ish":5220,"Ġpell":5221,"aemon":5222,"ors":5223,"anorum":5224,"olo":5225,"Ġutuntur":5226,"Ġsuad":5227,"ĠAustr":5228,"els":5229,"ely":5230,"Ġvidelicet":5231,"ĠLectura":5232,"ĠTusc":5233,"Ġsole":5234,"Ġlegi":5235,"Ġnaturalis":5236,"Ġcommunic":5237,"Ġacta":5238,"Ġpartim":5239,"Ġnominatus":5240,"Ġdeclin":5241,"Ġpuerum":5242,"ĠRomanis":5243,"ĠÐº":5244,"ĠJud":5245,"ĠGraecis":5246,"Ġiussit":5247,"Ġtestis":5248,"Ġreliquum":5249,"Ġpeti":5250,"Ġquaestionem":5251,"quiesc":5252,"Ð¾Ð²":5253,"Ġtenebrae":5254,"ĠCicero":5255,"Ġpenitus":5256,"\"\\\"\\\"\\\"\\\"\\\"\\\"\\\"\\\"\\\"\\\"\\\"\\\"\\\"\\\"\\\"\\\"\\\"\\\"\\\"\\\"\\\"\\\"\\\"\\\"\\\"\\\"\\\"\\\"\\\"\\\"\\\"\\":5257,"Ġadministrat":5258,"ey":5259,"ment":5260,"risti":5261,"tur":5262,"orium":5263,"aribus":5264,"olum":5265,"Ġconst":5266,"ĠSin":5267,"ĠCamp":5268,"ips":5269,"ominus":5270,"ĠHe":5271,"ĠHuius":5272,"ĠFret":5273,"ĠGeorg":5274,"ada":5275,"Ġanimalia":5276,"Ġfecimus":5277,"Ġincolae":5278,"Ġimpos":5279,"Ġ44":5280,"Ġvoluntatis":5281,"iose":5282,"Ġvirtutum":5283,"Ġconiung":5284,"Ġcolloqu":5285,"Ġdilectus":5286,"Ġdimitt":5287,"ĠMoses":5288,"Ġiniuriam":5289,"Ġquadrag":5290,"Ġcotidie":5291,"'m":5292,"56":5293,"70":5294,"][":5295,"do":5296,"dom":5297,"mata":5298,"rium":5299,"we":5300,"erno":5301,"Ġquandam":5302,"atium":5303,"Ġcaec":5304,"aen":5305,"Ġtalia":5306,"olv":5307,"Ġutile":5308,"ĠAene":5309,"ĠSen":5310,"ĠSac":5311,"ĠSab":5312,"ĠDum":5313,"Ġback":5314,"Ġfacto":5315,"ĠPap":5316,"Ġgign":5317,"Ġgood":5318,"ivae":5319,"ĠMC":5320,"Ġpoteris":5321,"Ġpotentiae":5322,"Ġthen":5323,"ĠHeb":5324,"ĠHuic":5325,"Ġvelut":5326,"Ġessentiae":5327,"Ġcommut":5328,"Ġsplend":5329,"ĠNonne":5330,"sequi":5331,"Ġintellectum":5332,"ĠAtqui":5333,"Ġinform":5334,"Ġuxores":5335,"Ġsaltem":5336,"Ġintellegi":5337,"Ġconstituit":5338,"Ġfluv":5339,"ĠAbrah":5340,"ĠPatrem":5341,"ĠSanctus":5342,"ĠPlac":5343,"ationi":5344,"ĠPetrus":5345,"Ġargumentum":5346,"ĠOctobris":5347,"Ġcondemn":5348,"Ġiudex":5349,"hn":5350,"Ġeandem":5351,"icas":5352,"ictus":5353,"Ġvicus":5354,"esper":5355,"ecerunt":5356,"entissime":5357,"anta":5358,"ĠAem":5359,"Ġbarb":5360,"Ġperfer":5361,"Ġgo":5362,"Ġgrammat":5363,"Ġpotuerunt":5364,"Ġabout":5365,"ĠLud":5366,"ĠFuit":5367,"ĠĠĠ":5368,"Ġlocuti":5369,"Ġnumer":5370,"Ġoculus":5371,"Ġoctav":5372,"Ġcausas":5373,"Ġ49":5374,"Ġexpect":5375,"Ġcapere":5376,"Ġamicorum":5377,"Ġactiones":5378,"Ġconfess":5379,"Ġinferi":5380,"Ġcredimus":5381,"Ġnovam":5382,"itiarum":5383,"Ġabsur":5384,"poss":5385,"Ġforo":5386,"Ġprocul":5387,"ĠPatre":5388,"ĠIesum":5389,"Ġcontinentur":5390,"Ġporno":5391,"Ġcelerit":5392,"Ġcolloc":5393,"Ġpericulum":5394,"Ġpalam":5395,"Ġpaupert":5396,"Ġpoliticarum":5397,"Ġafter":5398,"Ġsodalis":5399,"Ġcarnem":5400,"Saint":5401,"Ġsimilique":5402,"Ġappareat":5403,"ĠArvernia":5404,"IC":5405,"VI":5406,"ax":5407,"ef":5408,"ped":5409,"àµ":5410,"atius":5411,"Ġcare":5412,"Ġnud":5413,"entior":5414,"ily":5415,"antiae":5416,"ĠEodem":5417,"Ġbeni":5418,"Ġpercus":5419,"Ġfaciant":5420,"Ġger":5421,"Ġposita":5422,"Ġscand":5423,"ivid":5424,"Ġeiusmodi":5425,"Ġvideat":5426,"ĠLoth":5427,"ĠLev":5428,"ĠRerum":5429,"ubi":5430,"Ġcontend":5431,"Ġsecus":5432,"Ġregi":5433,"ĠOcc":5434,"Ġillumin":5435,"Ġdomini":5436,"Ð¾ÑĤ":5437,"Ġveniat":5438,"Ġmunere":5439,"ĠThom":5440,"Ġsingulis":5441,"Ġprodest":5442,"Ġnolite":5443,"Ġeffug":5444,"Ġtemper":5445,"Ġexcepturi":5446,"Ġinstrum":5447,"Ġdemonstrat":5448,"ĠPicardia":5449,"Pr":5450,"Prae":5451,"ba":5452,"cis":5453,"uerat":5454,"ven":5455,"Ã¤":5456,"ÏĢ":5457,"Ġother":5458,"Ġquint":5459,"Ġcerta":5460,"Ġdile":5461,"Ġmo":5462,"Ġvixit":5463,"Ġfiant":5464,"arer":5465,"uniae":5466,"aci":5467,"ĠAct":5468,"ĠCet":5469,"ĠCui":5470,"ĠDom":5471,"itata":5472,"ebunt":5473,"Ġsever":5474,"Ġpossem":5475,"Ġamitt":5476,"Ġvoluerunt":5477,"ĠBal":5478,"Ġregionem":5479,"Ġmans":5480,"Ġnosse":5481,"Ġrationes":5482,"Ġurbibus":5483,"Ġmaled":5484,"Ġ56":5485,"Ġconcord":5486,"Ġinsula":5487,"Ġresponsum":5488,"ĠGraecos":5489,"Ġiusta":5490,"iosa":5491,"Ġmedium":5492,"Ġprocur":5493,"Ġmenses":5494,"Ġsacram":5495,"ĠAliter":5496,"ĠApoll":5497,"Ġpace":5498,"Ġmira":5499,"Ġlacrim":5500,"Ġnarrat":5501,"Ġfiguras":5502,"Ġperfecta":5503,"Ġrogo":5504,"Ġsempiternum":5505,"ĠNoe":5506,"Ġmultiplic":5507,"Ġattinet":5508,"ĠBoruss":5509,"AT":5510,"OR":5511,"ton":5512,"va":5513,"Åį":5514,"á»":5515,"Ġinest":5516,"Ġvo":5517,"Ġetenim":5518,"ĠAquit":5519,"ĠCr":5520,"Ġbeg":5521,"Ġpotui":5522,"ĠFT":5523,"Ġmaj":5524,"Ġrespic":5525,"rang":5526,"Ġarma":5527,"uliel":5528,"iente":5529,"Ġviris":5530,"Ġdolere":5531,"Ġocto":5532,"Ġration":5533,"Ġurbes":5534,"Ġapplic":5535,"Ġpuero":5536,"Ġdefunct":5537,"Ġbenevol":5538,"Ġnescit":5539,"Ġevangeli":5540,"Ġtranse":5541,"Ġhonore":5542,"Ġhonorem":5543,"Ġ179":5544,"Ġignosc":5545,"Ġoportere":5546,"Ġcanon":5547,"ĠPlat":5548,"numer":5549,"Ġlicebit":5550,"Ġampl":5551,"Ġdescrip":5552,"Ġlacus":5553,"ĠPaulus":5554,"Ġascend":5555,"Ġá¼":5556,"Ġaudivimus":5557,"ĠNormannia":5558,"Hispanice":5559,"79":5560,"@Ą":5561,"Ali":5562,"Post":5563,"pot":5564,"sed":5565,"ä»":5566,"umentum":5567,"Ġster":5568,"Ġnulli":5569,"Ġmox":5570,"Ġmonte":5571,"ary":5572,"Ġleo":5573,"actum":5574,"abimus":5575,"ĠDiet":5576,"Ġmeas":5577,"Ġboy":5578,"itatur":5579,"ĠPraec":5580,"Ġsedis":5581,"ucibus":5582,"Ġthes":5583,"ĠTamen":5584,"iscus":5585,"ustrat":5586,"Ġfui":5587,"Ġliberum":5588,"Ġdixisse":5589,"eniens":5590,"Ġmanere":5591,"Ġsemet":5592,"Ġpraesentia":5593,"Ġputant":5594,"Ġvocant":5595,"Ġsuperb":5596,"Ġdivitias":5597,"Ġdesiderat":5598,"ogall":5599,"ĠJo":5600,"sitan":5601,"Ġcerto":5602,"Ġimperii":5603,"Ġconiug":5604,"ĠConf":5605,"ĠApp":5606,"Ġdistingu":5607,"Ġtribu":5608,"Ġpactum":5609,"Ġvetust":5610,"Ġmotu":5611,"Ġpraestare":5612,"ĠImmo":5613,"Ġsimilitudinem":5614,"Ġmanifestum":5615,"Ġvulgo":5616,"à«¨":5617,"Ġmomenti":5618,"Ġfiducia":5619,"ĠAprilis":5620,"byter":5621,"Ġcrudel":5622,"Ġceleriter":5623,"Ġbenign":5624,"43":5625,"AR":5626,"US":5627,"hon":5628,"mitt":5629,"oec":5630,"pta":5631,"yc":5632,"ÂŃ":5633,"ÌĦ":5634,"ÙĪ":5635,"atto":5636,"Ġcito":5637,"Ġcave":5638,"Ġmentis":5639,"Ġtrah":5640,"aric":5641,"ibilia":5642,"ĠCumque":5643,"ĠDie":5644,"Ġcoeperunt":5645,"ebamus":5646,"Ġverbi":5647,"Ġipsae":5648,"ĠHis":5649,"Ġattrib":5650,"Ġplena":5651,"Ġcreat":5652,"Ġfeceris":5653,"Ġviros":5654,"Ġvenisset":5655,"Ġputa":5656,"Ġvocavit":5657,"Ġcomput":5658,"ĠRomanos":5659,"Ġmiseri":5660,"Ġlongius":5661,"Ġmedioc":5662,"Ġstudia":5663,"Ġintelligi":5664,"Ġintelligere":5665,"Ġpeccata":5666,"Ġimmort":5667,"ĠIulia":5668,"Ġmonst":5669,"ause":5670,"Ġhabeam":5671,"Ġnuntia":5672,"Ġcasus":5673,"Ġgesta":5674,"Ġnavig":5675,"Ġaffectus":5676,"horse":5677,"Ġbaptiz":5678,"ĠOmne":5679,"ĠMCM":5680,"42":5681,"57":5682,"Cur":5683,"IN":5684,"yd":5685,"Åĵ":5686,"Îº":5687,"Ð¿":5688,"äº":5689,"Ġele":5690,"Ġsag":5691,"Ġcentes":5692,"Ġdabo":5693,"orta":5694,"orsum":5695,"enum":5696,"esiae":5697,"unae":5698,"anter":5699,"ela":5700,"Ġbore":5701,"ĠQuir":5702,"ĠMaria":5703,"andis":5704,"Ġ(-":5705,"Ġuen":5706,"Ġcujus":5707,"Ġregionis":5708,"erisque":5709,"Ġloquimur":5710,"Ġinvoc":5711,"Ġprimog":5712,"Ġmagnae":5713,"Ġmagnitudo":5714,"Ġputat":5715,"Ġcursus":5716,"Ġcivium":5717,"Ġecclesiis":5718,"Ġsentire":5719,"ĠFrancicus":5720,"Ġgratis":5721,"Ġclass":5722,"Ġ70":5723,"Ġpersuas":5724,"Ġfrustra":5725,"Ġconviv":5726,"Ġoppugn":5727,"Ġprobare":5728,"ĠMarcus":5729,"Ġordinis":5730,"stru":5731,"Ġwhere":5732,"Ġdisplic":5733,"Ġrectum":5734,"Ġpond":5735,"Ġdemum":5736,"Ġhabitavit":5737,"ĠPostea":5738,"Ġattend":5739,"Ġaccepimus":5740,"Ġhostes":5741,"ĠCatala":5742,"ĠSpiritum":5743,"Ġarchiepiscop":5744,"Ġnatos":5745,"ĠCaput":5746,"ĠEnn":5747,"Ġsubsist":5748,"Ġextremum":5749,"Ġdoctrina":5750,"ET":5751,"Ego":5752,"bl":5753,"sal":5754,"ty":5755,"uerint":5756,"ward":5757,"Ä«":5758,"Ð´":5759,"Ð¼":5760,"ĠÄ":5761,"Ġé":5762,"Ġumb":5763,"atia":5764,"ono":5765,"Ġmatur":5766,"Ġfra":5767,"Ġfrum":5768,"iderit":5769,"Ġadsum":5770,"acium":5771,"Ġutinam":5772,"ious":5773,"ĠSoc":5774,"ĠSaepe":5775,"Ġmeos":5776,"Ġomnipot":5777,"Ġdicendo":5778,"ĠQuando":5779,"ĠNisi":5780,"ĠMulta":5781,"unde":5782,"Ġverius":5783,"ĠLae":5784,"Ġeris":5785,"Ġunquam":5786,"epi":5787,"issimam":5788,"Ġmane":5789,"Ġobt":5790,"remus":5791,"Ġ43":5792,"onto":5793,"dixit":5794,"Ġinsid":5795,"Ġfru":5796,"rehens":5797,"Ġsanctus":5798,"Ġimperio":5799,"Ġingressi":5800,"olia":5801,"Ġdignitate":5802,"Ġexercitu":5803,"pectum":5804,"Ġcupio":5805,"Ġliberos":5806,"Ġmateriae":5807,"Ġtradidit":5808,"Ġrevoc":5809,"ĠAntioc":5810,"ĠPhara":5811,"ĠPhaed":5812,"Ġavar":5813,"Ġfeminae":5814,"Ġdemonstr":5815,"Ġmeridi":5816,"Ġadulter":5817,"ÑģÑĤÐ¸":5818,"ĠPrincess":5819,"Ġinfinitum":5820,"ĠCatalauniae":5821,"rica":5822,"uer":5823,"wh":5824,"Ñħ":5825,"itorum":5826,"amentum":5827,"Ġmuch":5828,"Ġvas":5829,"Ġhere":5830,"ĠhÃ¦c":5831,"ularum":5832,"ĠEz":5833,"ĠDioecesis":5834,"Ġmeorum":5835,"tax":5836,"ĠQuorum":5837,"ilior":5838,"Ġpossibile":5839,"Ġvelis":5840,"Ġru":5841,"ineat":5842,"ully":5843,"aph":5844,"ĠAnglic":5845,"ĠAnnis":5846,"Ġsimilia":5847,"Ġsimplex":5848,"Ġ41":5849,"Ġvenerit":5850,"ĠÐļ":5851,"Ġpraeceptum":5852,"Ġlinguis":5853,"Ð¾ÑĢ":5854,"ferre":5855,"Ġmaioris":5856,"ĠConc":5857,"Ġtantae":5858,"ĠFoederalis":5859,"Ġpersonam":5860,"Ġfamiliar":5861,"Ġrevel":5862,"Ġimaginem":5863,"Ġbibendum":5864,"Ġgaudio":5865,"Ġcalam":5866,"Ġconsuetudo":5867,"Ġopinor":5868,"price":5869,"rinsec":5870,"Ġfaucibus":5871,"60":5872,"fore":5873,"xerunt":5874,"Ġaffic":5875,"ise":5876,"Ġpiet":5877,"Ġna":5878,"Ġnit":5879,"Ġnuper":5880,"Ġmust":5881,"Ġinquis":5882,"utrum":5883,"Ġiunct":5884,"Ġfriend":5885,"entorum":5886,"Ġadu":5887,"ĠEm":5888,"ĠPort":5889,"ĠPublic":5890,"ectio":5891,"irst":5892,"issemus":5893,"Ġvolut":5894,"Ġplan":5895,"ĠVII":5896,"ĠBest":5897,"Ġaccur":5898,"Ġcontum":5899,"Ġcommitt":5900,"rans":5901,"app":5902,"ĠUN":5903,"Ġobiit":5904,"Ġpraesum":5905,"Ġvocari":5906,"stitit":5907,"Ġsicuti":5908,"Ġpopulos":5909,"Ġservos":5910,"Ġgratum":5911,"Ġfratri":5912,"Ġdocuit":5913,"ĠLatinae":5914,"Ġsaecula":5915,"ÐµÑĤ":5916,"Ġlongum":5917,"Ġtanti":5918,"Ġpoeta":5919,"Ġmovetur":5920,"Ġefficitur":5921,"Ġchristi":5922,"Ġmandatum":5923,"Ġpulcherrim":5924,"Ġrespondens":5925,"Ġreddere":5926,"Ġperman":5927,"Ġgaudium":5928,"Ġnegotio":5929,"Ġconsuetudinem":5930,"Ġcopia":5931,"Ġinimic":5932,"Ġpuellae":5933,"Ġmerced":5934,"Ġambig":5935,"Ġcontemn":5936,"ÑĩÐ°":5937,"Ġcaelorum":5938,"Ġproportio":5939,"@Ąą":5940,"ON":5941,"ez":5942,"guis":5943,"mae":5944,"Ġ$":5945,"itos":5946,"Ġcod":5947,"ree":5948,"real":5949,"Ġinop":5950,"orp":5951,"Ġvade":5952,"Ġprodi":5953,"ilitate":5954,"Ġansw":5955,"ĠEph":5956,"ĠCam":5957,"ĠCerte":5958,"Ġtuorum":5959,"Ġvidimus":5960,"Ġveluti":5961,"esset":5962,"Ġmall":5963,"Ġmade":5964,"arios":5965,"ĠBer":5966,"ĠGuliel":5967,"Ġcomment":5968,"Ġnosti":5969,"Ġpraesentem":5970,"Ġvoces":5971,"Ġiudicare":5972,"Ġdesid":5973,"Ġ57":5974,"Ġsentio":5975,"Ġservo":5976,"Ġscribo":5977,"Ġvivunt":5978,"Ġcarne":5979,"Ġdefens":5980,"thag":5981,"ĠConsequ":5982,"Ġpropriam":5983,"ĠPatris":5984,"Ġaudierit":5985,"Ġphilosophus":5986,"ationum":5987,"Ġexemplar":5988,"Ġdisser":5989,"Ġepistula":5990,"Ð¾Ð¼":5991,"Ð°Ð¿":5992,"Ġnarr":5993,"Ġradic":5994,"Ġirr":5995,"Ġpossibilia":5996,"Ġobiectum":5997,"Ġmunicipium":5998,"Tor":5999,"Ġunt":6000,"Ġquicumque":6001,"Ġcam":6002,"empt":6003,"urp":6004,"Ġferm":6005,"arm":6006,"Ġadt":6007,"otae":6008,"ĠAch":6009,"Ġdiceretur":6010,"endos":6011,"Ġhaberi":6012,"ĠMe":6013,"ĠMolest":6014,"Ġapt":6015,"ĠLu":6016,"eritas":6017,"Ġvoluerit":6018,"Ġconsiderat":6019,"Ġrob":6020,"Ġpropinqu":6021,"Ġsubl":6022,"Ġaudac":6023,"Ġagendum":6024,"Ġistae":6025,"Ġcives":6026,"ĠRomano":6027,"Ġingressus":6028,"Ġaccipit":6029,"iensis":6030,"Ġindivid":6031,"Ġmaioribus":6032,"Ġfornic":6033,"Ġadmir":6034,"Ġsubiecta":6035,"Ġaequum":6036,"Ġlucet":6037,"Ġantiqua":6038,"Ġphilosophiae":6039,"Ġdissensio":6040,"ĠAegyptum":6041,"Ġhoneste":6042,"Ġ//":6043,"Ġcastra":6044,"Ġfigura":6045,"Ġiucundum":6046,"ropter":6047,"Ġbeneficium":6048,"ĠImperii":6049,"Ġantepon":6050,"ĠMoys":6051,"Ġpoenam":6052,"Ġquadraginta":6053,"ĠEzech":6054,"67":6055,"Ecce":6056,"du":6057,"mut":6058,"rici":6059,"vel":6060,"Î·":6061,"Ġurg":6062,"Ġaure":6063,"Ġsati":6064,"invent":6065,"Ġpign":6066,"Ġcent":6067,"Ġfont":6068,"lied":6069,"Ġhercule":6070,"Ġquodcumque":6071,"ĠIgitur":6072,"ĠAv":6073,"ĠCant":6074,"Ġgre":6075,"ĠMus":6076,"Ġquoquo":6077,"Ġuide":6078,"Ġuiu":6079,"ĠFab":6080,"Ġaliqui":6081,"Ġconson":6082,"ĠVis":6083,"Ġuni":6084,"Ġintus":6085,"Ġaccom":6086,"Ġnostros":6087,"ientiae":6088,"remo":6089,"Ġsimiles":6090,"Ġ42":6091,"Ġpraesenti":6092,"Ġputet":6093,"uxerunt":6094,"Ġdivin":6095,"Ġcorpora":6096,"Ġ69":6097,"Ġuxoris":6098,"Ġdigna":6099,"Ġbeati":6100,"Ġpetere":6101,"Anno":6102,"Ġveteres":6103,"Ġpossessio":6104,"Ġfals":6105,"Ġartis":6106,"Ġalieno":6107,"Ġ1946":6108,"ĠGalli":6109,"Ġsinist":6110,"ologiae":6111,"Ġnascuntur":6112,"Ġconvenire":6113,"Ġsocietatem":6114,"Ġiniuria":6115,"ĠAristot":6116,"ĠAfric":6117,"Ġperegrin":6118,".:":6119,"Com":6120,"It":6121,"yn":6122,"ĠÅ":6123,"quot":6124,"isiones":6125,"Ġpom":6126,"Ġpontific":6127,"Ġcand":6128,"sti":6129,"Ġtol":6130,"oram":6131,"Ġfung":6132,"Ġhel":6133,"edi":6134,"Ġadeptus":6135,"ilitatis":6136,"ĠCo":6137,"ĠCel":6138,"Ġbis":6139,"Ġfacerem":6140,"nov":6141,"ebis":6142,"Ġversus":6143,"Ġvidisset":6144,"rough":6145,"Ġbonae":6146,"Ġmultas":6147,"Ġduabus":6148,"dict":6149,"Ġmaximam":6150,"entesimo":6151,"ĠÐ´":6152,"Ġtenet":6153,"Ġ2013":6154,"Ġopprim":6155,"Ġprincipia":6156,"Ġsancto":6157,"Ġduce":6158,"Ġnecessario":6159,"Ġbefore":6160,"Ġlonga":6161,"Ġlaudem":6162,"Ġforsitan":6163,"Ġsenatu":6164,"Ġproprio":6165,"Ġmunera":6166,"ĠGermania":6167,"Ġdonum":6168,"Ġproduct":6169,"Ġefficit":6170,"Ġfinibus":6171,"Ġaccepi":6172,"Ġvellem":6173,"renae":6174,"Ġdefinitio":6175,"Ġnouit":6176,"Ġdisper":6177,"Ġlaetitia":6178,"ĠEpicuri":6179,"riusque":6180,"ĠInferiori":6181,"Ġinnoc":6182,"ĠAquitania":6183,"best":6184,"rarum":6185,"ricus":6186,"wn":6187,"Ġë":6188,"ĠÃ¦":6189,"Ġsect":6190,"Ġstare":6191,"itiones":6192,"onii":6193,"Ġtang":6194,"lix":6195,"idium":6196,"entiis":6197,"Ġredem":6198,"acula":6199,"oto":6200,"ilitas":6201,"ĠIap":6202,"ĠEbor":6203,"Ġexaud":6204,"Ġperse":6205,"Ġilluc":6206,"ector":6207,"Ġsciat":6208,"ĠMiss":6209,"Ġquidd":6210,"Ġcome":6211,"ĠHer":6212,"ĠVIII":6213,"Ġmaiorum":6214,"ĠEadem":6215,"ĠBurg":6216,"Ġwor":6217,"âĢĵ":6218,"Ġinteresse":6219,"Ġresid":6220,"Ġliberat":6221,"Ġpatres":6222,"ĠInde":6223,"Ġdoloris":6224,"Ġmansit":6225,"Ġ--":6226,"Ġcommunem":6227,"Ġurbicula":6228,"Ġcivis":6229,"Ġdecern":6230,"Ġ59":6231,"ĠÐ¾":6232,"Ġcolor":6233,"Ġpersec":6234,"Ġpraeterita":6235,"Ġvideor":6236,"Ġconsequi":6237,"Ġpraefectus":6238,"Ġducere":6239,"Ġfaciatis":6240,"Ġfaciebat":6241,"Ġvict":6242,"Ġullum":6243,"Ġconstitutum":6244,"struc":6245,"Ġpraedicatur":6246,"Ġquinqu":6247,"ãģ®":6248,"Ġaequo":6249,"Ġsingula":6250,"Ġperfectio":6251,"Ġexemplo":6252,"ĠPhili":6253,"ĠPostquam":6254,"ĠAss":6255,"Ġcorrig":6256,"product":6257,"ĠIpse":6258,"Ġquartum":6259,"Ġgradus":6260,"Ġperturb":6261,"ĠEsse":6262,"ĠJohn":6263,"ĠPhaedrum":6264,"VIII":6265,"hi":6266,"nde":6267,"tes":6268,"ting":6269,"Ġeb":6270,"Ġsel":6271,"Ġsimus":6272,"Ġpeperit":6273,"onensi":6274,"Ġder":6275,"Ġfast":6276,"enna":6277,"idae":6278,"Ġlectus":6279,"abar":6280,"ĠEius":6281,"ĠAud":6282,"ĠSel":6283,"Ġdicebant":6284,"itatione":6285,"ensem":6286,"Ġhabitus":6287,"ĠMil":6288,"ĠMaced":6289,"Ġpoterunt":6290,"Ġvert":6291,"ĠTert":6292,"ĠTorqu":6293,"Ġincon":6294,"ĠVic":6295,"Ġorta":6296,"Ġrescrip":6297,"ĠOpt":6298,"ĠOffic":6299,"Ġfecerat":6300,"Ġterm":6301,"ugiat":6302,"Ġexpos":6303,"Ġreplied":6304,"Ġoccur":6305,"elium":6306,"elius":6307,"Ġinsulae":6308,"Ġmemini":6309,"Ġsalus":6310,"ĠUnivers":6311,"Ġepiscopi":6312,"Ġcontrario":6313,"Ġturpe":6314,"quisque":6315,"Ġluxur":6316,"âĢĻ.":6317,"Ġdiversa":6318,"âĢ¦]":6319,"Ġdevor":6320,"Ġvuln":6321,"Ġcelebr":6322,"Ġorbem":6323,"ognosc":6324,"Montreal":6325,"ĠJesus":6326,"possibile":6327,"Ġvolutpat":6328,"Toronto":6329,"ES":6330,"Graece":6331,"lant":6332,"lav":6333,"ym":6334,"ymn":6335,"Ð±":6336,"Ġey":6337,"Ġsurg":6338,"Ġquest":6339,"ated":6340,"Ġtard":6341,"Ġvar":6342,"imini":6343,"Ġlorem":6344,"Ġutriusque":6345,"ilitatem":6346,"ĠEquidem":6347,"Ġperi":6348,"ĠPal":6349,"Ġgem":6350,"nox":6351,"Ġhabentur":6352,"ivo":6353,"ĠMerc":6354,"Ġpotens":6355,"Ġpotissimum":6356,"Ġerip":6357,"Ġproi":6358,"Ġconsens":6359,"Ġmay":6360,"Ġmaximus":6361,"ariorum":6362,"igh":6363,"ĠGrat":6364,"Ġaccessit":6365,"Ġminorem":6366,"eniunt":6367,"Ġmultitudinem":6368,"Ġinvestig":6369,"raesent":6370,"Ġcivibus":6371,"Ġnominibus":6372,"Ġdesert":6373,"Ġfortitudo":6374,"Ġconfid":6375,"ĠAth":6376,"Ġiustific":6377,"Ġfratris":6378,"Ġalteram":6379,"Ġaetatem":6380,"Ġsatisfac":6381,"Ġsensibus":6382,"Ġdiscipulus":6383,"Ġdisciplin":6384,"Ġmateriam":6385,"verter":6386,"Ġgravis":6387,"Ġfines":6388,"Ġrespondere":6389,"Ġbrevi":6390,"ulgate":6391,"Ġcongue":6392,"Ġfemina":6393,"ĠGalliae":6394,"ether":6395,"Ġquaesitum":6396,"Ġphys":6397,"Ġministrorum":6398,"ĠOzma":6399,"ĠMichig":6400,"ĠAbraham":6401,"ĠLudov":6402,"ĠLotharing":6403,"Ġprimogen":6404,"51":6405,"80":6406,"AP":6407,"Con":6408,"Man":6409,"cere":6410,"ks":6411,"rid":6412,"ujus":6413,"vm":6414,"á¿":6415,"Ĩĳ":6416,"Ġaere":6417,"itavit":6418,"Ġpurg":6419,"Ġcm":6420,"Ġcame":6421,"Ġmari":6422,"Ġheb":6423,"etum":6424,"ecc":6425,"entu":6426,"acti":6427,"Ġutero":6428,"ĠSus":6429,"Ġcompon":6430,"issis":6431,"averat":6432,"Ġconsilia":6433,"ĠVall":6434,"igit":6435,"ĠBene":6436,"Ġstup":6437,"Ġcorrum":6438,"Ġnumeri":6439,"Ġagam":6440,"Ġpraesc":6441,"Ġhabetis":6442,"Ġdisced":6443,"Ġits":6444,"Ġclari":6445,"Ġformas":6446,"Ġcertus":6447,"Ġnecessitate":6448,"Ġreliquerunt":6449,"Ġdisciplina":6450,"Ġintelligit":6451,"Ġtransf":6452,"ĠCivitatum":6453,"Ġcontinet":6454,"load":6455,"Ġpacto":6456,"Ġobsec":6457,"Ġparvulus":6458,"Ġangust":6459,"Ġaccidens":6460,"ĠHier":6461,"Ġaugue":6462,"Ġvaletud":6463,"Ġcrimen":6464,"Ġcontempt":6465,"Ġantepos":6466,"Ġabscond":6467,"ĠVirg":6468,"Ġoccidentalis":6469,"ĠQuirites":6470,"Ġcontumeli":6471,"Ġanswered":6472,"53":6473,"89":6474,"Dixit":6475,"He":6476,"Lib":6477,"Mar":6478,"be":6479,"co":6480,"ruc":6481,"san":6482,"uos":6483,"Ġearth":6484,"Ġaway":6485,"Ġcen":6486,"Ġdabit":6487,"Ġdial":6488,"Ġmores":6489,"Ġira":6490,"Ġiratus":6491,"Ġfoll":6492,"arus":6493,"olit":6494,"Ġredi":6495,"ĠSil":6496,"ĠDisc":6497,"Ġdicemus":6498,"tavit":6499,"Ġgessit":6500,"Ġeiusque":6501,"averis":6502,"Ġoperis":6503,"ĠRem":6504,"Ġamorem":6505,"ĠTHE":6506,"ĠFal":6507,"Ġpariter":6508,"Ġparoec":6509,"ront":6510,"ĠBon":6511,"Ġwood":6512,"Ġornam":6513,"Ġinterc":6514,"Ġartem":6515,"Ġlegimus":6516,"Ġdolo":6517,"Ġsemin":6518,"Ġdecess":6519,"Ġpup":6520,"Ġ51":6521,"ĠÐĹ":6522,"Ġ76":6523,"Ġmathem":6524,"Ġdocere":6525,"Ġpax":6526,"ĠArg":6527,"Ġsanctae":6528,"Ġtransi":6529,"Ġmutare":6530,"Ġconiuncta":6531,"Ġwhat":6532,"Ġexistimo":6533,"Ð½Ñĭ":6534,"Ġvultis":6535,"Ġampli":6536,"Ġcopiae":6537,"Ġcongru":6538,"Ġpervenit":6539,"Ġequum":6540,"Ġauxili":6541,"Ġmilites":6542,"Ġpraetorem":6543,"ĠEpicurus":6544,"Ġflumen":6545,"Ġcaelest":6546,"Ġtyran":6547,"Ġpresbyter":6548,"ĠAcademiae":6549,"Ġsyllab":6550,"ĠHelvet":6551,"ĠMCML":6552,"ĠUNIT":6553,"Ab":6554,"Nunc":6555,"Prim":6556,"Res":6557,"ik":6558,"vs":6559,"Â§":6560,"æľ":6561,"Ġaustr":6562,"Ġsm":6563,"Ġpeper":6564,"ony":6565,"Ġtales":6566,"Ġvent":6567,"Ġvine":6568,"Ġirac":6569,"enas":6570,"ligo":6571,"ibili":6572,"Ġconl":6573,"ĠCato":6574,"Ġbas":6575,"Ġbro":6576,"ipso":6577,"orumque":6578,"Ġfacimus":6579,"ĠNap":6580,"Ġhabitum":6581,"Ġhabebant":6582,"avimus":6583,"Ġvident":6584,"Ġidone":6585,"ĠRec":6586,"Ġimit":6587,"Ġpotestis":6588,"ĠGu":6589,"Ġterris":6590,"Ġloquetur":6591,"Ġloqueris":6592,"Ġsubito":6593,"Ġmultarum":6594,"Ġinvenit":6595,"ĠâĢĿ":6596,"Ġnomini":6597,"enex":6598,"Ġcomplex":6599,"Ġpublice":6600,"Ġquosdam":6601,"Ġ60":6602,"ĠJos":6603,"Ġ2014":6604,"Ġconsequens":6605,"Ġingred":6606,"Ġdignitatis":6607,"ĠMariae":6608,"ectare":6609,"Ġstudiis":6610,"Ġstudebat":6611,"ĠPrimus":6612,"ĠConstant":6613,"athed":6614,"Ġspeciem":6615,"Ġpulchr":6616,"Ġfamilias":6617,"Ġscriptis":6618,"Ġpraesto":6619,"Ġatting":6620,"Ġmagistratus":6621,"Ġvigil":6622,"Ġdiversis":6623,"Ġsocietas":6624,"Ġingenio":6625,"Ġdext":6626,"ĠQuintus":6627,"ĠInsula":6628,"Ġcontroversia":6629,"Ġfraud":6630,"Ġmathemat":6631,"('":6632,"German":6633,"Int":6634,"Lat":6635,"We":6636,"ase":6637,"alibus":6638,"hy":6639,"iatum":6640,"ject":6641,"mp":6642,"tam":6643,"Äĵ":6644,"çļ":6645,"Ġum":6646,"Ĭ¤":6647,"Ġpanem":6648,"Ġnorm":6649,"Ġinnumer":6650,"Ġvici":6651,"Ġforum":6652,"Ġfundum":6653,"enae":6654,"arit":6655,"ulch":6656,"unicip":6657,"Ġrest":6658,"Ġutitur":6659,"ĠIup":6660,"Ġexpon":6661,"ĠSub":6662,"Ġdicti":6663,"Ġperdit":6664,"itura":6665,"aturus":6666,"Ġcoh":6667,"Ġcount":6668,"omine":6669,"Ġhabui":6670,"ĠMon":6671,"Ġverae":6672,"Ġthese":6673,"ĠReli":6674,"Ġcall":6675,"Ġinclud":6676,"Ġmaiore":6677,"Ġ[âĢ¦]":6678,"Ġregiones":6679,"Ġars":6680,"Ġoculorum":6681,"Ġsubd":6682,"Ġmultitudo":6683,"Ġmortis":6684,"Ġdomibus":6685,"Ġagunt":6686,"Ġtog":6687,"Ġrepugn":6688,"Ġdiscern":6689,"Ġdedic":6690,"Ġmortuo":6691,"Ġdesper":6692,"entesque":6693,"Ġ52":6694,"Ġ54":6695,"Ġcognitione":6696,"Ġmiserum":6697,"isprud":6698,"assus":6699,"Ġvestig":6700,"ĠGraecia":6701,"Ġsensit":6702,"Ġpeto":6703,"aster":6704,"Ġsacra":6705,"ĠQuisque":6706,"Ġhead":6707,"Ġcontinuo":6708,"ember":6709,"Ġmanduc":6710,"Ġepistulae":6711,"Ġfaciamus":6712,"Ġnimirum":6713,"Ġaffirm":6714,"Ġcognovi":6715,"Ġperpetuum":6716,"ĠInterrog":6717,"Ġbenedic":6718,"ĠEpiscopus":6719,"Ġdioecesis":6720,"Ġeditae":6721,"Ġproelio":6722,"ĠEvangeli":6723,"ÑĩÐ°ÑģÑĤÐ¸":6724,"Ġuntil":6725,"ĠÐĹÐ°Ð¿":6726,"'ll":6727,"):":6728,"77":6729,"UM":6730,"VII":6731,"²ł":6732,"åħ":6733,"ìĬ¤":6734,"íĬ":6735,"Ġç":6736,"umentis":6737,"Ġsinc":6738,"itibus":6739,"Ġmeret":6740,"Ġmill":6741,"Ġmart":6742,"etus":6743,"any":6744,"Ġlen":6745,"abiliter":6746,"ild":6747,"ĠCre":6748,"Ġbig":6749,"Ġbea":6750,"Ġdictus":6751,"Ġpersequ":6752,"Ġgraec":6753,"Ġcoeper":6754,"ivus":6755,"Ġquiddam":6756,"ebar":6757,"ĠLand":6758,"Ġopponitur":6759,"ĠGa":6760,"Ġinterv":6761,"Ġresp":6762,"Ġregibus":6763,"Ġarti":6764,"apropter":6765,"ĠInd":6766,"Ġtermin":6767,"Ġalbus":6768,"Ġpartis":6769,"Ġputes":6770,"erna":6771,"Ġrepraesent":6772,"Ġdivinum":6773,"Ġ53":6774,"Ġplacere":6775,"Ġvisa":6776,"...]":6777,"Ð¾Ð½":6778,"ĠGraecorum":6779,"Ġnesciebat":6780,"Ġegreg":6781,"Ġdiligentia":6782,"Ġ98":6783,"Ġdignus":6784,"Ġbeing":6785,"Ġaccipiat":6786,"Ġmedic":6787,"actenus":6788,"Ġtimere":6789,"Ġprovinciam":6790,"Ġplurima":6791,"Ġgravius":6792,"Ġponit":6793,"Ġdifferunt":6794,"Ġultimum":6795,"Ġcondimentum":6796,"Ġartic":6797,"Ġexempla":6798,"Ġaccepta":6799,"Ġpauca":6800,"Ġcognov":6801,"ĠMosellae":6802,"comp":6803,"Ġaccedere":6804,"Ġancilla":6805,"ĠPropter":6806,"Ġperegr":6807,"ĠPyrenae":6808,"ĠAthenis":6809,"Ġpraevaric":6810,"ĠSocrates":6811,"ĠÐĹÐ°Ð¿ÑĩÐ°ÑģÑĤÐ¸":6812,"²łìĬ¤":6813,"íĬ¸":6814,"²łìĬ¤íĬ¸":6815,"AN":6816,"Nisi":6817,"Pl":6818,"Sc":6819,"Sic":6820,"ber":6821,"sk":6822,"sic":6823,"Ñİ":6824,"å®":6825,"Ġaround":6826,"itle":6827,"Ġquer":6828,"Ġqualem":6829,"Ġcamp":6830,"Ġdiab":6831,"orc":6832,"Ġvesc":6833,"Ġiact":6834,"arr":6835,"idia":6836,"oca":6837,"ĠAdam":6838,"alitas":6839,"ĠSint":6840,"Ġ100":6841,"Ġscito":6842,"ĠMis":6843,"Ġual":6844,"avis":6845,"Ġvidentes":6846,"ĠFilium":6847,"Ġrub":6848,"Ġpropin":6849,"Ġintern":6850,"Ġlibera":6851,"oquin":6852,"Ġregionum":6853,"Ġarte":6854,"Ġcreata":6855,"escit":6856,"Ġvenerat":6857,"Ġvitio":6858,"Ġsanguis":6859,"Ġcapi":6860,"Ġdederit":6861,"Ġcorpor":6862,"Ġcaritate":6863,"Ġ79":6864,"Ġnovit":6865,"Ġfix":6866,"Ġprovid":6867,"Ð°ÑĤ":6868,"othec":6869,"ÐµÑĢ":6870,"Ġemend":6871,"Ġintelligitur":6872,"Ġpluris":6873,"Ġonus":6874,"ĠSicilia":6875,"Ġsermones":6876,"Ġbibere":6877,"Ġhabeatur":6878,"Ġquotidie":6879,"Ġauxilio":6880,"Ġorientali":6881,"Ġroom":6882,"Ġnonnumquam":6883,"Ġingenium":6884,"Ġsilv":6885,"ĠAttico":6886,"Ġrelicta":6887,"Ġhistoriae":6888,"ĠScipio":6889,"Ġlinea":6890,"PDF":6891,"Ġoccidentali":6892,"Ġlignum":6893,"ĠLigeris":6894,"Ġbecause":6895,"Ġvoice":6896,"Ġprodierunt":6897,"Ġë²łìĬ¤íĬ¸":6898,"ĠLotharingia":6899,"Ġaustralis":6900,"55":6901,"EN":6902,"Item":6903,"fully":6904,"hed":6905,"hop":6906,"line":6907,"pend":6908,"Ã²":6909,"Î¼":6910,"ÑĨ":6911,"Ø±":6912,"áº":6913,"Ġul":6914,"Ġsursum":6915,"Ġprem":6916,"Ġced":6917,"Ġnullius":6918,"Ġinut":6919,"Ġtal":6920,"Ġvesper":6921,"Ġiun":6922,"ecess":6923,"Ġquaesumus":6924,"ila":6925,"Ġsure":6926,"ĠCa":6927,"Ġbo":6928,"Ġaliarum":6929,"ĠPos":6930,"ĠNaz":6931,"Ġpotero":6932,"Ġthrough":6933,"Ġuera":6934,"Ġabb":6935,"Ġviderit":6936,"elle":6937,"ĠLond":6938,"ĠRub":6939,"Ġpariet":6940,"Ġconsue":6941,"Ġrust":6942,"Ġmoderat":6943,"ressum":6944,"eries":6945,"003":6946,"Ġvirorum":6947,"Ġaudio":6948,"ĠUr":6949,"Ġprimae":6950,"Ġmagnitudine":6951,"Ġduorum":6952,"Ġagrum":6953,"Ġdebeo":6954,"itudines":6955,"ured":6956,"Ġdesertum":6957,"Ġ2005":6958,"Ġpraeclare":6959,"Ġnovem":6960,"Ġfama":6961,"Ġindustr":6962,"Ġiurisprud":6963,"Ġ||":6964,"Ġlatinam":6965,"Ġpraedicantur":6966,"angu":6967,"ĠCaesari":6968,"Ġonce":6969,"Ġexspecta":6970,"ĠFoederatarum":6971,"Ġperfectionem":6972,"Ġquaestiones":6973,"Ġefficere":6974,"Ġconsules":6975,"Ġobsc":6976,"Ġgaudeo":6977,"Ġunusquisque":6978,"Ġseptu":6979,"Ġ1945":6980,"Ġvidebitur":6981,"Ġpossidet":6982,"Ġlaboravit":6983,"ãĢĤ":6984,"Ġtestamento":6985,"Ġangelus":6986,"2015":6987,"Ġmembra":6988,"self":6989,"Ġpapa":6990,"84":6991,"Page":6992,"What":6993,"cuius":6994,"fl":6995,"iani":6996,"psit":6997,"sur":6998,"xi":6999,"yp":7000,"Â°":7001,"ÑĪ":7002,"à¤":7003,"Ġair":7004,"Ġsenex":7005,"inorum":7006,"Ġpunct":7007,"ama":7008,"Ġdari":7009,"Ġmass":7010,"Ġinan":7011,"Ġtel":7012,"Ġtulit":7013,"Ġvias":7014,"Ġvariis":7015,"Ġiuli":7016,"eno":7017,"esima":7018,"eci":7019,"ulatus":7020,"Ġprol":7021,"Ġredit":7022,"ocr":7023,"ĠIov":7024,"ĠAqu":7025,"ĠDes":7026,"Ġdirect":7027,"rati":7028,"quamur":7029,"Ġhaberem":7030,"eget":7031,"ivam":7032,"undis":7033,"ebitur":7034,"Ġpoterant":7035,"Ġvidetis":7036,"Ġoperi":7037,"ĠTub":7038,"ĠForm":7039,"Ġconsid":7040,"Ġconspic":7041,"ĠBas":7042,"Ġcontentus":7043,"Ġstatum":7044,"Ġpatitur":7045,"Ġspons":7046,"Ġloquere":7047,"Ġmany":7048,"Ġcuiusdam":7049,"diet":7050,"ĠAtlant":7051,"Ġpersu":7052,"Ġexcit":7053,"Ġoptimus":7054,"Ġresponde":7055,"Ġ80":7056,"ardin":7057,"Ġegressus":7058,"Ġ129":7059,"Ġdignitatem":7060,"ĠAdm":7061,"Ġaccipiunt":7062,"Ġiurid":7063,"Ġpertinuit":7064,"ĠUnum":7065,"Ġapert":7066,"Ġonly":7067,"ĠSancto":7068,"Ġmovet":7069,"Etiam":7070,"Ġcontrarium":7071,"Ġinvenerunt":7072,"Ġphilosophi":7073,"Ġaeternitate":7074,"Ġnolo":7075,"ulpa":7076,"Ġimagin":7077,"Ġnegotia":7078,"Ġclaritatem":7079,"Ġmyster":7080,"ĠCarolus":7081,"Ġproximum":7082,"ĠAutem":7083,"Ġinimici":7084,"Ġ1999":7085,"Ġfortunae":7086,"Ġtempt":7087,"Ġasperiores":7088,"Ġmentionem":7089,"Ġgradu":7090,"Ġconsecutus":7091,"Ġplenum":7092,"Ġorbis":7093,"ï¼Į":7094,"Ġaccurate":7095,"eatus":7096,"hel":7097,"ought":7098,"uia":7099,"ville":7100,"za":7101,"åı":7102,"Ġà«¨":7103,"erre":7104,"rest":7105,"Ġinesse":7106,"icia":7107,"icere":7108,"Ġvulp":7109,"utionis":7110,"Ġfirst":7111,"liane":7112,"oman":7113,"Ġesc":7114,"ĠElis":7115,"Ġexam":7116,"Ġexitum":7117,"ĠCast":7118,"ĠColl":7119,"ĠDion":7120,"Ġdices":7121,"istae":7122,"iliam":7123,"Ġsedul":7124,"Ġhabentes":7125,"ego":7126,"ĠMer":7127,"ĠMel":7128,"ĠHist":7129,"ĠHung":7130,"ĠFr":7131,"Ġris":7132,"Ġtempest":7133,"Ġmodis":7134,"Ġstell":7135,"Ġstill":7136,"Ġsecutus":7137,"ĠOc":7138,"Ġdebuit":7139,"Ġrationibus":7140,"Ġvenio":7141,"Ġistuc":7142,"Ġiudicii":7143,"Ġdivinae":7144,"aliz":7145,"Ġcognitio":7146,"Ġpublicum":7147,"Ġvivendum":7148,"Ġdicitis":7149,"Ġjuxta":7150,"Ġcaeter":7151,"Ġimperdiet":7152,"Ġnecessitas":7153,"owed":7154,"Ġvirtuti":7155,"Ġfuturi":7156,"Ġpulv":7157,"Ġmoritur":7158,"Ġoperatus":7159,"aremus":7160,"true":7161,"Ġvultus":7162,"ĠRegnum":7163,"Ġscriptores":7164,"Ġhabeamus":7165,"Ġcalc":7166,"Ġhostium":7167,"Ġsimilitudo":7168,"Ġpugna":7169,"Ġacciderit":7170,"âĢĻ,":7171,"Ġuidetur":7172,"rentur":7173,"Ġsonum":7174,"ĠGallia":7175,"Ġschola":7176,"Ġscelere":7177,"Ġbestiis":7178,"Ġvacua":7179,"ĠIosephus":7180,"Ġecclesiasticae":7181,"Ġauf":7182,"Ġapparuit":7183,"Ġconclusio":7184,"Ġuirtut":7185,"Ġpercipi":7186,"Ġmisericordiam":7187,"ĠInferioris":7188,"????":7189,"Ġingenii":7190,"Ġdexteram":7191,"Ġperhiberet":7192,"Ġmatrimonium":7193,"Ġcordis":7194,"Ġarchiepiscopus":7195,"inventory":7196,"Ġaccommod":7197,"ĠBurgundia":7198,"çļĦ":7199,".Â»":7200,"Pro":7201,"hing":7202,"iata":7203,"ng":7204,"Ã±":7205,"Ġ`":7206,"Ġaures":7207,"Ġsab":7208,"amenta":7209,"Ġmob":7210,"read":7211,"orn":7212,"Ġiung":7213,"Ġfil":7214,"Ġhii":7215,"Ġhactenus":7216,"osi":7217,"Ġadept":7218,"ĠEsa":7219,"ĠSap":7220,"Ġdicetur":7221,"Ġgess":7222,"Ġseem":7223,"Ġabomin":7224,"Ġerub":7225,"Ġcali":7226,"Ġaliquos":7227,"iscere":7228,"ĠBab":7229,"ĠGar":7230,"Ġcommov":7231,"Ġinterdic":7232,"Ġregula":7233,"Ġinventa":7234,"Ġprimi":7235,"Ġnosmet":7236,"Ġagi":7237,"Ġputare":7238,"Ġvocat":7239,"Ġtabular":7240,"Ġcapiunt":7241,"Ġcurr":7242,"Ġcivili":7243,"Ġecclesie":7244,"Ġnominavi":7245,"Ġnotitia":7246,"Ġcredid":7247,"Ġ66":7248,"Ġpraeterito":7249,"Ġopport":7250,"Ġvestibulum":7251,"Ġuxori":7252,"Ġvalere":7253,"Ġbeatam":7254,"evo":7255,"ĠXI":7256,"ĠXII":7257,"Ġceter":7258,"Ġconiun":7259,"Ġodium":7260,"Ġadiung":7261,"rices":7262,"Ġlim":7263,"Ġantiquae":7264,"Ġexplicat":7265,"Ġimagines":7266,"Ġcras":7267,"ĠIosue":7268,"Ġdescrib":7269,"ĠCatil":7270,"ĠIudaei":7271,"Ġlevis":7272,"ĠClaud":7273,"ĠPompon":7274,"Ġmilitibus":7275,"ĠVenet":7276,"ĠPotest":7277,"Ġtribunalis":7278,"ĠIusto":7279,"Ġintrod":7280,"Ġcompetit":7281,"ĠIohannes":7282,"rinsecus":7283,"Ġiurisprudentiae":7284,"85":7285,"Am":7286,"St":7287,"fex":7288,"huc":7289,"ler":7290,"ÙĦ":7291,"åĪ":7292,"Ġosc":7293,"Ġeunt":7294,"Ġequit":7295,"inii":7296,"ison":7297,"ntabul":7298,"aequ":7299,"aeque":7300,"Ġdiam":7301,"Ġtellus":7302,"Ġvect":7303,"omm":7304,"Ġheri":7305,"osse":7306,"ecerit":7307,"ularis":7308,"ible":7309,"Ġrede":7310,"Ġrenunt":7311,"Ġlus":7312,"Ġadol":7313,"ĠIdeo":7314,"ĠEos":7315,"Ġexitus":7316,"ĠCali":7317,"Ġfacite":7318,"Ġgrow":7319,"ratur":7320,"ĠMort":7321,"arumque":7322,"issae":7323,"Ġveram":7324,"Ġvidens":7325,"Ġvideris":7326,"Ġvidendum":7327,"Ġvidete":7328,"ĠLong":7329,"ĠHinc":7330,"Ġnepot":7331,"ĠTibi":7332,"ĠFinn":7333,"Ġplor":7334,"Ġconsu":7335,"Ġconscrip":7336,"Ġmake":7337,"Ġright":7338,"Ġorator":7339,"Ġinterfect":7340,"Ġmultorum":7341,"ĠUs":7342,"Ġinvis":7343,"Ġagimus":7344,"Ġagri":7345,"Ġaspic":7346,"Ġisdem":7347,"Ġsuperius":7348,"Ġconclud":7349,"Ġdiei":7350,"Ġinfer":7351,"Ġdicite":7352,"Ġ63":7353,"Ġexcog":7354,"ĠItaliam":7355,"Ġdoctor":7356,"ĠGraeca":7357,"Ġaetas":7358,"Ġextran":7359,"Ġofficii":7360,"iosi":7361,"erba":7362,"Ġexercit":7363,"Ġreliquis":7364,"Ġtransfer":7365,"ĠGermanicus":7366,"Ġcontinu":7367,"Ġtribul":7368,"Ġobscur":7369,"ĠÃł":7370,"ĠAntonius":7371,"Ġhumanitas":7372,"Ġauctoritas":7373,"Ġproxime":7374,"Ġmeliorem":7375,"Ġutilitatis":7376,"ĠSpiritu":7377,"ĠHierusalem":7378,"Ġrett":7379,"Ġscripsisse":7380,"Ġoffend":7381,"Ġsustent":7382,"Ġreferre":7383,"Ġsaepissime":7384,"Ġturpis":7385,"Ġinuen":7386,"Ġfacultatem":7387,"Ġdaturus":7388,"Ġperspicere":7389,"Ġabscon":7390,"Ġinterfuit":7391,"Ġfructu":7392,"Ġtwo":7393,"Ġscholam":7394,"ĠFreto":7395,"àµį":7396,"ĠAntioch":7397,"ĠPhilipp":7398,"Ġartifex":7399,"ĠDionys":7400,"Can":7401,"disc":7402,"ied":7403,"iatis":7404,"pit":7405,"sunt":7406,"sch":7407,"tt":7408,"ten":7409,"vid":7410,"éĭ":7411,"Ġsur":7412,"Ġsurre":7413,"Ġquicum":7414,"Ġpend":7415,"Ġpurus":7416,"Ġnationes":7417,"Ġduct":7418,"rev":7419,"orio":7420,"Ġfas":7421,"entio":7422,"ĠEo":7423,"Ġquamuis":7424,"ĠCaec":7425,"ĠCras":7426,"Ġbu":7427,"Ġbel":7428,"ipat":7429,"terum":7430,"Ġfacillim":7431,"Ġpraetere":7432,"raque":7433,"iturg":7434,"Ġposuere":7435,"ebuntur":7436,"Ġpotuerit":7437,"ava":7438,"Ġsitus":7439,"Ġnever":7440,"ĠFilio":7441,"Ġprofer":7442,"erti":7443,"Ġsolebat":7444,"Ġrisus":7445,"Ġrhon":7446,"ulla":7447,"inceps":7448,"Ġbonam":7449,"Ġregim":7450,"Ġlego":7451,"Ġlegata":7452,"Ġnostrorum":7453,"Ġ1918":7454,"Ġmanuum":7455,"Ġinventum":7456,"Ġannus":7457,"Ġannunt":7458,"entias":7459,"Ġvocatum":7460,"Ġcuram":7461,"Ġecclesiarum":7462,"Ġdecimo":7463,"Ġtotus":7464,"elix":7465,"Ġplace":7466,"Ġpraeceper":7467,"Ġsignis":7468,"Ġcarm":7469,"Ġ75":7470,"Ġ77":7471,"Ġvideos":7472,"Ġprobarent":7473,"Ġ89":7474,"ĠQuaedam":7475,"ĠIsa":7476,"ĠIsra":7477,"Ġdiligentissime":7478,"Ġvaleat":7479,"Ġ120":7480,"Ġvictus":7481,"ĠExerc":7482,"Ġmaiori":7483,"Ġbella":7484,"Ġsacri":7485,"Ġmulieris":7486,"Ġimmut":7487,"ĠSanctae":7488,"Ġmoveri":7489,"Ġepiscopo":7490,"Ġsingulos":7491,"Ġultima":7492,"ĠPlato":7493,"Ġpulchrum":7494,"Ġaeternam":7495,"Ġreferuntur":7496,"Ġreddet":7497,"Ġbrevis":7498,"Ġpromitt":7499,"Ġdeprec":7500,"ĠMagni":7501,"Ġaccidere":7502,"Ġlacinia":7503,"Ġiacet":7504,"Ġfoederis":7505,"They":7506,"Ġconveniat":7507,"ĠClod":7508,"ĠPrimo":7509,"option":7510,"Ġmentitum":7511,"ĠBritannia":7512,"Ġcomplect":7513,"Ġprudentia":7514,"Ġsanguine":7515,"Ġaegrot":7516,"ĠCommun":7517,"ĠIste":7518,"Ġdiscessimus":7519,"Ġvictoria":7520,"eunte":7521,"Italiane":7522,"Ġnexus":7523,"Ġperferendis":7524,"Ġquinto":7525,"attoos":7526,"ĠEnnius":7527,"ĠGulielmus":7528,"64":7529,"AL":7530,"ED":7531,"Io":7532,"Temp":7533,"auit":7534,"bum":7535,"iÃ¦":7536,"lat":7537,"niae":7538,"yles":7539,"Î¯":7540,"Ġ\\/":7541,"Ġast":7542,"inos":7543,"inati":7544,"Ġquere":7545,"Ġquales":7546,"onec":7547,"Ġchil":7548,"Ġdia":7549,"Ġmedit":7550,"Ġmille":7551,"Ġinj":7552,"ema":7553,"utate":7554,"Ġil":7555,"Ġferunt":7556,"Ġfert":7557,"Ġforis":7558,"uns":7559,"Ġlet":7560,"opere":7561,"ĠSat":7562,"ĠPhilosoph":7563,"Ġge":7564,"Ġillust":7565,"ĠQuos":7566,"ĠNor":7567,"egit":7568,"ostoli":7569,"Ġquolibet":7570,"Ġpossemus":7571,"Ġabest":7572,"ĠHa":7573,"Ġopes":7574,"ultur":7575,"empe":7576,"Ġaliquae":7577,"Ġvolui":7578,"ĠBav":7579,"ĠBellum":7580,"ĠGab":7581,"Ġacceperit":7582,"Ġoritur":7583,"Ġstr":7584,"eriis":7585,"erique":7586,"ades":7587,"eniat":7588,"Ġlegati":7589,"abula":7590,"Ġaudita":7591,"Ġauditum":7592,"illis":7593,"Ġ55":7594,"Ġscribendi":7595,"tinam":7596,"Ġinsulam":7597,"Ġmatre":7598,"Ġmatris":7599,"Ġ2015":7600,"upid":7601,"Ġreddit":7602,"Ġdiligere":7603,"Ġduces":7604,"Ġcognoscitur":7605,"Ġfacturum":7606,"ountain":7607,"Ġantiquos":7608,"Ġinveniuntur":7609,"ĠIdus":7610,"Ġhabeas":7611,"Ġcopiis":7612,"Ġpauci":7613,"Ġopinione":7614,"Ġpueros":7615,"ĠHispaniae":7616,"Ġiaculis":7617,"Ġrelati":7618,"Ġbenedict":7619,"ĠEpiscopi":7620,"Ġirasc":7621,"Ġortus":7622,"Ġoccasionem":7623,"ĠZenonem":7624,"ĠÐ¿ÑĢ":7625,"Ġoccurrit":7626,"Ġinsipiens":7627,"Ġoves":7628,"ĠFortasse":7629,"Ġmendacium":7630,"Ġdiutius":7631,"Ġpiglets":7632,"ĠPorro":7633,"ĠThomas":7634,"Ġredempt":7635,"Ġwooden":7636,"ĠâĢĿ.":7637,"unicipia":7638,"Ġvulputate":7639,"Cor":7640,"Mag":7641,"br":7642,"but":7643,"form":7644,"gg":7645,"Ãİ":7646,"Ð·":7647,"Ùħ":7648,"æĹ":7649,"Ġset":7650,"inio":7651,"Ġpus":7652,"Ġpare":7653,"onice":7654,"Ġcepit":7655,"Ġnor":7656,"Ġnerv":7657,"Ġday":7658,"Ġmos":7659,"Ġinitium":7660,"utam":7661,"esis":7662,"ode":7663,"idis":7664,"idam":7665,"Ġlug":7666,"Ġadim":7667,"acum":7668,"otam":7669,"ileg":7670,"ĠAure":7671,"Ġexcip":7672,"Ġexilium":7673,"alitatem":7674,"ĠDan":7675,"ĠPo":7676,"ĠPont":7677,"Ġgens":7678,"ectis":7679,"Ġcoel":7680,"Ġhaberent":7681,"Ġscitis":7682,"ared":7683,"Ġpotuisse":7684,"Ġveri":7685,"Ġverec":7686,"Ġamen":7687,"ĠTri":7688,"ĠFilii":7689,"Ġmaer":7690,"iger":7691,"ĠGo":7692,"Ġconturb":7693,"Ġcommerc":7694,"Ġinterim":7695,"Ġfuimus":7696,"Ġstatus":7697,"Ġsecret":7698,"ientium":7699,"Ġloquatur":7700,"Ġquisquis":7701,"Ġputem":7702,"aliae":7703,"Ġsentiat":7704,"Ġcolore":7705,"Ġ65":7706,"Ġexcels":7707,"Ð°Ð»":7708,"ĠLatinum":7709,"ĠArab":7710,"Ġ86":7711,"Ġvestris":7712,"entiarum":7713,"rehendi":7714,"Ġtransit":7715,"Ġiussu":7716,"Ġdiligentius":7717,"Ġintellegit":7718,"Ġsaeculorum":7719,"Ġaccipe":7720,"ÐµÐ»":7721,"Ġbeate":7722,"Ġconstitui":7723,"Ġpropriae":7724,"Ġpoenit":7725,"âĢĿ,":7726,"Ġaudierunt":7727,"Ġuniversis":7728,"Ġantiquis":7729,"Ġresponderunt":7730,"Ġconsuetudine":7731,"oks":7732,"ĠNovi":7733,"Ġopinio":7734,"ĠPaulo":7735,"Ġexspecto":7736,"Ġiniquitatem":7737,"Ġquatenus":7738,"Ġfelis":7739,"Ġhaeret":7740,"ĠUrbes":7741,"Ġdepositum":7742,"Ġprosunt":7743,"ĠPrincip":7744,"ĠSimiliter":7745,"Ġspectat":7746,"Ġextrema":7747,"Ġlight":7748,"Ġmisericordia":7749,"Ġgrand":7750,"Ġpraeceptis":7751,"Ġexplor":7752,"Ġincredibile":7753,"Ġfound":7754,"Ġmiraretur":7755,"Ġthesa":7756,"ĠBerol":7757,"ĠSelectae":7758,"Ġsedulitatem":7759,"Ġrhoncus":7760,"Ġchild":7761,"87":7762,"Id":7763,"Per":7764,"Rom":7765,"berg":7766,"torum":7767,"uat":7768,"Ãº":7769,"Ġsk":7770,"inius":7771,"atch":7772,"Ġcense":7773,"aet":7774,"Ġdisi":7775,"Ġmiles":7776,"Ġtet":7777,"Ġtul":7778,"Ġtent":7779,"Ġtend":7780,"Ġiei":7781,"liqu":7782,"imos":7783,"ulpt":7784,"ulari":7785,"unuch":7786,"Ġadesse":7787,"aculo":7788,"Ġdeest":7789,"ĠIX":7790,"ĠCred":7791,"elop":7792,"Ġbet":7793,"Ġdicenda":7794,"Ġfacinus":7795,"ĠPD":7796,"Ġcoerc":7797,"issus":7798,"Ġvidisti":7799,"ĠLam":7800,"ĠLic":7801,"ĠHanno":7802,"Ġamis":7803,"Ġpaginam":7804,"ĠVerg":7805,"ĠVultur":7806,"ĠGl":7807,"Ġsolemus":7808,"Ġacceperunt":7809,"Ġcommodo":7810,"Ġregionibus":7811,"eniet":7812,"Ġcrede":7813,"Ġloquendi":7814,"Ġloquaris":7815,"Ġposteri":7816,"Ġmagnis":7817,"eretis":7818,"Ġagric":7819,"Ġquemque":7820,"Ġacquir":7821,"Ġeamque":7822,"Ġremitt":7823,"Ġdives":7824,"Ġmalorum":7825,"Ġpopulorum":7826,"Ġservare":7827,"Ġtenu":7828,"ally":7829,"...)":7830,"Ġrespondi":7831,"Ġquaereremus":7832,"Ġdigni":7833,"Ġlaude":7834,"ify":7835,"Ġfactis":7836,"Ġplurimi":7837,"Ġadmodum":7838,"Ġspecial":7839,"Ġexsist":7840,"Ġeffici":7841,"Ġsecundam":7842,"Ġsermonis":7843,"Ġparvum":7844,"Ġindicia":7845,"Ġequus":7846,"Ġinimicus":7847,"ĠLiber":7848,"Ġgestarum":7849,"Ġsororem":7850,"Ġdidici":7851,"Ġconveniunt":7852,"Ġmulieribus":7853,"Ġaffectum":7854,"Ġmaritus":7855,"Ġvereor":7856,"Ġparentibus":7857,"Ġpraesidio":7858,"Ġmusicae":7859,"Ġgenerationes":7860,"ĠImperium":7861,"ĠPompeius":7862,"ĠOrdin":7863,"Ġtabernaculum":7864,"Ġsanguinem":7865,"Ġfallac":7866,"Ġhabebis":7867,"Ġitinere":7868,"ĠDixitque":7869,"Illustrat":7870,"Ġibidem":7871,"ĠLingua":7872,"ĠHenricus":7873,"Ġnigrum":7874,"Ġomnipotens":7875,"Ġfermentum":7876,"ĠMolestiae":7877,"Ġsatiet":7878,"Ġeyes":7879,"Ġmeretric":7880,"Ġpersuad":7881,"Ġieiun":7882,"Illustration":7883,"69":7884,"AC":7885,"Car":7886,"Gen":7887,"Ma":7888,"OL":7889,"des":7890,"fact":7891,"gypt":7892,"ierit":7893,"pere":7894,"roc":7895,"tol":7896,"Ð³":7897,"Øª":7898,"âĨĳ":7899,"Ġol":7900,"Ġeuis":7901,"Ġelev":7902,"Ġeunuch":7903,"ition":7904,"itetur":7905,"usa":7906,"atas":7907,"ondam":7908,"Ġcerv":7909,"Ġciu":7910,"aev":7911,"oriae":7912,"Ġfunct":7913,"Ġfront":7914,"Ġestis":7915,"idus":7916,"Ġpridem":7917,"iali":7918,"olite":7919,"Ġren":7920,"Ġlep":7921,"ĠIudic":7922,"Ġanother":7923,"ĠEli":7924,"Ġexh":7925,"Ġexim":7926,"ĠSo":7927,"ĠSPD":7928,"ĠCass":7929,"ĠCaus":7930,"Ġdirig":7931,"orent":7932,"oreet":7933,"Ġillas":7934,"Ġsedem":7935,"ĠRex":7936,"ĠFor":7937,"Ġaliquibus":7938,"Ġessemus":7939,"Ġoro":7940,"light":7941,"Ġcorda":7942,"ape":7943,"Ġmultitudinis":7944,"Ġcuiuscumque":7945,"Ġdebes":7946,"Ġtrin":7947,"Ġexpedit":7948,"Ġ2002":7949,"Ġconfund":7950,"ĠChana":7951,"Ġpublico":7952,"Ġplacerat":7953,"Ġmisera":7954,"Ġnovae":7955,"Ġsapere":7956,"upta":7957,"Ġpaulum":7958,"Ġprincipibus":7959,"Ġ85":7960,"Ġintellegitur":7961,"ĠEcclesiam":7962,"Ġstudiorum":7963,"astis":7964,"Ġsuppon":7965,"Ġwhile":7966,"\":[":7967,"Ġaquarum":7968,"Ġquinta":7969,"Ġdispens":7970,"Ġoperatur":7971,"Ġponere":7972,"Ġponitur":7973,"Ġdona":7974,"criptum":7975,"Ġnoctem":7976,"Ġcondidit":7977,"Ġvultum":7978,"Ġargentum":7979,"ĠRegni":7980,"Ġchar":7981,"Ġmiseros":7982,"Ġreddidit":7983,"Ġscriptura":7984,"Ġsoon":7985,"Ġglorific":7986,"Ġincipiunt":7987,"Ġopinionem":7988,"Ð°Ð·":7989,"Ġarbitrium":7990,"Ġhistoria":7991,"Deus":7992,"Ġpraemium":7993,"Ġsufficit":7994,"Ġoperationem":7995,"Ġconcessum":7996,"Ġimperatoris":7997,"ĠXVI":7998,"Ġpraeposita":7999,"Ġinquantum":8000,"Ġuita":8001,"Ġmerito":8002,"Ġstipul":8003,"Ġedictum":8004,"ĠTarrac":8005,"ĠAmericanus":8006,"Ġauribus":8007,"Ġcitius":8008,"ĠBelg":8009,"Ġresurrect":8010,"ĠÐ½Ð°":8011,"Ġtranseunt":8012,"Ġcentesimae":8013,"Germanice":8014,"Ġseptuaginta":8015,"ĠBabyl":8016,"Ġeuismod":8017,",[":8018,"52":8019,"You":8020,"aut":8021,"iatio":8022,"piter":8023,"xerit":8024,"Ġeach":8025,"Ġpas":8026,"Ġcried":8027,"Ġcathed":8028,"Ġnatae":8029,"aeus":8030,"Ġmur":8031,"retum":8032,"Ġtun":8033,"Ġtort":8034,"orus":8035,"urs":8036,"Ġvarius":8037,"Ġhend":8038,"esne":8039,"anne":8040,"ark":8041,"aram":8042,"iare":8043,"Ġlup":8044,"Ġlarg":8045,"Ġdeg":8046,"Ġdepon":8047,"ĠST":8048,"ĠSatis":8049,"Ġmeh":8050,"Ġdiis":8051,"Ġben":8052,"Quo":8053,"ĠPop":8054,"ĠMess":8055,"Ġquidque":8056,"Ġabst":8057,"ĠHort":8058,"ĠHeli":8059,"Ġnear":8060,"ĠTen":8061,"ĠTim":8062,"ultum":8063,"ĠFrat":8064,"Ġprout":8065,"Ġproinde":8066,"Ġincend":8067,"isce":8068,"Ġvolebat":8069,"Ġconsilii":8070,"ĠVoc":8071,"Ġpotestatis":8072,"ĠBa":8073,"ĠBonum":8074,"Ġrhet":8075,"Ġpropius":8076,"Ġeoque":8077,"Ġsecuri":8078,"Ġ[...]":8079,"Ġanimarum":8080,"ĠOst":8081,"Ġcreavit":8082,"Ġlegitur":8083,"Ġloqueretur":8084,"Ġoct":8085,"escere":8086,"Ġimple":8087,"Ġimprim":8088,"Ġagat":8089,"Ġcommuniter":8090,"Ġvocibus":8091,"Ġremiss":8092,"Ġcivem":8093,"Ġcivile":8094,"ĠQuidquid":8095,"Ġmortuis":8096,"Ġdesunt":8097,"retiva":8098,"Ġcognita":8099,"Ġsentiam":8100,"Ġsententiis":8101,"Ġoccidit":8102,"Ġfortis":8103,"Ġscriberem":8104,"Ġcorporibus":8105,"Ġclaud":8106,"Ġpraecl":8107,"Ġinsc":8108,"Ġ61":8109,"Ġvideamur":8110,"allis":8111,"Ġprobatur":8112,"Ġmolestum":8113,"Ġvestram":8114,"Ġevenit":8115,"Ġ99":8116,"Ġdignitas":8117,"Ġsapientem":8118,"Ġlongus":8119,"Ġappellant":8120,"Ġiuri":8121,"Ġsupp":8122,"Ġsenator":8123,"Ġ140":8124,"Ġintelligentia":8125,"Ġmensa":8126,"Ġpeccato":8127,"Ġsignificant":8128,"Ġsignificatur":8129,"Ġostium":8130,"Ġdonavit":8131,"Ġdistrib":8132,"ĠIoach":8133,"Ġluce":8134,"Ġprodesse":8135,"ĠPlanc":8136,"Ġreform":8137,"Ġhumanae":8138,"Ġsimilem":8139,"ressed":8140,"Ġmagistri":8141,"Ġquodammodo":8142,"Ġpedibus":8143,"Ġpretio":8144,"ĠIacobus":8145,"Ġvincit":8146,"Ġhiem":8147,"Ġdifferentiae":8148,"Ġascendit":8149,"ĠPompei":8150,"Ġdoctrinam":8151,"Ġsuccessor":8152,"Ġvocabulum":8153,"Ġnemini":8154,"ĀĀĀĀ":8155,"ĠVoluptatem":8156,"ĠSuec":8157,"Ġservitutem":8158,"ĠDietae":8159,"Ġboreali":8160,"ĠAristoteles":8161,"Ġanteposuerit":8162,"ĠEsau":8163,"discretiva":8164,"ĠHannover":8165,"ĠChanaan":8166,"63":8167,"Entabul":8168,"Pater":8169,"con":8170,"fe":8171,"hinc":8172,"post":8173,"public":8174,"vo":8175,"variant":8176,"Ïħ":8177,"åľ":8178,"Ġold":8179,"Ġeidem":8180,"Ġae":8181,"Ġsud":8182,"Ġpoll":8183,"onibus":8184,"Ġmost":8185,"rept":8186,"emin":8187,"iculo":8188,"imenta":8189,"eti":8190,"Ġlar":8191,"Ġadj":8192,"Ġconj":8193,"Ġball":8194,"Ġperu":8195,"Ġgent":8196,"ĠNob":8197,"ensus":8198,"ensium":8199,"Ġhabuerit":8200,"Ġcomper":8201,"Ġuere":8202,"Ġvidero":8203,"Ġvelint":8204,"Ġeros":8205,"Ġprou":8206,"ĠBO":8207,"Ġsoles":8208,"Ġrip":8209,"Ġproper":8210,"Ġweb":8211,"ientis":8212,"isii":8213,"Ġspoli":8214,"escunt":8215,"Ġnaturale":8216,"Ġcommunibus":8217,"Ġrationis":8218,"Ġpartium":8219,"cipit":8220,"Ġreput":8221,"Ġmalitiae":8222,"Ġdecret":8223,"Ġmaximo":8224,"Ġmagisque":8225,"Ġsentit":8226,"Ġoccisus":8227,"Ġgratissimum":8228,"Ġinfam":8229,"Ġinferos":8230,"Ġfidel":8231,"Ġmiserunt":8232,"Ġ68":8233,"Ġnovissimo":8234,"ĠGraecae":8235,"Ġegit":8236,"Ġegressi":8237,"Ġquandoque":8238,"Ġsaeculis":8239,"ever":8240,"Ġfuturo":8241,"Ġ150":8242,"Ġveniret":8243,"Ġsenatum":8244,"Ġ119":8245,"Ġlatina":8246,"ĠBrutus":8247,"Ġpeccare":8248,"ãģĦ":8249,"ĠKans":8250,"ĠQuisquam":8251,"Ġsociis":8252,"ÑģÐº":8253,"Ð½Ð¾":8254,"Ġadiunct":8255,"ĠIoas":8256,"Ġluctus":8257,"Ġpersonis":8258,"Ġferendum":8259,"Ġquick":8260,"Ġsax":8261,"Ġexplicari":8262,"letum":8263,"Ġaccepisse":8264,"ĠCurabitur":8265,"Ġseptentr":8266,"Ġhostibus":8267,"Ġdelectat":8268,"Ġvigesima":8269,"Ġsalutis":8270,"ĠMagna":8271,"Ġquotiens":8272,"ĠIudaeos":8273,"Ġmitto":8274,"Ġfuror":8275,"Ġfurtum":8276,"prop":8277,"Ġperduc":8278,"Ġmoriens":8279,"Ġsonus":8280,"Ġinterrogavit":8281,"ĠAugustus":8282,"Ġcenses":8283,"ĠMosen":8284,"Ġnonnulli":8285,"Ġfacilisis":8286,"Ġpraetore":8287,"Ġfestin":8288,"Ġhabitatores":8289,"Ġincommut":8290,"Ġcomprehenderunt":8291,"Ġcecidit":8292,"Ġcoepi":8293,"Ġsustinere":8294,"Ġpisces":8295,"ĠContra":8296,"ĠVestibulum":8297,"Ġevery":8298,"Ġtriumph":8299,"ĠCirca":8300,"Ġabsurdum":8301,"Ġobsecro":8302,"ipatet":8303,"ĠTarraconensi":8304,"78":8305,"OV":8306,"eff":8307,"mag":8308,"rerit":8309,"ves":8310,"zi":8311,"Ã§":8312,"ä½":8313,"æĪ":8314,"æĸ":8315,"Ġ!":8316,"Ġ#":8317,"Ġ>":8318,"Ġ~":8319,"Ġsw":8320,"Ġsord":8321,"Ġsho":8322,"Ġquendam":8323,"Ġquondam":8324,"Ġpest":8325,"ĠcÃ¦":8326,"Ġcanc":8327,"Ġdant":8328,"Ġinl":8329,"iciam":8330,"Ġvendit":8331,"Ġfate":8332,"enia":8333,"omach":8334,"ody":8335,"anas":8336,"aron":8337,"ibiles":8338,"Ġuter":8339,"ĠIus":8340,"ĠAll":8341,"Ġexstitit":8342,"ĠScript":8343,"ĠDiv":8344,"Ġmearum":8345,"Ġdicet":8346,"Ġdicerem":8347,"ĠPoss":8348,"ĠNobis":8349,"Ġhabuerunt":8350,"ĠMD":8351,"ĠMor":8352,"ĠMass":8353,"Ġveris":8354,"Ġuult":8355,"ĠLaced":8356,"ĠHae":8357,"ĠHomin":8358,"ĠHunc":8359,"ĠTre":8360,"Ġincogn":8361,"Ġplag":8362,"Ġplerique":8363,"ĠVt":8364,"Ġtheolog":8365,"ĠGre":8366,"Ġwal":8367,"Ġstir":8368,"Ġlibentius":8369,"ĠOl":8370,"Ġusquam":8371,"Ġincolum":8372,"Ġobv":8373,"Ġaguntur":8374,"Ġacquis":8375,"Ġpraesentibus":8376,"Ġvocantur":8377,"Ġremov":8378,"Ġexpul":8379,"Ġdiscrim":8380,"Ġappos":8381,"Ġconfite":8382,"ĠÐ¼":8383,"Ġeisdem":8384,"Ġpraetermitt":8385,"Ġvisit":8386,"Ġrespons":8387,"Ġnegare":8388,"Ġcaelis":8389,"Ġsumme":8390,"Ġfugere":8391,"Ġsalvi":8392,"Ġimperatore":8393,"Ġ90":8394,"Ġsusp":8395,"1088":8396,"Ġhumani":8397,"Ġfuturus":8398,"Ġignem":8399,"Ġceteros":8400,"ifend":8401,"Ġ149":8402,"Â»,":8403,"Ġmuneribus":8404,"angabo":8405,"Ġostendere":8406,"Ġauctores":8407,"ĠIoannis":8408,"Ġconditum":8409,"Ġartes":8410,"ationalis":8411,"ĠPraesent":8412,"Ġdissol":8413,"ĠScio":8414,"Ġnegotii":8415,"Ġdictae":8416,"erebat":8417,"ĠPeripatet":8418,"rens":8419,"Ġsucced":8420,"Ġmittere":8421,"Ġsinu":8422,"Ġcastris":8423,"Ġreturn":8424,"Ġscripsisti":8425,"Ġtalibus":8426,"Ġheredem":8427,"Ġjusto":8428,"Ġpropheta":8429,"Ġdifferentiam":8430,"ĠDolor":8431,"ĠCorne":8432,"Ġambo":8433,"Ġstultus":8434,"Ġaufer":8435,"Ġsepultus":8436,"Ġancillam":8437,"Ġancillae":8438,"Ġxx":8439,"ÏĦÎ¿":8440,"Ġortum":8441,"Ġcadere":8442,"Ġligula":8443,"ĠSuperioris":8444,"Ġurna":8445,"Ġfiduciam":8446,"ĠCiceronem":8447,"Ġprofessor":8448,"Ġconsistit":8449,"Ġflagiti":8450,"ogallice":8451,"Ġeleifend":8452,"Ġsinistram":8453,"ĠIuppiter":8454,"orcerer":8455,"Ġhendrerit":8456,"As":8457,"CH":8458,"Nec":8459,"Sal":8460,"Vol":8461,"cem":8462,"cunque":8463,"fort":8464,"hoc":8465,"here":8466,"ja":8467,"nia":8468,"oor":8469,"riv":8470,"sam":8471,"set":8472,"title":8473,"Ġastr":8474,"Ġside":8475,"Ġparem":8476,"aeter":8477,"Ġdaemon":8478,"Ġmit":8479,"Ġmix":8480,"Ġmaris":8481,"emiae":8482,"urarum":8483,"Ġiug":8484,"Ġfict":8485,"ĠprÃ¦":8486,"Ġadp":8487,"Ġutendum":8488,"ionalis":8489,"Ġdeinceps":8490,"ilv":8491,"ĠIN":8492,"als":8493,"ages":8494,"Ġperag":8495,"raw":8496,"ĠPu":8497,"ĠQuapropter":8498,"Ġcoha":8499,"iro":8500,"ĠNic":8501,"isso":8502,"Ġapta":8503,"Ġthings":8504,"ellis":8505,"ellam":8506,"ĠLus":8507,"ĠHerm":8508,"ĠTr":8509,"ĠTest":8510,"Ġpara":8511,"Ġparata":8512,"Ġconsoc":8513,"ĠBen":8514,"Ġrursum":8515,"Ġcontig":8516,"âĢº":8517,"Ġfilias":8518,"Ġstrep":8519,"Ġresc":8520,"Ġlibid":8521,"Ġbonos":8522,"Ġminores":8523,"Ġminimum":8524,"Ġlegato":8525,"Ġoffer":8526,"Ġaudiunt":8527,"ĠUtinam":8528,"Ġcausarum":8529,"Ġallig":8530,"iii":8531,"Ġdebeant":8532,"Ġvituper":8533,"Ġputandum":8534,"Ġtrip":8535,"Ġistorum":8536,"Ġremot":8537,"Ġtabularum":8538,"Ġcapta":8539,"uxi":8540,"Ġdivinam":8541,"Ġdecima":8542,"illus":8543,"Ġscribas":8544,"Ġsequatur":8545,"Ġcarere":8546,"Ġpraeteritis":8547,"Ġredire":8548,"inoesiae":8549,"Ġsummi":8550,"ĠGraeco":8551,"Ġnescimus":8552,"Ġquaerenda":8553,"Ġdiligat":8554,"Ġdiligunt":8555,"Ġreiecta":8556,"ÐµÐº":8557,"Ġ159":8558,"ĠExc":8559,"ĠXen":8560,"ĠUtrum":8561,"Ġmensibus":8562,"ĠIllinoesiae":8563,"Ġauctore":8564,"Ġregnavit":8565,"Ġmetrop":8566,"Ġcanis":8567,"Ġpossessione":8568,"ĠRegione":8569,"Ġceler":8570,"Ġphilosophorum":8571,"Ġspirit":8572,"Ġinstitutum":8573,"Ġexemplis":8574,"Ġturn":8575,"Ġcogitationes":8576,"Ġhumanis":8577,"Ġhumanitatis":8578,"Ġdictis":8579,"Ġsexto":8580,"Ġerrore":8581,"Ð¾Ð¹":8582,"Ġadventum":8583,"ĠIosiae":8584,"Ġmeliora":8585,"Ġlibertate":8586,"ĠAsia":8587,"Ġequo":8588,"Ġpassus":8589,"Ġiuvent":8590,"ĠHispania":8591,"Ġsono":8592,"Ġsyn":8593,"Ġturpius":8594,"Ġprophetae":8595,"Ġcreaturae":8596,"Ġbestiae":8597,"Ġcaptus":8598,"Ġsuscepit":8599,"ĠCorp":8600,"Ġbeneficio":8601,"iretur":8602,"Ġotium":8603,"Ġarmis":8604,"Ġquaeritis":8605,"Ġinfinita":8606,"ĠMater":8607,"Ġbreviter":8608,"Ġincommod":8609,"ustrali":8610,"ĠDemocr":8611,"ĠSequanae":8612,"Ġspeciei":8613,"ĠAustriae":8614,"ĠAssyri":8615,"Ġcalidum":8616,"ĠGargo":8617,"ĠCalifor":8618,"ĠPDF":8619,"Ġeunuchi":8620,"108836":8621,"62":8622,"68":8623,"==":8624,"Cap":8625,"DU":8626,"Dor":8627,"Dol":8628,"Iam":8629,"cit":8630,"ger":8631,"hac":8632,"hab":8633,"lt":8634,"pro":8635,"serunt":8636,"tione":8637,"uel":8638,"you":8639,"Ã¥":8640,"ÏĨ":8641,"çĶ":8642,"Ĩgypt":8643,"Ġpi":8644,"Ġnis":8645,"Ġmorem":8646,"Ġmenti":8647,"Ġinstant":8648,"ictum":8649,"icesimo":8650,"utiones":8651,"Ġfus":8652,"Ġful":8653,"liothec":8654,"omo":8655,"Ġhand":8656,"osus":8657,"Ġprior":8658,"Ġreus":8659,"Ġles":8660,"abitis":8661,"Ġutraque":8662,"ĠCy":8663,"ĠCas":8664,"Ġbac":8665,"Ġalibi":8666,"Ġpraepon":8667,"Ġhabita":8668,"Ġposui":8669,"uitu":8670,"Ġsculpt":8671,"aecenas":8672,"Ġ(...)":8673,"Ġthose":8674,"Ġthought":8675,"Ġviderentur":8676,"ĠLoc":8677,"ĠLitter":8678,"ĠRect":8679,"ĠTib":8680,"Ġparatus":8681,"Ġincor":8682,"Ġinclin":8683,"Ġincertum":8684,"Ġquaerunt":8685,"ĠBeatus":8686,"ĠGad":8687,"Ġcontul":8688,"Ġword":8689,"Ġintersit":8690,"Ġrespectu":8691,"rii":8692,"Ġdup":8693,"Ġdebit":8694,"Ġnullae":8695,"Ġvocati":8696,"Ġremed":8697,"Ġamicitiis":8698,"Ġmalus":8699,"iciendis":8700,"Ġ58":8701,"Ġrecessit":8702,"Ġrecognosc":8703,"Ġmollis":8704,"Ġgrata":8705,"Ġlaborem":8706,"assem":8707,"Ġprovoc":8708,"Ġvideam":8709,"Ġdeleta":8710,"Ġsanctis":8711,"Ġfaciens":8712,"Ġaccipitur":8713,"that":8714,"Ġreliqui":8715,"ĠExemp":8716,"Ġignomin":8717,"actio":8718,"Ġtimore":8719,"Ġsubstantiis":8720,"And":8721,"Ġpuls":8722,"Ġlatere":8723,"Ġ109":8724,"Ġpraedicta":8725,"Ġ169":8726,"ãģ§":8727,"Ġauctorem":8728,"Ġaedificavit":8729,"Ġadiut":8730,"Ġultrici":8731,"Ġvetus":8732,"Ġconsulatum":8733,"Ġphilosophia":8734,"ĠÃĨgypt":8735,"Ġexempl":8736,"ĠAnte":8737,"Ġdeput":8738,"Ġrecipiunt":8739,"Ġmagistrum":8740,"Ġiurisdict":8741,"Ġpropriis":8742,"ĠMagister":8743,"Ġaccidentia":8744,"Ġlibertatis":8745,"onder":8746,"Ġconiunctio":8747,"Ġjustitiam":8748,"Ġreligionis":8749,"Ġreligios":8750,"Ġvidebantur":8751,"Ġsocietate":8752,"Ġmarit":8753,"ĠNullam":8754,"Ġquaesita":8755,"Ġgenerale":8756,"Ġexperi":8757,"Ġfrequent":8758,"ĠEnim":8759,"ĠSalv":8760,"ĠAngliae":8761,"ĠPrince":8762,"Ġrelictum":8763,"Ġvendidit":8764,"Ġiucundius":8765,"Ġcotidi":8766,"Ġturba":8767,"Ġceciderunt":8768,"ĠMulti":8769,"Ġventura":8770,"Ġtristitiam":8771,"Ġbrach":8772,"Ġdifficultate":8773,"ĠCampania":8774,"Ġsagitt":8775,"Ġmeridiem":8776,"Ġaduers":8777,"Ġcountry":8778,"ĠPyrenaeorum":8779,"ĠAtlanticorum":8780,"éĭ¼":8781,"ĠBOX":8782,"ĠLacedaemon":8783,"Ġultricies":8784,"';":8785,"'ve":8786,"61":8787,"73":8788,"IS":8789,"Iron":8790,"No":8791,"Vulgate":8792,"eus":8793,"fr":8794,"nec":8795,"prae":8796,"ring":8797,"whorse":8798,"´ì":8799,"Î¬":8800,"ÑĦ":8801,"Ġequis":8802,"Ġmig":8803,"Ġmach":8804,"emini":8805,"Ġtor":8806,"Ġtop":8807,"uria":8808,"Ġvillam":8809,"Ġherb":8810,"odus":8811,"arias":8812,"ids":8813,"idio":8814,"ecun":8815,"ibilem":8816,"Ġread":8817,"Ġluna":8818,"Ġadnunt":8819,"acumque":8820,"Ġutilia":8821,"Ġdea":8822,"Ġdeesse":8823,"Ġdeorsum":8824,"Ġsugg":8825,"ĠEam":8826,"ĠEorum":8827,"ĠSatur":8828,"ĠSine":8829,"eluia":8830,"Ġ112":8831,"Ġbov":8832,"Ġdiceres":8833,"ĠPac":8834,"aturae":8835,"ĠMangabo":8836,"Ġsev":8837,"Ġipsas":8838,"Ġoppon":8839,"Ġnew":8840,"ĠRob":8841,"ĠRhen":8842,"Ġcadit":8843,"ĠTol":8844,"isco":8845,"Ġplerisque":8846,"Ġaccedit":8847,"Ġmodest":8848,"ĠEtsi":8849,"Ġlibere":8850,"incta":8851,"Ġdixerimus":8852,"rique":8853,"ĠOri":8854,"Ġnostras":8855,"ienti":8856,"Ġ1919":8857,"Ġantec":8858,"Ġlocorum":8859,"Ġsubic":8860,"Ġsublim":8861,"Ġaltare":8862,"Ġinvas":8863,"Ġdomic":8864,"Ġimpud":8865,"Ġcommunes":8866,"Ġdeberet":8867,"Ġputatur":8868,"Ġvocas":8869,"Ġurbana":8870,"Ġcapita":8871,"Ġapprob":8872,"itudini":8873,"Ġdeced":8874,"Ġactis":8875,"ĠChal":8876,"Ġelabor":8877,"Ġlitteram":8878,"Ġcredidit":8879,"Ġcrediderunt":8880,"Ġ67":8881,"Ġpraeterquam":8882,"Ġjus":8883,"Ġ2017":8884,"Ġ2018":8885,"Ġoptima":8886,"Ġprobari":8887,"Ġye":8888,"Ġglass":8889,"Ġprincipiis":8890,"ĠArt":8891,"ĠArdu":8892,"ĠĠĠĠĠĠĠĠĠĠĠĠ":8893,"Ġnesci":8894,"Ġdiligentiam":8895,"Ġ94":8896,"ĠChrys":8897,"Ġsapientis":8898,"Ġhonoribus":8899,"Ġmutari":8900,"ĠXXX":8901,"Ġaedibus":8902,"posuit":8903,"Ð¸ÑĤ":8904,"Ġeman":8905,"Ġaperta":8906,"Ġke":8907,"Ġliberorum":8908,"Ġaequalis":8909,"Ġaedificia":8910,"Ġadiuncta":8911,"cripta":8912,"Ġpraecipio":8913,"Ġefficiunt":8914,"Ġtraditum":8915,"Ġinveniri":8916,"Ġconsulem":8917,"Ġhabitare":8918,"Ġfind":8919,"Ġphilosophis":8920,"Ġaeternitas":8921,"Ġrefertur":8922,"ĠAliquid":8923,"Ġcalum":8924,"Ġhumanitate":8925,"Ġdiluv":8926,"Ġhostem":8927,"Ġreperire":8928,"Ġreperiuntur":8929,"Ġproximi":8930,"Ġlibertas":8931,"Ġ1947":8932,"Ġvires":8933,"ĠHierem":8934,"Ġlaoreet":8935,"Ġsententias":8936,"Ġhereditatem":8937,"yrr":8938,"Ġfabulae":8939,"Ġtutel":8940,"Ġtemere":8941,"Ġargumenta":8942,"ĠDolab":8943,"ĠDolorem":8944,"Ġcaptiv":8945,"Ġcondicio":8946,"Ġpraesidium":8947,"Ġpertineat":8948,"ĠSalom":8949,"Ġoblitus":8950,"Ġconcessa":8951,"itteret":8952,"Ġvocabula":8953,"Ġpaenitentiam":8954,"Ġdecretum":8955,"ĠSemper":8956,"encia":8957,"Quamquam":8958,"Francogallice":8959,"ĠSaxoniae":8960,"ĠAemilia":8961,"Ġilluminat":8962,"Ġbegan":8963,"ĠMoyses":8964,"Ġnormam":8965,"Ġmillesimo":8966,"Ġadolesc":8967,"Ġsacrific":8968,"Ioannes":8969,"Dorothy":8970,"\";":8971,"1000":8972,"Ap":8973,"Ant":8974,"Cic":8975,"DP":8976,"Er":8977,"HX":8978,"efac":8979,"ien":8980,"not":8981,"ough":8982,"riae":8983,"val":8984,"ww":8985,"Ã¹":8986,"ÄĻ":8987,"Ùĩ":8988,"ĠÑĤ":8989,"quia":8990,"itionibus":8991,"Ġpur":8992,"Ġpanis":8993,"onias":8994,"Ġnox":8995,"Ġnau":8996,"aei":8997,"Ġmou":8998,"Ġinsequ":8999,"Ġteg":9000,"Ġvali":9001,"uter":9002,"Ġianu":9003,"Ġfar":9004,"Ġfov":9005,"oma":9006,"Ġhil":9007,"imas":9008,"esi":9009,"arat":9010,"ulare":9011,"Ġprist":9012,"Ġprav":9013,"ott":9014,"Ġdestit":9015,"ĠSe":9016,"ĠSorcerer":9017,"ĠCain":9018,"elunc":9019,"agog":9020,"ĠDrus":9021,"Ġaliunde":9022,"Ġalioquin":9023,"ratio":9024,"Ġcour":9025,"ĠNeg":9026,"ensibus":9027,"Ġposuerunt":9028,"egoria":9029,"Ġsciunt":9030,"inavit":9031,"Ġuest":9032,"Ġnequ":9033,"ĠRest":9034,"Ġamari":9035,"Ġsoleo":9036,".....":9037,"Ġaccum":9038,"rior":9039,"Ġregina":9040,"ĠOI":9041,"Ġfecerim":9042,"Ġvirgo":9043,"abulum":9044,"Ġspelunc":9045,"Ġterre":9046,"Ġaudisset":9047,"Ġmultitudine":9048,"Ġmagnitudinis":9049,"Ġcuiuslibet":9050,"Ġagas":9051,"Ġnaturaliter":9052,"Ġdebitum":9053,"Ġvocum":9054,"Ġpecora":9055,"Ġcapiat":9056,"Ġcursum":9057,"Ġdivitiarum":9058,"Ġdeclina":9059,"Ġnotitiam":9060,"illo":9061,"ĠQuodsi":9062,"Ġservis":9063,"Ġrecept":9064,"ogle":9065,"Ġ71":9066,"Ġ73":9067,"Ġ78":9068,"Ġdefl":9069,"Ġdefendere":9070,"Ġcredibile":9071,"Ġje":9072,"Ġpraefectura":9073,"Ġprobata":9074,"Ġmolestus":9075,"ĠArc":9076,"Ġvestro":9077,"ĠGraecus":9078,"Ġundev":9079,"Ġtranqu":9080,"Ġtestes":9081,"ĠAdhuc":9082,"Ġcognosci":9083,"Ġappellavit":9084,"Ġconiur":9085,"Ġstatua":9086,"Ġflam":9087,"Ġpraedicatum":9088,"ĠBrute":9089,"Ġmoveatur":9090,"Ġpersonarum":9091,"Ġveterum":9092,"Ġmonaster":9093,"Ġhabitant":9094,"ĠEstne":9095,"Ġhabeatis":9096,"Ġnoluit":9097,"Ġinstituta":9098,"Ġsciret":9099,"Ġbibit":9100,"Ġangeli":9101,"Ġprompt":9102,"Ġcopias":9103,"Ġsexaginta":9104,"Ġclara":9105,"Ð¾Ð´":9106,"Ġterritor":9107,"ronae":9108,"Ġpervenire":9109,"Ġ</":9110,"Ġdamnum":9111,"Ġvehicula":9112,"ĠAugustinus":9113,"Ġfabulam":9114,"urrit":9115,"Ġtuto":9116,"Ġscholae":9117,"Ġarcam":9118,"Ġperpetuo":9119,"Ġsuscit":9120,"Ġpostulat":9121,"Ġitemque":9122,"Ġdenunt":9123,"ÐµÐ¼":9124,"Ġcantus":9125,"ĠAfrica":9126,"Ġapostolici":9127,"ĠCalv":9128,"Ġsomno":9129,"Ġindignum":9130,"Ġpeculio":9131,"Ã«l":9132,"Ġdividitur":9133,"shop":9134,"Ġoctavo":9135,"Ġfriends":9136,"Ġmercedem":9137,"Ġirritum":9138,"Ġpignus":9139,"Ġtogether":9140,"cuiusque":9141,"ĠIovis":9142,"Ġintroduc":9143,"Ġconsulibus":9144,"ĠIsraÃ«l":9145,"Ġrelatiue":9146,"ĠBerolini":9147,".;":9148,"54":9149,"Act":9150,"Hodie":9151,"Municipia":9152,"Variant":9153,"cid":9154,"dus":9155,"kr":9156,"low":9157,"piam":9158,"Ã»":9159,"ç´":9160,"Ġè":9161,"umenta":9162,"Ġaem":9163,"Ġaustrali":9164,"Ġsob":9165,"ined":9166,"Ġpel":9167,"Ġpress":9168,"Ġcari":9169,"Ġche":9170,"aeum":9171,"stor":9172,"Ġdot":9173,"Ġdarem":9174,"Ġmasc":9175,"Ġvaria":9176,"Ġvariant":9177,"Ġiri":9178,"Ġfertur":9179,"anct":9180,"arked":9181,"iale":9182,"ede":9183,"Ġliter":9184,"Ġlunae":9185,"Ġaditus":9186,"lly":9187,"Ġdestin":9188,"ĠAx":9189,"Ġexire":9190,"ĠSer":9191,"ĠSov":9192,"ĠCity":9193,"agor":9194,"ĠDa":9195,"ĠDu":9196,"Ġdicantur":9197,"Ġdicerent":9198,"Ġfacerent":9199,"Ġpraestit":9200,"ĠPtol":9201,"Ġgymn":9202,"ĠQuasi":9203,"peret":9204,"Ġcoeperit":9205,"Ġhabenda":9206,"Ġtuarum":9207,"Ġsciendum":9208,"Ġpotu":9209,"Ġappe":9210,"Ġabstin":9211,"ĠHac":9212,"ĠHanc":9213,"Ġidest":9214,"Ġnequam":9215,"ĠRei":9216,"ĠTit":9217,"Ġincho":9218,"Ġnihilum":9219,"igi":9220,"ĠGer":9221,"Ġsolam":9222,"Ġrum":9223,"ineant":9224,"Ġlegat":9225,"Ġlegionibus":9226,"Ġspatio":9227,"Ġincolunt":9228,"Ġpostulo":9229,"Ġpostremo":9230,"Ġobnox":9231,"Ġagg":9232,"Ġagis":9233,"Ġgenerum":9234,"Ġacies":9235,"Ġasinum":9236,"pexit":9237,"Ġnuncup":9238,"ernum":9239,"Ġcivitatum":9240,"Ġdecet":9241,"Ġcomprob":9242,"Ġservire":9243,"Ġconcub":9244,"Ġconcept":9245,"Ġvivific":9246,"Ġsequens":9247,"Ġinscript":9248,"Ġcaritatem":9249,"Ġcardin":9250,"Ġtenuit":9251,"Ġteneri":9252,"Ġcredentes":9253,"Ġ62":9254,"Ġ64":9255,"Ġexclud":9256,"Ġoppress":9257,"Ġoptimi":9258,"Ġprobatum":9259,"Ġprobationem":9260,"Ð°ÑĢ":9261,"Ġ82":9262,"Ġ84":9263,"Ġ87":9264,"rehensum":9265,"Ġegredi":9266,"Ġnecessitatem":9267,"Ġreliquos":9268,"Ġmediae":9269,"actae":9270,"Ġpatron":9271,"ifex":9272,"Ġtimor":9273,"ideas":9274,"Ġaccusare":9275,"Ġtransg":9276,"Ġtransm":9277,"Ġostendam":9278,"Ġaedificata":9279,"Ġadiun":9280,"Ġmove":9281,"Ġepiscopum":9282,"Ġdetest":9283,"Ġpraecipua":9284,"Ġdumtax":9285,"Ġfinita":9286,"Ġartibus":9287,"Ġbreve":9288,"ĠThey":9289,"Ġdiuers":9290,"ĠCarthag":9291,"Ġindicat":9292,"ĠIudaeis":9293,"Ġmittam":9294,"Ġpraedia":9295,"Ġcompositum":9296,"Ġreligionem":9297,"Ġoffens":9298,"Ġarcu":9299,"Î¿Î½":9300,"Ġcrimine":9301,"ĠPars":9302,"ocraticae":9303,"Ġbenedixit":9304,"Ġdubitamus":9305,"Ġindigentia":9306,"Ġtollitur":9307,"ĠEuropa":9308,"ĠTerra":9309,"ĠColosse":9310,"ĠXVIII":9311,"Ġperspicuum":9312,"Ġurbi":9313,"ĠYou":9314,"Ġretinere":9315,"Ġpaenitet":9316,"Ġabundantia":9317,"ĠIncolae":9318,"Ġcatholica":9319,"Ġfabric":9320,"Ġpoetae":9321,"Ġoriginem":9322,"Ġsigno":9323,"Ġuerba":9324,"Ġinhabit":9325,"Ġvariet":9326,"Ġmagistratibus":9327,"ĠNescio":9328,"Ġpercussit":9329,"Ġbenevolentiae":9330,"ĠPharao":9331,"Ġbeaut":9332,"Ġtortor":9333,"Ġincorrupt":9334,"Ġdumtaxat":9335,"?Â»":9336,"AS":9337,"Aut":9338,"Co":9339,"If":9340,"Ki":9341,"La":9342,"Lingu":9343,"That":9344,"bis":9345,"cl":9346,"get":9347,"iur":9348,"iol":9349,"ieri":9350,"ny":9351,"rari":9352,"ricae":9353,"uk":9354,"vae":9355,"veg":9356,"xisti":9357,"Ã¬":9358,"Äĥ":9359,"Î³":9360,"Î´":9361,"ĠÑĢ":9362,"ery":9363,"itch":9364,"iserit":9365,"Ġpub":9366,"Ġcarum":9367,"Ġcith":9368,"Ġmountain":9369,"Ġtag":9370,"Ġtell":9371,"Ġvt":9372,"Ġhapp":9373,"Ġhujus":9374,"imed":9375,"eter":9376,"etiam":9377,"Ġnono":9378,"edo":9379,"Ġrequi":9380,"Ġadl":9381,"Ġadest":9382,"Ġdestr":9383,"ĠIlli":9384,"Ġconatus":9385,"ĠSaec":9386,"ĠCot":9387,"ĠCupid":9388,"omne":9389,"Quia":9390,"ĠPod":9391,"ĠPag":9392,"ĠPlin":9393,"Ġgot":9394,"istit":9395,"ucius":9396,"ĠMoy":9397,"Ġseipsum":9398,"ĠLex":9399,"ĠHam":9400,"Ġerimus":9401,"ĠRev":9402,"Ġparlam":9403,"Ġtemplo":9404,"Ġcommor":9405,"Ġinterfectus":9406,"Ġpatrum":9407,"Ġpatef":9408,"Ġanimos":9409,"ĠOn":9410,"ĠIndic":9411,"issimas":9412,"Ġ1920":9413,"Ġ1933":9414,"Ġuse":9415,"Ġloquens":9416,"Ġoculo":9417,"Ġsubj":9418,"Ġmultus":9419,"rema":9420,"Ġscripto":9421,"Ġdui":9422,"ĠAnsel":9423,"Ġagenda":9424,"Ġacerb":9425,"Ġassign":9426,"Ġveneris":9427,"Ġtabulam":9428,"Ġsuperior":9429,"Ġrepper":9430,"Ġecclesias":9431,"Ġmalitiam":9432,"ĠâĢ¹":9433,"Ġnotandum":9434,"Ġpuerit":9435,"Ġcognitum":9436,"ĠFrancicae":9437,"ĠFranciscus":9438,"Ġconcepit":9439,"Ġrecuper":9440,"Ġgratul":9441,"Ġconfec":9442,"ĠRomaniae":9443,"Ġcorpori":9444,"ĠChar":9445,"Ġvivi":9446,"Ġvivat":9447,"Ġplacitum":9448,"Ġfrug":9449,"Ġlaboris":9450,"Ġnovo":9451,"Ġnovus":9452,"ardus":9453,"Ġevac":9454,"Ġducem":9455,"Ġcogito":9456,"ĠMartin":9457,"Ġ170":9458,"actis":9459,"Ġvenientem":9460,"Ġplurimis":9461,"Ġaquis":9462,"Ġaperte":9463,"Ġpeccatorum":9464,"Ġmorta":9465,"ãģ«":9466,"Ġsignificare":9467,"Ġaequales":9468,"ĠThen":9469,"Ġponam":9470,"Ġdiffin":9471,"Ġdiffert":9472,"Ġcontrist":9473,"Ġinvenimus":9474,"Ġinveniat":9475,"Ġinstitutus":9476,"Ġinstitutis":9477,"Ġcogitatur":9478,"Ġpromotus":9479,"Ġerrorem":9480,"Ġseptimo":9481,"Ġrecipit":9482,"ĠPetro":9483,"Ġuideri":9484,"Ġdisputare":9485,"atuor":9486,"Ġludum":9487,"Ġambulare":9488,"Ġmerces":9489,"Ġversantur":9490,"Ġfabula":9491,"Ġfabulas":9492,"ĠDecisiones":9493,"Ġignorat":9494,"Ġmeruit":9495,"Ġfew":9496,"Ġfestum":9497,"ownload":9498,"Ġflumine":9499,"Ġfluminis":9500,"Ġsufficere":9501,"Ġuniuscuiusque":9502,"Ġproficiscitur":9503,"ĠPersarum":9504,"Ġtitulum":9505,"Ġgubernator":9506,"Ġdecreta":9507,"ĠĠĠĠĠĠĠĠĠĠĠĠĠĠĠĠĠĠĠĠĠĠĠĠĠĠĠĠĠĠĠĠĠĠĠĠĠĠĠĠĠĠĠĠĠĠĠĠĠĠĠĠĠĠĠĠĠĠĠĠĠĠĠĠ":9508,"Ġvaleas":9509,"ĠAlexander":9510,"Ġdextera":9511,"Ġoeconomiae":9512,"ĠLatinos":9513,"Ġreversi":9514,"Ġomittam":9515,"ailable":9516,"\"\\\"\\\"\\\"\\\"\\\"\\\"\\\"\\\"\\\"\\\"\\\"\\\"\\\"\\\"\\\"\\\"\\\"\\\"\\\"\\\"\\\"\\\"\\\"\\\"\\\"\\\"\\\"\\\"\\\"\\\"\\\"\\\"\\\"\\\"\\\"\\\"\\\"\\\"\\\"\\\"\\\"\\\"\\\"\\\"\\\"\\\"\\\"\\\"\\\"\\\"\\\"\\\"\\\"\\\"\\\"\\\"\\\"\\\"\\\"\\\"\\\"\\\"\\\"\\":9517,"Ġdilexit":9518,"Ġdefunctus":9519,"Aliquam":9520,"ĠSociet":9521,"aphys":9522,"Dixitque":9523,"ĠJoseph":9524,"Inter":9525,"compare":9526,"Ġmassa":9527,"OVE":9528,"cemodi":9529,"ĠSoviet":9530,"74":9531,"?âĢĿ":9532,"Cont":9533,"OM":9534,"Oh":9535,"ait":9536,"cor":9537,"div":9538,"eamus":9539,"hes":9540,"ken":9541,"nunc":9542,"oz":9543,"pg":9544,"sorum":9545,"silv":9546,"uatur":9547,"ws":9548,"ÅĻ":9549,"áĥ":9550,"ĠØ":9551,"ĠÃ©":9552,"Ġeno":9553,"erra":9554,"Ġseg":9555,"Ġsay":9556,"inar":9557,"itania":9558,"usce":9559,"ativa":9560,"ntur":9561,"Ġnatu":9562,"Ġdaret":9563,"Ġdrag":9564,"rexit":9565,"Ġtan":9566,"Ġtattoos":9567,"Ġfatum":9568,"ecimo":9569,"ules":9570,"Ġpra":9571,"ols":9572,"Ġrenov":9573,"Ġreiciendis":9574,"Ġlog":9575,"Ġliturg":9576,"udum":9577,"acia":9578,"Ġutatur":9579,"Ġutrique":9580,"ĠIb":9581,"ĠIon":9582,"ĠIan":9583,"ĠIuv":9584,"Ġsuch":9585,"alitate":9586,"ĠCong":9587,"ĠClaritas":9588,"elus":9589,"ĠDico":9590,"esta":9591,"Ġpraedit":9592,"ĠPenn":9593,"Ġgentem":9594,"ĠQuantum":9595,"Ġhabitura":9596,"ivoc":9597,"ĠMath":9598,"Ġpotent":9599,"Ġcomes":9600,"Ġsei":9601,"ĠLaud":9602,"ĠHÃ¦c":9603,"eruntque":9604,"ĠDef":9605,"ĠTam":9606,"ĠTrans":9607,"Ġinclus":9608,"Ġaliquet":9609,"Ġpluv":9610,"ĠVnde":9611,"roque":9612,"Ġmauris":9613,"ĠBulg":9614,"Ġsolitum":9615,"Ġrock":9616,"Ġown":9617,"Ġwr":9618,"Ġwell":9619,"Ġsumitur":9620,"Ġfuissent":9621,"eriora":9622,"erationem":9623,"Ġbonitatem":9624,"aphat":9625,"Ġlegunt":9626,"ientur":9627,"Ġspatium":9628,"Ġlocup":9629,"Ġusurp":9630,"Ġloquendo":9631,"Ġsubm":9632,"Ġsubter":9633,"Ġaudeo":9634,"Ġobsequ":9635,"levit":9636,"Ġinventus":9637,"Ġscriptus":9638,"Ġnullis":9639,"Ġvenias":9640,"Ġvitiis":9641,"Ġtook":9642,"Ġsuperiorem":9643,"Ġsuperioribus":9644,"uique":9645,"Ġcurare":9646,"Ġcivitati":9647,"Ġdecip":9648,"Ġdeceat":9649,"ĠQuidam":9650,"Ġdedisse":9651,"Ġmortua":9652,"Ġdeser":9653,"Ġsentiunt":9654,"Ġconcilium":9655,"Ġrecens":9656,"Ġrecepit":9657,"Ġscribitur":9658,"Ġscribendum":9659,"Ġiusti":9660,"Ġviventem":9661,"Ġfiet":9662,"Ġfiebat":9663,"Ġmolestie":9664,"Ġcertiorem":9665,"Ġvester":9666,"ĠGraeciam":9667,"Ġquaerendum":9668,"Ġevident":9669,"Ġaetatibus":9670,"Ġ97":9671,"Ġtabell":9672,"Ġhonores":9673,"ĠXIII":9674,"Ġaedes":9675,"Ġ118":9676,"Ġemere":9677,"Ġfactio":9678,"Ġdubitatio":9679,"Ġonline":9680,"Ġoppidi":9681,"Ġaedificavi":9682,"ĠIoann":9683,"Ġdetrah":9684,"Ġpacis":9685,"ĠPostum":9686,"Ġdissent":9687,"Ġalicubi":9688,"Ġlectores":9689,"Ġdepend":9690,"Ġaccepisti":9691,"Ġexistimes":9692,"ĠIudaeorum":9693,"ĠNecess":9694,"Ð°Ðº":9695,"Ġpraedest":9696,"Ġdefinitionem":9697,"Ġdefinitione":9698,"Ġutilitas":9699,"Ġ1991":9700,"Ġpedem":9701,"Ġretro":9702,"ÐºÐ°":9703,"ÐºÐ¸":9704,"ennio":9705,"ĠIpsa":9706,"ĠNullus":9707,"Ġ1974":9708,"quaeque":9709,"ĠAgrip":9710,"Ġpeius":9711,"ÐµÐ¹":9712,"Ġprosper":9713,"ĠPompeio":9714,"Ġfacultas":9715,"ĠMinore":9716,"Ġoperatio":9717,"arnationis":9718,"Ġdeliciis":9719,"ippus":9720,"Ġinterficere":9721,"Ġmontem":9722,"Ã³n":9723,"Ġitinera":9724,"insula":9725,"Ġcongregati":9726,"Ġpraeclara":9727,"Ġgrave":9728,"ĠLinguae":9729,"ĠQuotquot":9730,"Ġadoptionem":9731,"Ġpraediorum":9732,"Ġsenectute":9733,"Ġanimadverti":9734,"Ġausus":9735,"ĠJuda":9736,"Ġscandaliz":9737,"Ġmaturitatem":9738,"ĠCantu":9739,"Ġhelp":9740,"Ġrediit":9741,"ĠDiscip":9742,"ĠLondinii":9743,"ĠFrider":9744,"Ġsabb":9745,"Ġdiap":9746,"Ġchildren":9747,"Ġreturned":9748,"Ġstrepitum":9749,"ĠGargoyles":9750,"ĠMangaboos":9751,"lowly":9752,"Ġenough":9753,"//":9754,"CL":9755,"IO":9756,"Pi":9757,"UT":9758,"Ubi":9759,"bed":9760,"mer":9761,"nas":9762,"tamen":9763,"{\"":9764,"}}":9765,"Ïī":9766,"ÙĨ":9767,"ÛĮ":9768,"ä¹":9769,"å¤":9770,"åį":9771,"ĠÑĥ":9772,"inet":9773,"initatis":9774,"atiae":9775,"Ġcann":9776,"Ġdas":9777,"Ġmac":9778,"Ġinha":9779,"icit":9780,"iciae":9781,"Ġtz":9782,"Ġtri":9783,"utes":9784,"Ġiumentis":9785,"Ġfen":9786,"Ġhow":9787,"anensi":9788,"arae":9789,"uni":9790,"Ġrequire":9791,"Ġlon":9792,"iamur":9793,"ionali":9794,"Ġquaesi":9795,"Ġanx":9796,"Ġsuave":9797,"ĠEb":9798,"ĠAN":9799,"ĠAlia":9800,"alo":9801,"ĠSara":9802,"eld":9803,"ago":9804,"ĠDoc":9805,"Ġmeque":9806,"Ġ110":9807,"Ġdicentem":9808,"Ġdicebatur":9809,"Ġfacili":9810,"ĠPed":9811,"Ġgu":9812,"Ġsedere":9813,"Ġsedens":9814,"ĠNa":9815,"Ġhabebam":9816,"Ġscitur":9817,"Ġpotuisset":9818,"Ġapostoli":9819,"andas":9820,"Ġthron":9821,"Ġviderat":9822,"ĠHad":9823,"Ġoptin":9824,"Ġidea":9825,"Ġerrare":9826,"ĠRo":9827,"ĠRosc":9828,"Ġcaerim":9829,"Ġambit":9830,"ĠFin":9831,"Ġvolum":9832,"Ġvolueris":9833,"Ġconsuli":9834,"Ġimo":9835,"Ġnihilominus":9836,"iginti":9837,"ĠGali":9838,"Ġwonder":9839,"Ġorci":9840,"Ġfueris":9841,"Ġpatrim":9842,"range":9843,"Ġregia":9844,"Ġregioni":9845,"Ġmind":9846,"Ġminore":9847,"Ġspectare":9848,"ĠUx":9849,"Ġalso":9850,"Ġnosc":9851,"Ġvoluptatis":9852,"Ġduplex":9853,"Ġagatur":9854,"Ġpraesidem":9855,"Ġputabat":9856,"Ġremarked":9857,"Ġiudico":9858,"Ġcursu":9859,"Ġamica":9860,"Ġmaximae":9861,"Ġfortuit":9862,"Ġiuste":9863,"Ġelecta":9864,"Ġvivo":9865,"Ġpossitis":9866,"ĠAmor":9867,"ĠAmen":9868,"Ġcredidi":9869,"Ġeritis":9870,"Ġexclus":9871,"Ġvisu":9872,"Ġprobandum":9873,"Ġnegant":9874,"Ġprincipem":9875,"Ġvestrae":9876,"Ġnesciebam":9877,"Ġevan":9878,"Ġundique":9879,"ĠWest":9880,"Ġducit":9881,"Ġnecessitatis":9882,"Ġvalent":9883,"Ġabsente":9884,"Ġintellegatur":9885,"ĠAdd":9886,"Ġsapientes":9887,"Ġhumano":9888,"Ġvicit":9889,"Ġindulg":9890,"Ð¸Ñı":9891,"Ġlaudatur":9892,"ĠProc":9893,"Ġdiscipl":9894,"Ġdiscipulorum":9895,"Ġtantam":9896,"Ġfactam":9897,"ĠpoÃ«":9898,"Ġoportebat":9899,"Ġsacr":9900,"ĠQuamvis":9901,"ĠBrutum":9902,"Ġadminister":9903,"Ġimmedi":9904,"Ġoperari":9905,"Ġostensum":9906,"Ġaddere":9907,"Ġdeterr":9908,"Ġultrices":9909,"Ġnocere":9910,"Ġmilitiae":9911,"Ġpraecipuum":9912,"ĠPlus":9913,"Ġtribuit":9914,"Ġinvenies":9915,"Ġedere":9916,"Ġliceret":9917,"Ġfinit":9918,"Ġlaetus":9919,"Ġsermonibus":9920,"Ġprofecti":9921,"Ġcopios":9922,"Ġdifficilius":9923,"Ġadvoc":9924,"robrium":9925,"ĠPetri":9926,"Ġsperare":9927,"Ġequitum":9928,"Ġnuntios":9929,"Ġiuvenis":9930,"ĠHieros":9931,"Ġpuellam":9932,"Ġnavis":9933,"Ġadscrib":9934,"ĠPaulum":9935,"Ġdivisit":9936,"Ġadflic":9937,"ennium":9938,"Ġreferri":9939,"Ġarca":9940,"Ġsyst":9941,"Ġargument":9942,"Ġargumento":9943,"ĠSawhorse":9944,"Ġgradum":9945,"Ġecclesiastica":9946,"Ġangelo":9947,"Ġsacerdos":9948,"ĠPompeium":9949,"Ġsepulc":9950,"Ġpossibili":9951,"ĠAccus":9952,"ĠAccius":9953,"Ġgladio":9954,"Ġproportion":9955,"Ġconscientia":9956,"Ð¸Ð¹":9957,"Ġaegr":9958,"Ġpoenae":9959,"ĠRussiae":9960,"ĠDemocraticae":9961,"ĠVelit":9962,"Ġbaptis":9963,"ĠCiceronis":9964,"ĠItalicus":9965,"ĠRespond":9966,"ĠDucatus":9967,"Ġelementum":9968,"Ġiuvenes":9969,"Ġintellexi":9970,"ĠTuscul":9971,"ĠLevi":9972,"ĠCeterum":9973,"ĠBorussiae":9974,"ĠPublicae":9975,"Ġ$(":9976,"Ġtoler":9977,"products":9978,"ĠMichiganiae":9979,"Respon":9980,"ĠNorveg":9981,"ĠGoogle":9982,"ĠAssyriorum":9983,"Ġaccumsan":9984,"Ġbeautif":9985,"Dec":9986,"How":9987,"LL":9988,"Ne":9989,"Nov":9990,"Neque":9991,"Shop":9992,"TER":9993,"decim":9994,"eis":9995,"eae":9996,"files":9997,"ienda":9998,"lit":9999,"less":10000,"my":10001,"pote":10002,"Ð¹":10003,"Ġodi":10004,"Ġà´":10005,"Ġsid":10006,"iniae":10007,"Ġquite":10008,"Ġpudic":10009,"onc":10010,"Ġnil":10011,"emper":10012,"Ġtav":10013,"Ġfini":10014,"omb":10015,"etae":10016,"idisse":10017,"uls":10018,"ular":10019,"Ġnong":10020,"unum":10021,"ederunt":10022,"Ġrever":10023,"Ġlangu":10024,"aces":10025,"abilius":10026,"Ġesur":10027,"otr":10028,"iloqu":10029,"Ġconfect":10030,"ĠAaron":10031,"Ġexact":10032,"ĠSm":10033,"ĠCle":10034,"ĠDam":10035,"Ġbus":10036,"Ġprael":10037,"ĠPR":10038,"ĠPyrr":10039,"ĠQuic":10040,"Ġsiquidem":10041,"ĠNunquam":10042,"Ġhabentem":10043,"ĠMosc":10044,"undae":10045,"issi":10046,"Ġuobis":10047,"Ġabl":10048,"avisse":10049,"averint":10050,"ĠLXX":10051,"ĠHor":10052,"Ġoperum":10053,"Ġneed":10054,"ĠToll":10055,"Ġparatum":10056,"iscons":10057,"Ġvoles":10058,"ertere":10059,"ĠBeth":10060,"Ġsolem":10061,"Ġintend":10062,"Ġessendi":10063,"Ġcommin":10064,"Ġsumatur":10065,"Ġstart":10066,"Ġstomach":10067,"Ġrescrib":10068,"eratio":10069,"episti":10070,"Ġdixeris":10071,"Ġdixissent":10072,"ovie":10073,"adi":10074,"Ġminoris":10075,"ĠOd":10076,"ĠOtt":10077,"ienter":10078,"ifica":10079,"Ġobst":10080,"Ġoboed":10081,"Ġdomui":10082,"Ġagris":10083,"che":10084,"Ġvenen":10085,"Ġvenisse":10086,"Ġpraesentes":10087,"Ġpraescrib":10088,"Ġtristis":10089,"Ġtoo":10090,"Ġreplet":10091,"Ġcivilis":10092,"Ġdiscessit":10093,"Ġdivulg":10094,"Ġpueris":10095,"rimi":10096,"Ġconcili":10097,"Ġrecess":10098,"Ġinflam":10099,"Ġvivet":10100,"Ġfidelium":10101,"Ġ74":10102,"Ġfrui":10103,"ĠJacob":10104,"Ġexclam":10105,"Ġproverb":10106,"Ġhuiuscemodi":10107,"Ġcirculi":10108,"Ġprobitatis":10109,"Ġmoleste":10110,"ĠLatini":10111,"eremur":10112,"Ġ83":10113,"Ġunder":10114,"Ġextrinsecus":10115,"ĠWe":10116,"Ġducta":10117,"Ġtestific":10118,"olium":10119,"Ġfacienda":10120,"Ġappellat":10121,"Ġappellamus":10122,"Ð¸Ð½":10123,"Ð¸Ð»":10124,"Ġsuppos":10125,"Ġpatronus":10126,"Ġlaudes":10127,"Ġveniens":10128,"ĠUna":10129,"Ġprovinciarum":10130,"Ġfluct":10131,"Ġmuliere":10132,"Ġmorbo":10133,"Ġ160":10134,"ĠIllum":10135,"htt":10136,"Ġgravida":10137,"Ġaedificationem":10138,"ĠGermanici":10139,"ĠSanctorum":10140,"Ã©n":10141,"Ġsinguli":10142,"Ġaudieris":10143,"Ġantiquorum":10144,"Ġinvenio":10145,"Ġconsule":10146,"Ġsaw":10147,"Ġtertiam":10148,"ations":10149,"ĠAntonium":10150,"Ġcogitationem":10151,"Ġgaudere":10152,"Ġnegoti":10153,"Ġdictu":10154,"Ġaccepisset":10155,"Ġrecipiat":10156,"Ġdelectari":10157,"ĠStud":10158,"Ġeffig":10159,"Ġnuntium":10160,"Ġculpam":10161,"Ġ1990":10162,"Ġnarrare":10163,"Ġconiuncti":10164,"Ġiucunda":10165,"Ġdivisionem":10166,"Ġtake":10167,"Ġtutela":10168,"ĠMosi":10169,"Ġquarta":10170,"they":10171,"quebatur":10172,"Ġfeugiat":10173,"Ġangelum":10174,"Ġdesiderium":10175,"Ġdormivit":10176,"Ġconsolationem":10177,"Ġotio":10178,"Ġsepulch":10179,"Î¹Îº":10180,"Ġsumptus":10181,"Ġ1866":10182,"Ġsacerdotes":10183,"Ġintegrum":10184,"ĠComment":10185,"Ġoccultum":10186,"Ġagnoscere":10187,"Ġubicumque":10188,"Ġiubet":10189,"ĠMichae":10190,"Ġproprietas":10191,"This":10192,"ĠRepell":10193,"Ġintuens":10194,"Ġconsummationem":10195,"ĠPapa":10196,"Ġfluvius":10197,"Ġsterilis":10198,"ÙĪØ":10199,"Ġpulcherrima":10200,"ĠEzechiae":10201,"Ġcandid":10202,"ĠEboraci":10203,"Ġquinquaginta":10204,"Ġdialect":10205,"Ġcalled":10206,"ĠAdminister":10207,"ĠIsaac":10208,"Ġgeomet":10209,"Ġxxx":10210,"Volupt":10211,"Ġnisl":10212,"ĠAxonae":10213,"58":10214,"65":10215,"71":10216,"Ea":10217,"Just":10218,"Mihi":10219,"Of":10220,"Ph":10221,"Ps":10222,"So":10223,"af":10224,"air":10225,"cd":10226,"gone":10227,"ham":10228,"hic":10229,"haec":10230,"ianum":10231,"jpg":10232,"lr":10233,"mium":10234,"nihil":10235,"oi":10236,"port":10237,"pectus":10238,"runt":10239,"vam":10240,"vide":10241,"Ã½":10242,"å±":10243,"å¹":10244,"åĲ":10245,"Ġais":10246,"Ġauri":10247,"Ġsom":10248,"iny":10249,"itioni":10250,"Ġquatuor":10251,"atque":10252,"amento":10253,"Ġnib":10254,"Ġdanda":10255,"Ġmel":10256,"Ġinept":10257,"ical":10258,"Ġtt":10259,"Ġferi":10260,"Ġfour":10261,"osy":10262,"unus":10263,"Ġrequiesc":10264,"acc":10265,"llus":10266,"erea":10267,"Ġdelib":10268,"ĠIf":10269,"ĠEd":10270,"ĠEi":10271,"ĠEarum":10272,"ĠAit":10273,"ĠSina":10274,"Ġbal":10275,"Ġdicto":10276,"endorum":10277,"Quoniam":10278,"Ġpern":10279,"Ġfacin":10280,"Ġpraedam":10281,"ĠPub":10282,"Ġcoop":10283,"Ġcoeg":10284,"ĠNas":10285,"ĠMuli":10286,"ĠMelius":10287,"eburg":10288,"ander":10289,"Ġueritas":10290,"Ġabduc":10291,"ĠLiv":10292,"Ġopen":10293,"ĠRed":10294,"Ġamantur":10295,"Ġamph":10296,"Ġatqui":10297,"ĠTy":10298,"ultor":10299,"Ġparvis":10300,"Ġvolat":10301,"ĠBar":10302,"ĠBello":10303,"ĠGreg":10304,"Ġrutrum":10305,"Ġwent":10306,"Ġorg":10307,"Ġorare":10308,"Ġoratore":10309,"erii":10310,"riet":10311,"Ġminim":10312,"ĠOpp":10313,"Ġcreb":10314,"Ġcreatum":10315,"Ġimpot":10316,"Ġimpend":10317,"Ġagens":10318,"Ġaspectu":10319,"ĠvitÃ¦":10320,"Ġputavi":10321,"iew":10322,"Ġtabulq":10323,"Ġtabulw":10324,"Ġtabulz":10325,"Ġtabulator":10326,"Ġ1813":10327,"Ġcurrent":10328,"Ġapprehend":10329,"heum":10330,"Ġnotam":10331,"ircum":10332,"ext":10333,"Ġconform":10334,"Ġcorporum":10335,"Ġclav":10336,"Ġpublici":10337,"Ġpublicis":10338,"ogis":10339,"Ġlinguarum":10340,"Ġpraeterm":10341,"Ġreditus":10342,"ĠLatinus":10343,"Ġimperfect":10344,"Ġiuss":10345,"Ġ95":10346,"Ġintellegam":10347,"Ġexercitatione":10348,"1082":10349,"Ġtabh":10350,"Ġtabj":10351,"Ġtabull":10352,"Ġtabup":10353,"Ġtablu":10354,"Ġhumanum":10355,"Ġvicesimo":10356,"Ġcognoscimus":10357,"Ġreliquisti":10358,"Ġmedicam":10359,"Ġstudiosus":10360,"Ġconiectura":10361,"ĠUnionis":10362,"ĠFoeder":10363,"Ġoporteat":10364,"Ġsacrae":10365,"Ġaquil":10366,"Ġapertum":10367,"Ġaperire":10368,"Ġaperti":10369,"ĠBruto":10370,"Ġsocium":10371,"angel":10372,"Ġliberam":10373,"Ġliberius":10374,"Ġoperae":10375,"Ġgravi":10376,"1450":10377,"ĠGermani":10378,"Ġmoveat":10379,"Ġliv":10380,"Ġperfectus":10381,"Ġanimalibus":10382,"Ġaudiebamus":10383,"Ġinvenerit":10384,"Ġartium":10385,"Ġfamiliam":10386,"Ġfamiliaris":10387,"Ġsecundus":10388,"Ġbibam":10389,"Ġpraestat":10390,"Ġattul":10391,"Ġhumanitatem":10392,"Ġdicturum":10393,"Ð¾Ð³":10394,"Ġadventu":10395,"Ġsalute":10396,"Ġdescendit":10397,"Ġuidet":10398,"racch":10399,"Ġeffectu":10400,"Ġperdidit":10401,"Ġludus":10402,"Ġfortunam":10403,"Ġsorores":10404,"Ġtaub":10405,"Ġdispon":10406,"Ġhereditatis":10407,"Ġaffectu":10408,"ĠDicit":10409,"ĠIuno":10410,"Ġcircums":10411,"ĠProvinciae":10412,"Ġquaesivi":10413,"Ġ1972":10414,"3216":10415,"Ġscelerat":10416,"Ġsceleris":10417,"Ġfundus":10418,"Ġbestiam":10419,"Ġiniuriae":10420,"Ġmusica":10421,"Ġangelorum":10422,"Ġcommodum":10423,"Ġbeneficia":10424,"Ġplenam":10425,"Ġorbe":10426,"ĠSimon":10427,"Ġapostolus":10428,"Ġgladium":10429,"Atque":10430,"Ġvocabulo":10431,"Ð¸Ð¼":10432,"ĠVoluptas":10433,"ĠMoab":10434,"Ġmembrum":10435,"Ġuirtus":10436,"Ġintegr":10437,"Ġmisericordiae":10438,"Ġuitam":10439,"Ġmeritum":10440,"Ġtabuk":10441,"Ġtabual":10442,"ĠPythag":10443,"Ġâľ":10444,"Ġconsiliis":10445,"Ã®s":10446,"Ġpollicitus":10447,"Ġplebe":10448,"Ġnefas":10449,"Omnia":10450,"Ġlooked":10451,"Ġsenectutem":10452,"Ġvanitas":10453,"ĠHomo":10454,"ĠAenean":10455,"ĠDumiatis":10456,"Ġfluvium":10457,"ĠPlatonis":10458,"ĠConsequatur":10459,"Ġquidditas":10460,"ĠMercur":10461,"Ġprimogenitum":10462,"Ġtyrann":10463,"Ġcohort":10464,"Ġiulianus":10465,"Ġsurrexit":10466,"Ġcomplectitur":10467,"ĠBavariae":10468,"Ġmehercule":10469,"Ġyears":10470,"shopify":10471,"ĠHierosol":10472,"cdn":10473,"**":10474,"</":10475,"Ac":10476,"bet":10477,"creat":10478,"fuit":10479,"ker":10480,"lae":10481,"mam":10482,"oe":10483,"rod":10484,"ruit":10485,"rÃ¦":10486,"tibus":10487,"tionem":10488,"uerim":10489,"with":10490,"yth":10491,"Ä±":10492,"ÄĽ":10493,"ÙĬ":10494,"à·":10495,"Ġsess":10496,"inu":10497,"inter":10498,"itare":10499,"Ġquom":10500,"Ġquing":10501,"atui":10502,"amb":10503,"Ġcli":10504,"Ġcab":10505,"Ġnacti":10506,"Ġnempe":10507,"ste":10508,"Ġdatus":10509,"Ġdantur":10510,"Ġmess":10511,"Ġmoli":10512,"iculi":10513,"icked":10514,"Ġtq":10515,"Ġts":10516,"Ġtrec":10517,"Ġtba":10518,"oriam":10519,"Ġvae":10520,"Ġvall":10521,"esop":10522,"anes":10523,"aniam":10524,"ents":10525,"iavit":10526,"olam":10527,"quest":10528,"Ġland":10529,"Ġadrog":10530,"Ġutcumque":10531,"otis":10532,"ĠEu":10533,"ĠAper":10534,"ĠSar":10535,"elph":10536,"ĠDE":10537,"ĠDub":10538,"ĠDolia":10539,"Ġdicebam":10540,"taor":10541,"Quare":10542,"ippe":10543,"Ġperl":10544,"Ġpervers":10545,"Ġface":10546,"ĠPecun":10547,"Ġgabulator":10548,"Ġground":10549,"Ġillarum":10550,"obrem":10551,"ectione":10552,"Ġcoopt":10553,"Ġcoinqu":10554,"Ġcoaeter":10555,"ĠNer":10556,"ĠNoli":10557,"Ġsciens":10558,"ivamus":10559,"ĠMut":10560,"ĠMinister":10561,"ebatis":10562,"Ġcomedit":10563,"Ġsepe":10564,"ptum":10565,"Ġvideret":10566,"ĠHon":10567,"Ġamisit":10568,"Ġatbulator":10569,"Ġincircum":10570,"Ġaliquas":10571,"ĠVar":10572,"erto":10573,"ustum":10574,"Ġunic":10575,"ĠBl":10576,"ĠBrix":10577,"Ġrabulator":10578,"Ġcontenti":10579,"Ġwings":10580,"Ġoriuntur":10581,"Ġfuerant":10582,"Ġstood":10583,"Ġreserv":10584,"episse":10585,"Ġsecur":10586,"enior":10587,"Ġcorrect":10588,"Ġcrevit":10589,"Ġlegum":10590,"Ġlegistis":10591,"Ġnumeros":10592,"Ġmagnopere":10593,"Ġagro":10594,"Ġvener":10595,"Ġvenimus":10596,"Ġputarem":10597,"Ġvocavitque":10598,"Ġtabulstor":10599,"Ġtabulagor":10600,"Ġtabultaor":10601,"Ġexprob":10602,"Ġapprop":10603,"Ġcompell":10604,"Ġcomplet":10605,"Ġservorum":10606,"Ġreceptum":10607,"Ġfortior":10608,"Ġscribendo":10609,"ĠÐ±":10610,"ĠÐ³":10611,"ĠÐ·":10612,"Ġfidelis":10613,"Ġsequenti":10614,"Ġfratrum":10615,"Ġcarmen":10616,"Ġ72":10617,"Ġmiserat":10618,"Ġdefuit":10619,"Ġexced":10620,"Ġvideant":10621,"Ġnegas":10622,"Ġ81":10623,"Ġevid":10624,"Ġmundanum":10625,"Ġtranst":10626,"Ġductus":10627,"Ġ91":10628,"Ġtabil":10629,"Ġtabuo":10630,"Ġtabbulator":10631,"Ġtabultor":10632,"Ġsapienti":10633,"Ġmutavit":10634,"Ġcognoscat":10635,"Ġreliquae":10636,"ĠXIV":10637,"Ġlaudat":10638,"Ġ130":10639,"atha":10640,"Ġflor":10641,"Ġsacc":10642,"ĠIudas":10643,"Ġsubiectae":10644,"ãģĮ":10645,"Ġsocius":10646,"Ġdubito":10647,"ĠAbram":10648,"Ġgravitate":10649,"Ġaedificare":10650,"Ġponi":10651,"Ġponatur":10652,"Ġcontineri":10653,"Ġaddita":10654,"Ġnoctes":10655,"Ġmilli":10656,"Ġantiqui":10657,"Ġtradere":10658,"Ġtraditur":10659,"Ġconduc":10660,"Ġargu":10661,"Ġmirabile":10662,"Ġhabitu":10663,"Ġhabitet":10664,"Ġrespondet":10665,"Ġphilosophiam":10666,"Ġtertius":10667,"Ġpromisit":10668,"Ġnegotiorum":10669,"Ġclarus":10670,"Ġrecipi":10671,"Ġhostis":10672,"ĠIosaphat":10673,"Ġtabulatr":10674,"Ġtabulatod":10675,"Ġtabulatir":10676,"Ġtabulatro":10677,"Ġtabulattor":10678,"Ġtabulatpr":10679,"Ġtabulatkr":10680,"Ġtabulatlr":10681,"Ġpaucos":10682,"ĠEpist":10683,"Ġnuntius":10684,"Ġinimicum":10685,"Ġpraeda":10686,"Ġpraedium":10687,"Ġarbitrio":10688,"Ġarbitrantur":10689,"Ġtabulafor":10690,"Ġtabulaotr":10691,"Ġpericulos":10692,"Ġperdere":10693,"Ġmissa":10694,"Ġtah":10695,"Ġtaulator":10696,"Ġtaabulator":10697,"Ġcomposita":10698,"Ġheredes":10699,"Ġadfirm":10700,"Ġfabulator":10701,"ĠDicitur":10702,"ĠPrima":10703,"ĠVidesne":10704,"Ġcunctae":10705,"ĠMedia":10706,"Ġcondicione":10707,"ĠEpicuro":10708,"CCCC":10709,"ĠAge":10710,"ĠCapit":10711,"Ġblandit":10712,"Ġelegant":10713,"iuers":10714,"Ġtabulatof":10715,"Ġtabulatoor":10716,"ĠVeniam":10717,"Ġfacultates":10718,"Ġpoliticorum":10719,"ĠCalisii":10720,"errima":10721,"Ġabsolute":10722,"ĠTerrae":10723,"Ġlegitime":10724,"Ġcessavit":10725,"Ġentia":10726,"Ġquaerebam":10727,"Ġtabuator":10728,"Ġpeculium":10729,"Ġimpleri":10730,"Ġacceperis":10731,"Ġfructibus":10732,"ĠArchid":10733,"Ġtwbulator":10734,"Ġhodierna":10735,"Ġduplicem":10736,"Ġtextus":10737,"Ġconsulto":10738,"ĠSeptentrioni":10739,"ĠTurciae":10740,"ĠFreti":10741,"Ġlacrimis":10742,"Postquam":10743,"Ġdisserendi":10744,"Ġsatisfacit":10745,"Ġdisciplinae":10746,"Ġclarific":10747,"ĠHierony":10748,"ĠNapole":10749,"Ġpulchritudo":10750,"Ġulter":10751,"ecessor":10752,"ĠColleg":10753,"Ġtabularor":10754,"ĠCatilina":10755,"Ġcathedr":10756,"Ġcancell":10757,"Ġuterque":10758,"Ġcourse":10759,"Ġcardinalis":10760,"ĠPodii":10761,"ĠPennsilv":10762,"Ġlongo":10763,"Ġtavulator":10764,"Ġttabulator":10765,"Ġtabulqtor":10766,"Ġtabulwtor":10767,"Ġtabulztor":10768,"Ġtabulatorr":10769,"Ġtabjlator":10770,"Ġtabullator":10771,"Ġtabupator":10772,"Ġtabluator":10773,"Ġtaublator":10774,"Ġtabukator":10775,"Ġtabualtor":10776,"\")":10777,"\"]":10778,",,":10779,"72":10780,"76":10781,"81":10782,"Brit":10783,"Mirum":10784,"ST":10785,"Then":10786,"cont":10787,"gen":10788,"hus":10789,"ietur":10790,"las":10791,"lov":10792,"nd":10793,"ror":10794,"rant":10795,"vir":10796,"verit":10797,"was":10798,"were":10799,"ylator":10800,"quet":10801,"itius":10802,"Ġpoc":10803,"oniis":10804,"Ġnas":10805,"rew":10806,"Ġinert":10807,"Ġinpossibile":10808,"Ġtbulator":10809,"ury":10810,"uros":10811,"uth":10812,"Ġiu":10813,"eng":10814,"eca":10815,"unam":10816,"unic":10817,"Ġlav":10818,"Ġlub":10819,"Ġlast":10820,"Ġadire":10821,"Ġutroque":10822,"asa":10823,"ason":10824,"Ġquaelibet":10825,"ĠIoram":10826,"Ġconpl":10827,"Ġexor":10828,"Ġexeunte":10829,"alog":10830,"ĠSper":10831,"ĠSpe":10832,"ĠCro":10833,"ĠCog":10834,"agesimo":10835,"ĠDeb":10836,"ĠDix":10837,"ĠDenique":10838,"Ġdirimi":10839,"Ġbi":10840,"Ġquiet":10841,"esti":10842,"estus":10843,"estim":10844,"Ġperierunt":10845,"rast":10846,"ĠPres":10847,"ĠPart":10848,"ĠPaen":10849,"rationem":10850,"Ġend":10851,"Ġhabendi":10852,"Ġtueri":10853,"Ġsciant":10854,"ives":10855,"uck":10856,"Ġcomitia":10857,"ortuus":10858,"Ġuos":10859,"Ġabulator":10860,"aving":10861,"Ġvidisse":10862,"ellentesque":10863,"ĠLep":10864,"ĠHar":10865,"Ġneut":10866,"ĠRatio":10867,"Ġamandi":10868,"ĠFDP":10869,"ĠVitae":10870,"Ġtheat":10871,"Ġquaeri":10872,"Ġtamque":10873,"ĠBoh":10874,"Ġsolere":10875,"Ġrost":10876,"Ġcontex":10877,"Ġsumps":10878,"ressit":10879,"Ġstre":10880,"Ġstet":10881,"rie":10882,"eatis":10883,"eatured":10884,"Ġanimalium":10885,"Ġusi":10886,"Ġusui":10887,"Ġdolum":10888,"Ġdolentes":10889,"Ġnumm":10890,"Ġmaneat":10891,"atori":10892,"Ġimplic":10893,"Ġsimp":10894,"risque":10895,"Ġdebui":10896,"Ġacie":10897,"Ġpraesente":10898,"Ġpraescript":10899,"Ġtrit":10900,"Ġtabulay":10901,"Ġquasdam":10902,"Ġsuperv":10903,"Ġcapitis":10904,"Ġ1810":10905,"Ġ1815":10906,"Ġ1850":10907,"Ġeique":10908,"Ġmalitia":10909,"ffer":10910,"Ġmaximis":10911,"Ġdesit":10912,"Ġ2003":10913,"ĠFrancogall":10914,"Ġoccis":10915,"Ġocculta":10916,"Ġfortem":10917,"Ġscribe":10918,"Ġconfort":10919,"Ġinfl":10920,"Ġviveret":10921,"Ġviverra":10922,"ĠComp":10923,"Ġfrag":10924,"Ġconvallis":10925,"Ġcrederent":10926,"Ġdoctus":10927,"Ġdocti":10928,"Ġconsequat":10929,"Ġdeleg":10930,"Ġpaul":10931,"Ġyabulator":10932,"ĠLatinis":10933,"odox":10934,"Ġ88":10935,"Ġvestras":10936,"ĠGraecum":10937,"Ġevers":10938,"Ġvoluntati":10939,"Ġextend":10940,"picere":10941,"Ġtestibus":10942,"Ġ96":10943,"Ġabsunt":10944,"Ġintellegerem":10945,"Ġtablator":10946,"Ġtabylator":10947,"Ġmutuo":10948,"Ġaccipiens":10949,"feram":10950,"Ġbeatiorem":10951,"Ġfuturam":10952,"Ġceterae":10953,"Ġstatuam":10954,"Ġconstitutionem":10955,"Ġtimeo":10956,"itheat":10957,"Ġoportuit":10958,"ĠBrundis":10959,"ãģ¾":10960,"Ġideoque":10961,"ĠThere":10962,"Ġgravior":10963,"ached":10964,"ĠSiciliae":10965,"Ġmovens":10966,"Ġcontinetur":10967,"Ġdifferent":10968,"Ġliquid":10969,"Ġdeter":10970,"ÑĢÑĥ":10971,"Ð»Ñĭ":10972,"Ð»Ñı":10973,"ĠRegno":10974,"Ġinstituit":10975,"Ġalleluia":10976,"ĠPraeter":10977,"Ġparvuli":10978,"Ġgaudet":10979,"Ġepistola":10980,"Ġcalicem":10981,"Ġrecipere":10982,"Ġadvent":10983,"Ġhoste":10984,"Ġmagistratum":10985,"Ġtabulatot":10986,"Ġterras":10987,"Ġsperat":10988,"ĠMagnum":10989,"Ġindicavit":10990,"Ġnobilis":10991,"ĠIudaea":10992,"Ġmitti":10993,"Ġequos":10994,"Ð°Ð¼":10995,"Ġrogavit":10996,"Ġtabulaor":10997,"Ġtabulaator":10998,"Ã¡s":10999,"ĠDorsorum":11000,"Ġcasum":11001,"Ġnaves":11002,"Ġadsunt":11003,"Ġnasci":11004,"Ġvidebis":11005,"Ġmanifeste":11006,"uramentum":11007,"Î¿ÏĤ":11008,"Ġ1961":11009,"Ġfundo":11010,"Ġcrimin":11011,"Ġexpertus":11012,"ĠSaul":11013,"ĠEpiscopo":11014,"Ġpenes":11015,"Ġtabulatoe":11016,"Ġelectio":11017,"Ġsepult":11018,"Ġconsiderandum":11019,"ĠMatronae":11020,"Ġiucunde":11021,"Ġcultum":11022,"Ġprohibet":11023,"ippiae":11024,"Ġsanguinibus":11025,"ĠScipionis":11026,"Ġconscientiae":11027,"Ġcomprehendit":11028,"Ġtribunus":11029,"Ġsacerdotum":11030,"ĠLege":11031,"Ġnubere":11032,"Ġmontes":11033,"Ġoccasione":11034,"Ġperfici":11035,"Ġtabuulator":11036,"Ġhonorific":11037,"Ġpredic":11038,"ĠTempus":11039,"Ġconvertit":11040,"ouse":11041,"Ġá½":11042,"Ġtristitia":11043,"ĠSumma":11044,"Ġprogress":11045,"ĠTarqu":11046,"Omnes":11047,"Ġnutr":11048,"Ġlooking":11049,"Francice":11050,"Ġpastores":11051,"Ġmagistratu":11052,"Ġgloriosum":11053,"Ġimbec":11054,"ĠGeorgius":11055,"Ġseveral":11056,"Ġmajor":11057,"Ġimmortales":11058,"Ġpersuasum":11059,"Ġconvivium":11060,"Ġmallem":11061,"ĠLuke":11062,"Ġfontem":11063,"ĠMississ":11064,"Ġconsensu":11065,"Ġdeserto":11066,"ĠLudovicus":11067,"Ġsmall":11068,"ĠReliqu":11069,"Ġcognovissent":11070,"Ġexspectare":11071,"Ġpulvinar":11072,"Ġseemed":11073,"Ġexercituum":11074,"Ġfacillime":11075,"ĠCausa":11076,"Ġpraeclarum":11077,"Ġmetropolit":11078,"Ġdomicilium":11079,"ĠArduenna":11080,"ĠCalvorum":11081,"ĠColosseum":11082,"Ġtagulator":11083,"Ġtanulator":11084,"Ġevidentius":11085,"Ġtzbulator":11086,"Ġimmediate":11087,"Ġbeautiful":11088,"Ġtabhlator":11089,"Ġtqbulator":11090,"Ġtsbulator":11091,"Ġtbaulator":11092,"Ġtabilator":11093,"Ġtabuoator":11094,"Ġtahulator":11095,"Ġtabulayor":11096,"');":11097,"83":11098,"Acc":11099,"Im":11100,"Om":11101,"Sec":11102,"cae":11103,"graph":11104,"ld":11105,"most":11106,"riter":11107,"word":11108,"zy":11109,"Ġax":11110,"Ġauc":11111,"usta":11112,"atenus":11113,"onica":11114,"Ġnic":11115,"Ġdati":11116,"Ġdog":11117,"Ġdrac":11118,"Ġdabis":11119,"Ġmere":11120,"Ġmora":11121,"Ġmaria":11122,"Ġmilibus":11123,"Ġinlum":11124,"Ġinstruc":11125,"Ġton":11126,"orter":11127,"Ġvino":11128,"Ġveget":11129,"uturum":11130,"Ġfasc":11131,"Ġfrang":11132,"lips":11133,"Ġhast":11134,"esp":11135,"etsi":11136,"idius":11137,"Ġpridie":11138,"iabit":11139,"oles":11140,"Ġrefic":11141,"Ġretrib":11142,"Ġlact":11143,"Ġadquir":11144,"ocinium":11145,"Ġquodque":11146,"acem":11147,"aciter":11148,"lle":11149,"abas":11150,"abilibus":11151,"Ġutor":11152,"ĠIurae":11153,"ĠAet":11154,"Ġexalt":11155,"ĠSanto":11156,"ĠCardin":11157,"ĠCDU":11158,"agus":11159,"Ġ101":11160,"Ġomnim":11161,"iph":11162,"rap":11163,"Ġgran":11164,"ratis":11165,"ected":11166,"ird":11167,"Ġenquire":11168,"ĠNim":11169,"ĠNot":11170,"ĠMinus":11171,"Ġquidvis":11172,"issio":11173,"Ġseips":11174,"andos":11175,"ortum":11176,"Ġveritati":11177,"Ġviderem":11178,"ĠLem":11179,"ĠLang":11180,"Ġsitu":11181,"ĠHS":11182,"Ġopibus":11183,"Ġnepos":11184,"Ġcautum":11185,"Ġamatur":11186,"ĠTantum":11187,"Ġparc":11188,"Ġpari":11189,"Ġincorp":11190,"eritis":11191,"ĠVerba":11192,"Ġquaque":11193,"Ġqualibet":11194,"arie":11195,"igmata":11196,"ĠBat":11197,"ĠBur":11198,"ĠBuc":11199,"ĠBern":11200,"Ġsolitudine":11201,"Ġscrut":11202,"Ġwish":11203,"Ġorans":11204,"ĠOper":11205,"ĠOrb":11206,"ĠInv":11207,"Ġnequeunt":11208,"issimorum":11209,"Ġ1929":11210,"Ġspatia":11211,"Ġusuram":11212,"Ġaudiam":11213,"Ġaudite":11214,"Ġaudistis":11215,"Ġobj":11216,"Ġmagnitudinem":11217,"Ġimput":11218,"Ġcommunitatis":11219,"Ġpraesent":11220,"Ġrepos":11221,"Ġrepreh":11222,"Ġiudicatum":11223,"Ġiudicabit":11224,"Ġcurios":11225,"Ġdiscendi":11226,"Ġdederunt":11227,"Ġmortuos":11228,"Ġ2004":11229,"Ġclem":11230,"Ġfideles":11231,"Ġplacent":11232,"Ġcolumb":11233,"Ġsequetur":11234,"Ġinsuper":11235,"Ġcreditur":11236,"Ġfierent":11237,"Ġexcla":11238,"Ġopprobrium":11239,"alla":11240,"Ġprobarem":11241,"Ġmolesta":11242,"Ġneget":11243,"Ġreddi":11244,"ĠArm":11245,"Ġquaerens":11246,"Ġnaturalibus":11247,"Ġiusiur":11248,"Ġ92":11249,"Ġ93":11250,"Ġabsens":11251,"Ġcogitamus":11252,"Ġfaciendi":11253,"Ġfamae":11254,"Ġaccipiam":11255,"Ġlongam":11256,"ĠXIX":11257,"Ġconstitutione":11258,"Ġoderit":11259,"Ġfacturus":11260,"Ġlatinae":11261,"Ġsubiecti":11262,"ãģ¦":11263,"ãģĻ":11264,"Ġspeculum":11265,"Ġsignificatione":11266,"Ġostent":11267,"Ġgraves":11268,"Ġlucis":11269,"Ġpraecipit":11270,"Ġpersonas":11271,"Ġefficiuntur":11272,"Ġantiquum":11273,"Ġantiquitus":11274,"Ð»Ð°":11275,"Ġvultu":11276,"Ġveteribus":11277,"Ġmandavit":11278,"Ġphilosophos":11279,"Ġnolunt":11280,"ĠNihilo":11281,"ĠAntonio":11282,"Ġcogitatio":11283,"ĠAliud":11284,"Ġsoft":11285,"Ġdeprav":11286,"Ġdeprehend":11287,"Ġavunc":11288,"ãĥ¼":11289,"Ġdiluc":11290,"Ġvellent":11291,"ourt":11292,"ĠMagnus":11293,"ĠNovum":11294,"Ġnobil":11295,"ĠCatonem":11296,"Ġuidentur":11297,"ĠAsiae":11298,"ĠAsper":11299,"Ġprivata":11300,"Ġprivatis":11301,"Ġinimicorum":11302,"Ġproposito":11303,"Ġutilitates":11304,"Ġperdid":11305,"Ġmorietur":11306,"Ġdamnatus":11307,"Ġpretty":11308,"Ġconiunctum":11309,"Ġnavibus":11310,"Ġscripserunt":11311,"Ġscripseram":11312,"Ġcompositae":11313,"Ġhereditate":11314,"Ġreligione":11315,"Ġleve":11316,"Ġfabularum":11317,"Ġsocietatis":11318,"Ġignoro":11319,"Ġlaboro":11320,"ĠDicendum":11321,"Ġiniquitate":11322,"Ġmilitaris":11323,"Ġhaeres":11324,"Ġgeneribus":11325,"Ġgeneralis":11326,"Ġrestituere":11327,"Ġcommodius":11328,"Ġsingulari":11329,"Ġprudentiam":11330,"Ġprudentiae":11331,"ĠMatth":11332,"Ġsolvere":11333,"Ġ1957":11334,"Ġrepetere":11335,"Ġdoctrinae":11336,"Ġligno":11337,"à«§":11338,"Ġinterficiam":11339,"Ġimpetus":11340,"Ġadducam":11341,"Ã¨s":11342,"Ġjudicium":11343,"ĠDemet":11344,"Ġvaleant":11345,"Ġsodales":11346,"Ġdissimilis":11347,"ĠMetellum":11348,"ĠInsulae":11349,"Ġoppositum":11350,"Ġventurum":11351,"Ġhospit":11352,"Itaque":11353,"ĠTroiam":11354,"Ġpreces":11355,"Ġsyllogis":11356,"Ġintentio":11357,"Ġdupliciter":11358,"ĠDelph":11359,"Ġdiutur":11360,"Ã¼r":11361,"Ġdereliqu":11362,"ĠHelvetiae":11363,"Ġteneatur":11364,"ĠSyriae":11365,"Ġuiuit":11366,"Ġbarbar":11367,"Ġinstrumentum":11368,"ĠBorussiam":11369,"ĠCrassus":11370,"Ġapplicatione":11371,"ĠJoannes":11372,"Ġnuntiavit":11373,"äºº":11374,"Ġcodicem":11375,"Ġvulnera":11376,"ĠMichiganensi":11377,"Ġinutiles":11378,"Ġvesperum":11379,"ĠRuben":11380,"Ġindustria":11381,"Ġiuridicae":11382,"ĠOctav":11383,"Ġquerela":11384,"Ġoctog":11385,"ĠNobeli":11386,"Ġwebsit":11387,"ĠquickShop":11388,"ĠCaliforniae":11389,"ĠRecte":11390,"Ġkeep":11391,"Ġianuam":11392,"Ġdetestabili":11393,"ĠSaeculo":11394,"Ġlocuplet":11395,"Ġcannot":11396,"Ġvenenatis":11397,"Ġnibh":11398,"Ġcooptatus":11399,"ĠPaeninsula":11400,"ĠMississippiae":11401,"Ġexclaimed":11402,"112":11403,"En":11404,"Fac":11405,"Le":11406,"Null":11407,"Sp":11408,"To":11409,"Tu":11410,"Vest":11411,"Why":11412,"]:":11413,"ling":11414,"pis":11415,"rio":11416,"Å¼":11417,"Î¸":11418,"Ïĩ":11419,"à¶":11420,"quando":11421,"Ġauris":11422,"Ġslowly":11423,"Ġquart":11424,"Ġpull":11425,"Ġpug":11426,"Ġpuncta":11427,"amque":11428,"Ġcaret":11429,"Ġnoll":11430,"icitur":11431,"Ġtorqu":11432,"oro":11433,"Ġvast":11434,"Ġvana":11435,"Ġvilla":11436,"Ġhare":11437,"anim":11438,"arp":11439,"idiae":11440,"ulat":11441,"ulisti":11442,"entina":11443,"oleo":11444,"unquid":11445,"Ġretr":11446,"Ġreverter":11447,"Ġluct":11448,"Ġadpet":11449,"udet":11450,"Ġuteb":11451,"Ġutimur":11452,"antas":11453,"ĠIure":11454,"ĠIterum":11455,"ĠEdit":11456,"ĠAT":11457,"ĠAed":11458,"alf":11459,"ĠSh":11460,"ĠCore":11461,"ĠCulpa":11462,"ipublic":11463,"Ġperit":11464,"Ġpraeest":11465,"Ġgut":11466,"Ġgall":11467,"ĠQuas":11468,"ĠQuÃ¦":11469,"Ġcoactus":11470,"ĠNolite":11471,"undiae":11472,"Ġaptum":11473,"ortium":11474,"Ġverus":11475,"avero":11476,"ĠLeo":11477,"ĠLicet":11478,"ĠHisp":11479,"Ġcaer":11480,"Ġamas":11481,"Ġamaret":11482,"ĠTra":11483,"ulti":11484,"ĠFili":11485,"Ġincidere":11486,"ĠVia":11487,"Ġimpon":11488,"Ġqualia":11489,"Ġmax":11490,"Ġeumque":11491,"ustae":11492,"Ġunicum":11493,"Ġuniuers":11494,"ĠBarc":11495,"Ġsolebam":11496,"Ġsollem":11497,"Ġraro":11498,"Ġtempla":11499,"Ġmodicum":11500,"Ġorat":11501,"Ġfuissemus":11502,"Ġstrange":11503,"eratione":11504,"Ġpatiuntur":11505,"oviae":11506,"Ġanimantium":11507,"ĠOF":11508,"Ġcorn":11509,"aps":11510,"Ġlegatorum":11511,"erson":11512,"Ġ1922":11513,"Ġposterius":11514,"Ġmultam":11515,"Ġmortale":11516,"Ġmagnas":11517,"Ġimpress":11518,"Ġcommunione":11519,"ugit":11520,"Ġasinus":11521,"Ġpraesentiam":11522,"Ġtry":11523,"Ġistic":11524,"nex":11525,"Ġsuperfic":11526,"Ġrepud":11527,"Ġ1848":11528,"Ġamicitias":11529,"Ġdiscord":11530,"Ġdeclare":11531,"Ġmaximi":11532,"heus":11533,"Ġlitig":11534,"Ġvivendi":11535,"Ġcolorem":11536,"Ġinsol":11537,"ĠComitatu":11538,"Ġdefer":11539,"Ġdeform":11540,"Ġcredendum":11541,"Ġjuramentum":11542,"Ġnovis":11543,"ĠItali":11544,"Ġdoce":11545,"Ġprobat":11546,"Ġredim":11547,"Ġdomina":11548,"others":11549,"Ġnescire":11550,"Ġquaereretur":11551,"Ġextit":11552,"Ġnecessariis":11553,"Ġnecessariam":11554,"Ġfame":11555,"Ġfames":11556,"ower":11557,"Ġvices":11558,"this":11559,"Ġreliquo":11560,"iensi":11561,"Ġpetunt":11562,"Ġfuturis":11563,"Ġlaudibus":11564,"Ġveniet":11565,"Ġconstituitur":11566,"Ġfloor":11567,"Ġexistens":11568,"phus":11569,"Ġ103":11570,"Ġpeccatis":11571,"ãģŁ":11572,"Ġtransire":11573,"ĠIllo":11574,"ĠCivitates":11575,"ĠMaximus":11576,"Ġaequitate":11577,"Ġgraviter":11578,"Ġaedificium":11579,"Ġperfecte":11580,"Ġaudiendi":11581,"Ġaudiebant":11582,"Ġmonach":11583,"Ġmirabilia":11584,"Ġmiraculum":11585,"Ġlicentiam":11586,"Ġnoluerit":11587,"Ġimagine":11588,"Ġimaginibus":11589,"ĠAnton":11590,"ĠAntecessor":11591,"Ġscripturae":11592,"Ġepistulas":11593,"Ġhumanam":11594,"Ġsexus":11595,"Ġsexta":11596,"Ġdifficillim":11597,"ĠAegyptii":11598,"ãĥ³":11599,"ãĥ»":11600,"Ġexistimare":11601,"ĠImpossibile":11602,"Ġpugnare":11603,"Ġmagistro":11604,"Ġmyth":11605,"erebatur":11606,"racus":11607,"Ġsuccessit":11608,"Ġalienis":11609,"Ġlacum":11610,"Ġprivatus":11611,"Ġpassio":11612,"ãĤĭ":11613,"Ġpuerorum":11614,"Ġutilitate":11615,"Ġmoriendum":11616,"Ġ1994":11617,"Ġiacere":11618,"Ġgestum":11619,"Ġlaugh":11620,"ĠNumerus":11621,"Ġdivisae":11622,"Ġrelinquam":11623,"Ġvidebimus":11624,"Ġleft":11625,"Ġpossidendam":11626,"Ġtutor":11627,"Ġcircumstant":11628,"Ġsimplicis":11629,"Ġroof":11630,"Ġquaesivit":11631,"quodque":11632,"Ġlaetitiam":11633,"Ġcustodiam":11634,"Ġfundamentum":11635,"ĠDolore":11636,"Ġsalvum":11637,"Ġascens":11638,"Ġelegit":11639,"Ġsingulare":11640,"Ġrelinquitur":11641,"Ġinueni":11642,"ĠAristonem":11643,"Ġconsiderare":11644,"ĠConsilium":11645,"ĠPotius":11646,"Ġparticipatione":11647,"Ġsomnum":11648,"ĠPolit":11649,"ĠScipionem":11650,"Ġsumptu":11651,"Ġconfici":11652,"Ġnubibus":11653,"Ġtypi":11654,"Ġossa":11655,"ĠZeno":11656,"Ġcernitur":11657,"Ġadulescentia":11658,"Ġrequiritur":11659,"Ġueritatem":11660,"Ġcontroversiam":11661,"Ġexplan":11662,"Ġsorte":11663,"Ġinsigne":11664,"pexi":11665,"Ġuerbo":11666,"Ġderelin":11667,"Ġelementa":11668,"Ġsupplicio":11669,"Ġsponsus":11670,"ĠTheodisc":11671,"Ġconstet":11672,"Ġpaupertatem":11673,"Ð¾ÑĤÐ»Ñĭ":11674,"Ġdilexisti":11675,"Ġevangelium":11676,"Ġsemetipso":11677,"ĠÄĮ":11678,"Ġfrumentum":11679,"where":11680,"Ġvasa":11681,"ĠÐļÐ¾Ð»":11682,"Ġpietate":11683,"ĠAcha":11684,"ĠMoysen":11685,"Ġuideatur":11686,"Ġoccurrent":11687,"Ġquestus":11688,"Ġperierat":11689,"Ġtransiit":11690,"Ð½ÑĭÐµ":11691,"Ġcongruamus":11692,"Ġerubesc":11693,"ĠUsque":11694,"Ġpraeceperat":11695,"Ġfallaciloqu":11696,"ĠKansiae":11697,"Ġemancip":11698,"Ġgymnas":11699,"ĠNecessitatibus":11700,"ĠQuicquid":11701,"ĠOttoman":11702,"Ġâľ¿":11703,"Ġunicuique":11704,"ĠPennsilvaniae":11705,"Britonice":11706,"Ġiusiurandum":11707,"Ġfallaciloquae":11708,"'re":11709,",.":11710,"66":11711,"75":11712,"99":11713,"AM":11714,"Culpa":11715,"Domine":11716,"Reg":11717,"Sit":11718,"Sim":11719,"cra":11720,"cons":11721,"his":11722,"iest":11723,"ianus":11724,"je":11725,"mb":11726,"menta":11727,"nor":11728,"oon":11729,"po":11730,"ridie":11731,"uada":11732,"wor":11733,"yt":11734,"Ãĥ":11735,"Å¡":11736,"ÎŃ":11737,"Ñį":11738,"ä¼":11739,"æĺ":11740,"Ġ000":11741,"ĠÏĢ":11742,"erland":11743,"erald":11744,"Ġaes":11745,"Ġauro":11746,"Ġsentias":11747,"inv":11748,"use":11749,"Ġpil":11750,"Ġpone":11751,"atrix":11752,"onet":11753,"amin":11754,"Ġcereb":11755,"Ġnine":11756,"Ġnupta":11757,"Ġdit":11758,"Ġmen":11759,"rea":11760,"Ġineb":11761,"ics":11762,"icium":11763,"Ġtib":11764,"Ġtorm":11765,"Ġtitio":11766,"Ġie":11767,"enam":11768,"Ġesto":11769,"esque":11770,"ets":11771,"ularium":11772,"ibit":11773,"ibat":11774,"uneburg":11775,"Ġredeo":11776,"Ġadsequ":11777,"Ġaddi":11778,"aco":11779,"asph":11780,"Ġdefectus":11781,"ĠCli":11782,"ĠCent":11783,"ellig":11784,"ĠDo":11785,"ĠDur":11786,"ĠDig":11787,"Ġboth":11788,"Qua":11789,"Ġfacitis":11790,"Ġfacientibus":11791,"Ġpraefer":11792,"ĠPan":11793,"Ġgerere":11794,"Ġillinc":11795,"ĠQuippe":11796,"Ġsede":11797,"Ġhabu":11798,"uitas":11799,"eger":11800,"iverunt":11801,"arest":11802,"uca":11803,"ĠMen":11804,"issionis":11805,"Ġquovis":11806,"Ġthink":11807,"Ġuenit":11808,"Ġabsit":11809,"Ġmihique":11810,"ĠLac":11811,"ĠRatione":11812,"ĠRuf":11813,"Ġcalid":11814,"ĠTrin":11815,"ĠFat":11816,"Ġpagi":11817,"Ġpaginis":11818,"Ġaliquanto":11819,"erito":11820,"Ġvolu":11821,"Ġvoluisse":11822,"ĠVind":11823,"essus":11824,"Ġunct":11825,"Ġunitas":11826,"ĠBerg":11827,"ĠBapt":11828,"Ġsolutum":11829,"Ġoliv":11830,"Ġsumpta":11831,"Ġsumpsit":11832,"Ġora":11833,"Ġstop":11834,"Ġstabilis":11835,"Ġsecretum":11836,"Ġbonitas":11837,"Ġminori":11838,"Ġminora":11839,"ĠOs":11840,"Ġcreare":11841,"Ġcreati":11842,"Ġlegatis":11843,"Ġviribus":11844,"Ġ1914":11845,"Ġ1925":11846,"Ġseru":11847,"Ġsubstit":11848,"Ġposteris":11849,"Ġaudimus":11850,"ificem":11851,"Ġ-,":11852,"Ġquibuscumque":11853,"Ġagetur":11854,"Ġsemit":11855,"Ġvenisti":11856,"Ġvitiorum":11857,"Ġputaverunt":11858,"Ġputabam":11859,"Ġtrac":11860,"Ġremans":11861,"Ġtoward":11862,"neque":11863,"Ġiudicis":11864,"Ġiudicet":11865,"Ġiudicas":11866,"Ġiudiciis":11867,"Ġdivinis":11868,"Ġdivitiis":11869,"ĠQuidem":11870,"Ġmaximas":11871,"Ġmortuorum":11872,"Ġnotus":11873,"ĠFrancica":11874,"Ġfortiter":11875,"Ġconfido":11876,"ĠÐ¡":11877,"Ġcolunt":11878,"Ġcarc":11879,"Ġtenent":11880,"Ġtenentur":11881,"Ġconventus":11882,"Ġlabores":11883,"Ġjo":11884,"Ġprovis":11885,"Ġconsequitur":11886,"Ġprobo":11887,"Ġcaes":11888,"Ġtantummodo":11889,"Ġformid":11890,"ĠArmen":11891,"Ġcertam":11892,"Ġcontrah":11893,"Ġcontradic":11894,"Ġadha":11895,"Ġsanctos":11896,"Ġducibus":11897,"Ġingressa":11898,"Ġcogitandum":11899,"Ġcogitabam":11900,"ioso":11901,"ordin":11902,"Ġdignissim":11903,"Ġintellegunt":11904,"Ġexercitat":11905,"Ġhonoris":11906,"erva":11907,"Ġunumquodque":11908,"Ġaccipiuntur":11909,"Ġcognoscetis":11910,"ĠMarit":11911,"Ġmedius":11912,"Ġappellatus":11913,"Ġappellata":11914,"Ġpatroni":11915,"Ġ139":11916,"Ġintelligo":11917,"Ġprocons":11918,"Ġsenes":11919,"Ġ111":11920,"Ġ115":11921,"idelibus":11922,"Ġintelligendum":11923,"Ġplurimae":11924,"ĠSane":11925,"Ġaperit":11926,"Ġsubiectus":11927,"Ġquindecim":11928,"ãģĹ":11929,"Ġsignificatio":11930,"Ġsignificationem":11931,"ffectus":11932,"ĠAlt":11933,"ĠGermaniam":11934,"Ġdemin":11935,"Ã©s":11936,"ÑĢÐ°":11937,"Ġuniverso":11938,"Ġveteris":11939,"Ġeligere":11940,"Ġmiror":11941,"Ġedita":11942,"Ġfinitum":11943,"ĠProinde":11944,"Ġuelut":11945,"Ġredditur":11946,"Ġprofectum":11947,"ĠAliae":11948,"Ġpromis":11949,"Ġaccepistis":11950,"Ġseptima":11951,"Ġpugnavit":11952,"Ġcupiditas":11953,"Ġportus":11954,"Ġfurti":11955,"Ġtenebras":11956,"Ġludis":11957,"ĠGalliam":11958,"Ġsororis":11959,"Ġrapt":11960,"ology":11961,"piciens":11962,"Ġversibus":11963,"Ġhereditas":11964,"Ġcensent":11965,"Ġhortum":11966,"Ġhortus":11967,"options":11968,"Ġcreaturis":11969,"Ġostenditur":11970,"Ġrestitu":11971,"Ġtestamenti":11972,"Ġcommode":11973,"Ġdepositi":11974,"ĠRheni":11975,"Ġdesiderio":11976,"Ġdenot":11977,"Ġdenuo":11978,"Ġelectionem":11979,"ĠOrd":11980,"ĠMinime":11981,"Ġfirma":11982,"Ġconversi":11983,"Ġconversus":11984,"ĠLaod":11985,"Ġdefenditur":11986,"ĠSecundo":11987,"ĠSamara":11988,"Ġcultus":11989,"Ġlegitima":11990,"Ġsolid":11991,"Ġhistoriam":11992,"Ġente":11993,"Ġmembris":11994,"ways":11995,"selves":11996,"Ġscirem":11997,"Ġtitulo":11998,"ĠRussia":11999,"ĠSequitur":12000,"Ġexpetendum":12001,"ĠSyracus":12002,"Ġoccurrunt":12003,"Ġconstanter":12004,"Ġeloquentiam":12005,"Ġdilectionem":12006,"Ġdeficit":12007,"Ġmagnifice":12008,"Ġintentionem":12009,"ĠRespondit":12010,"Ġvirgines":12011,"Ġnuptiarum":12012,"Ġ});":12013,"Ġconsentiunt":12014,"Ġarborum":12015,"rupti":12016,"Ġoblivisci":12017,"Ġconsultum":12018,"ĠOport":12019,"ĠPhilot":12020,"Ġremanet":12021,"Ġdesinit":12022,"ĠCetera":12023,"ĠApollonius":12024,"Ġá¼Ģ":12025,"Ġcreature":12026,"Ġpondus":12027,"Ġsubsistens":12028,"ĠÐļÐ¾ÑĤÐ»Ñĭ":12029,"ĠEphra":12030,"ĠOptio":12031,"ĠOfficia":12032,"ĠGratias":12033,"Ġsyllaba":12034,"Ġstellarum":12035,"Ġopportun":12036,"Ġregimen":12037,"ĠIoachim":12038,"Ġinfamia":12039,"Ġdiscrimen":12040,"Ġcontigerit":12041,"Ġbrachium":12042,"Ġsagittis":12043,"Ġbovem":12044,"Ġpravae":12045,"ĠMoysi":12046,"\"],\"":12047,"Ġenquired":12048,"Ġdeclared":12049,"428":12050,"Bo":12051,"Cl":12052,"El":12053,"Es":12054,"Ip":12055,"Jim":12056,"Oz":12057,"UR":12058,"Urb":12059,"Vir":12060,"]}":12061,"aad":12062,"fi":12063,"kt":12064,"mihi":12065,"mog":12066,"mann":12067,"nos":12068,"rui":12069,"ses":12070,"veniens":12071,"Å¾":12072,"ÏĮ":12073,"Ïį":12074,"Ð¡":12075,"Ð¶":12076,"åŃ":12077,"Ġ]":12078,"Ġ....":12079,"Ġulc":12080,"ĠÏĦ":12081,"Ġä¸":12082,"Ļéĭ¼":12083,"Ġaevo":12084,"Ġpes":12085,"atii":12086,"amini":12087,"Ġcle":12088,"Ġcentur":12089,"Ġclim":12090,"Ġni":12091,"Ġmam":12092,"reta":12093,"Ġinstr":12094,"icy":12095,"icio":12096,"icomm":12097,"Ġtrem":12098,"Ġtecta":12099,"Ġviis":12100,"Ġvendere":12101,"Ġfoc":12102,"Ġhard":12103,"ecutus":12104,"ulares":12105,"Ġprost":12106,"Ġprosc":12107,"iales":12108,"Ġrequ":12109,"Ġrestat":12110,"Ġlov":12111,"Ġadsequi":12112,"oct":12113,"lla":12114,"Ġutpote":12115,"ants":12116,"ĠIerusalem":12117,"Ġconfectum":12118,"Ġexha":12119,"alum":12120,"ĠScrib":12121,"ĠCIC":12122,"Ġdiurn":12123,"Ġperire":12124,"Ġfacilior":12125,"raid":12126,"Ġgente":12127,"ĠQuar":12128,"ilibet":12129,"Ġcoqu":12130,"ĠNatus":12131,"Ġposuisti":12132,"Ġscitum":12133,"iver":12134,"ĠMac":12135,"Ġabys":12136,"Ġabhor":12137,"Ġabbat":12138,"ellow":12139,"ĠLug":12140,"Ġsite":12141,"ĠHann":12142,"Ġneutrum":12143,"ĠRel":12144,"Ġcalig":12145,"ĠTulli":12146,"ĠTrib":12147,"ĠFinis":12148,"ĠFusce":12149,"Ġvoluisti":12150,"Ġpleas":12151,"Ġconsurg":12152,"ĠVat":12153,"ĠVicip":12154,"Ġimponitur":12155,"Ġunis":12156,"ĠBell":12157,"ĠBad":12158,"ĠGr":12159,"Ġrun":12160,"Ġrud":12161,"Ġintrat":12162,"Ġproph":12163,"Ġscribi":12164,"Ġcommittere":12165,"Ġsumere":12166,"Ġstigmata":12167,"add":12168,"ado":12169,"eniret":12170,"ĠOly":12171,"Ġcorona":12172,"aped":12173,"Ġ1923":12174,"Ġspha":12175,"Ġlocuta":12176,"Ġloquantur":12177,"Ġserp":12178,"Ġincolas":12179,"Ġposterum":12180,"Ġaudiat":12181,"Ġauditor":12182,"ĠUlix":12183,"Ġcausatum":12184,"leep":12185,"Ġinvitus":12186,"erog":12187,"Ġagno":12188,"audiae":12189,"Ġratum":12190,"Ġvitare":12191,"Ġputatis":12192,"Ġvocis":12193,"Ġsuperiore":12194,"Ġrepente":12195,"Ġiudice":12196,"Ġcurrit":12197,"Ġnominantur":12198,"Ġdecus":12199,"Ġdederis":12200,"Ġnotis":12201,"iciuntur":12202,"Ġ2001":12203,"Ġsenti":12204,"eraque":12205,"ĠFrancia":12206,"Ġlitore":12207,"Ġgratuit":12208,"Ġconfug":12209,"Ġital":12210,"Ġelement":12211,"Ġinfidelibus":12212,"Ġpraecedit":12213,"Ġcolonia":12214,"ĠAmmon":12215,"Ġcarcere":12216,"Ġmisisti":12217,"Ġpraeterit":12218,"Ġvidear":12219,"Ġcircuitu":12220,"ĠLatino":12221,"Ġprincipatus":12222,"Ġcertis":12223,"Ġsummus":12224,"Ġfugiunt":12225,"Ð¾Ñģ":12226,"ĠQuaes":12227,"Ġeventus":12228,"Ġextrah":12229,"Ġegerit":12230,"ĠWhen":12231,"Ġsuspecta":12232,"Ġbears":12233,"Ġsapienter":12234,"Ġvictum":12235,"Ġvicarius":12236,"ĠMarci":12237,"Ð¸Ðµ":12238,"ĠProb":12239,"Ġstatuit":12240,"Ġiisdem":12241,"Ġtimes":12242,"string":12243,"Ġ117":12244,"Ġmulierum":12245,"ĠBrund":12246,"ĠBruns":12247,"Ġkal":12248,"Ġquintum":12249,"Ġimmin":12250,"Ġimmol":12251,"Ġsociorum":12252,"Ġliberae":12253,"Ġliberatus":12254,"Ġheard":12255,"aneum":12256,"Ġaedificatum":12257,"name":12258,"Ġdistric":12259,"Ġmetimur":12260,"ĠIoab":12261,"Ġadduxit":12262,"Ġdetrim":12263,"Ġquaestor":12264,"Ġquaestione":12265,"Ġcontractum":12266,"Ġargent":12267,"Ġmonstr":12268,"Ġinvenisti":12269,"Ġchem":12270,"ĠSpec":12271,"Ġmiserrim":12272,"reditur":12273,"Ġfidelibus":12274,"Ġreddat":12275,"Ġbibas":12276,"Ġbibliothec":12277,"Ġparvam":12278,"uicem":12279,"Ġdicturus":12280,"Ġcopul":12281,"Ġcopiam":12282,"Ġerroribus":12283,"ĠImp":12284,"Ġadventus":12285,"Ġincipere":12286,"erebamus":12287,"ipisci":12288,"ĠAsc":12289,"Ġprivileg":12290,"Ġrogat":12291,"Ġrogatus":12292,"Ġdefinit":12293,"ãĤ¹":12294,"ãĤĴ":12295,"Ġproposita":12296,"Ã¡ria":12297,"Ġiuvat":12298,"Ġmoriuntur":12299,"Ġ1993":12300,"Ġaestate":12301,"Ġludos":12302,"erdin":12303,"Ġtestimonia":12304,"Ġpuellis":12305,"Ġhoras":12306,"Ġversatur":12307,"ĠCler":12308,"Ġpalace":12309,"Ġfree":12310,"Ġpossidere":12311,"Ġlaborare":12312,"Ġorientem":12313,"Ġsimplicem":12314,"Ġ1978":12315,"ĠMediol":12316,"ĠNew":12317,"ĠNeap":12318,"Ġscelus":12319,"indow":12320,"ĠBritanniae":12321,"Ġ1989":12322,"ĠImperator":12323,"ÐµÐ´":12324,"Ġexceptis":12325,"Ġfacultate":12326,"Ġdioecesi":12327,"Ġministri":12328,"Ġshall":12329,"ĠSamaria":12330,"Ġrecordatio":12331,"ĠNostrum":12332,"Ġimpetum":12333,"Ġsacerdotio":12334,"Ġaccepto":12335,"Ġmeminisse":12336,"Ġproelium":12337,"ĠTempore":12338,"Ġdeclarat":12339,"Ġvictoriam":12340,"Ġinvidia":12341,"ĠâĹ":12342,"ÏģÎ±":12343,"Ġplebis":12344,"Ġdilectio":12345,"ĠHabet":12346,"Ġqualitas":12347,"Ġiniust":12348,"ĠLaban":12349,"ĠArchiepiscop":12350,"Ġconfiteri":12351,"Omnis":12352,"Ġreversus":12353,"Ġresistere":12354,"ĠSext":12355,"Ġgloriari":12356,"Ġstair":12357,"Ġderelic":12358,"ĠBeatrix":12359,"Ġcrucem":12360,"Ġresurrexit":12361,"Ġnonnulla":12362,"Ġclausa":12363,"ĠSententia":12364,"Ġconferre":12365,"Ġpetierimus":12366,"Ġoctava":12367,"ĠActs":12368,"attoo":12369,"Ġavaritia":12370,"Ġrobust":12371,"Ġsublata":12372,"ĠEzechias":12373,"Comp":12374,"ĠÅ¿":12375,"Ġpersever":12376,"Ġwork":12377,"ĠAtheniens":12378,"Ġclariora":12379,"Liber":12380,"Ġparoeciae":12381,"Primum":12382,"Ġpepercit":12383,"Ġattingere":12384,"ĠInterrogatus":12385,"ĠGaius":12386,"Ġtalk":12387,"ĠHungariae":12388,"Ġadepto":12389,"Ġducti":12390,"Ġexcelsiores":12391,"Ġimprimis":12392,"Ġshould":12393,"ĠGreek":12394,"Ġcotidiana":12395,"Ġsuggest":12396,"ç´Ļéĭ¼":12397,"ĠAnselmo":12398,"ĠCantuÃ¡ria":12399,"Ġappropinqu":12400,"ĠVindob":12401,"ĠBrunsv":12402,"!!":12403,"')":12404,"?)":12405,"Donec":12406,"Eccles":12407,"Is":12408,"LE":12409,"On":12410,"Se":12411,"Un":12412,"XII":12413,"ble":12414,"fell":12415,"hs":12416,"ier":12417,"iatus":12418,"iudic":12419,"iano":12420,"mio":12421,"ning":12422,"riam":12423,"sae":12424,"ues":12425,"uitatem":12426,"wa":12427,"¤ãĥ":12428,"»¿":12429,"Äķ":12430,"å¥":12431,"åĮ":12432,"ĠØ§":12433,"quem":12434,"umen":12435,"erantur":12436,"eramus":12437,"Ġseri":12438,"inxit":12439,"usus":12440,"Ġquand":12441,"Ġquacumque":12442,"ista":12443,"Ġpens":12444,"Ġpav":12445,"ative":12446,"onicae":12447,"ami":12448,"Ġcarent":12449,"Ġcity":12450,"Ġdread":12451,"Ġmisc":12452,"Ġmenda":12453,"Ġinnox":12454,"Ġineff":12455,"Ġinuicem":12456,"emist":12457,"Ġtrav":12458,"urorum":12459,"Ġvag":12460,"Ġiv":12461,"Ġfol":12462,"Ġfonte":12463,"Ġficta":12464,"Ġfolia":12465,"omus":12466,"imile":12467,"ank":12468,"idos":12469,"iduo":12470,"osae":12471,"ecisti":12472,"ulerit":12473,"Ġreb":12474,"Ġreum":12475,"Ġadop":12476,"ocendi":12477,"udens":12478,"llam":12479,"abamus":12480,"Ġutrisque":12481,"oti":12482,"otes":12483,"otos":12484,"Ġdeponere":12485,"Ġdestru":12486,"ĠAgn":12487,"ĠSeg":12488,"ĠSing":12489,"ĠSuet":12490,"ele":12491,"ĠDign":12492,"endite":12493,"Ġperp":12494,"ters":12495,"Ġpraefic":12496,"ĠPsal":12497,"ĠPuer":12498,"Ġgave":12499,"isticae":12500,"Ġseduc":12501,"Ġenum":12502,"uitus":12503,"ĠMaecenas":12504,"Ġquiditas":12505,"Ġpotuimus":12506,"ptis":12507,"Ġuers":12508,"Ġabut":12509,"Ġabdic":12510,"ĠHost":12511,"Ġoporter":12512,"ĠReb":12513,"ĠRusc":12514,"ĠRursus":12515,"Ġcaut":12516,"Ġcase":12517,"Ġamavit":12518,"ĠTenn":12519,"Ġprove":12520,"Ġpage":12521,"Ġcures":12522,"Ġincumb":12523,"iscip":12524,"Ġvolebam":12525,"Ġpleraque":12526,"ĠVi":12527,"ĠVulgate":12528,"ĠVivamus":12529,"Ġnecatus":12530,"Ġnecnon":12531,"igen":12532,"Ġunitate":12533,"ĠBy":12534,"ĠBened":12535,"Ġrot":12536,"Ġintest":12537,"Ġintrare":12538,"Ġacceptum":12539,"Ġste":12540,"Ġdixero":12541,"Ġdixerint":12542,"ries":12543,"ova":12544,"rane":12545,"Ġanimas":12546,"ĠOh":12547,"ĠOx":12548,"Ġlegavit":12549,"ĠInstit":12550,"Ġloquentem":12551,"Ġdoleo":12552,"Ġnumerat":12553,"Ġomnesque":12554,"ĠSedes":12555,"Ġquibuscum":12556,"itasse":12557,"Ġduarum":12558,"Ġimplet":12559,"Ġnaturalem":12560,"Ġcommunitas":12561,"ugium":12562,"Ġdebeatur":12563,"Ġacquiesc":12564,"Ġveniant":12565,"Ġurbium":12566,"Ġremota":12567,"new":12568,"ney":12569,"Ġisn":12570,"Ġexpress":12571,"Ġcurat":12572,"Ġdiscept":12573,"Ġnominatur":12574,"itudin":12575,"head":12576,"height":12577,"Ġ500":12578,"Ġcognitam":12579,"Ġrecre":12580,"Ġrecent":12581,"Ġrecurr":12582,"diffic":12583,"Ġfortes":12584,"Ġactionibus":12585,"Ġconfecta":12586,"oriarum":12587,"Ġinfantes":12588,"Ġpraecepisti":12589,"Ġcolum":12590,"Ġinside":12591,"ĠAmas":12592,"Ġcaritatis":12593,"Ġmatri":12594,"Ġmattis":12595,"Ġlabeo":12596,"Ġjuv":12597,"Ġdelet":12598,"Ġneglig":12599,"Ġdominium":12600,"Ġprincipis":12601,"ĠAraris":12602,"Ġcertamen":12603,"ease":12604,"Ġfugerunt":12605,"Ġquaeram":12606,"Ġundecim":12607,"ixum":12608,"ĠWood":12609,"Ġducitur":12610,"Ġducatus":12611,"olid":12612,"Ġ121":12613,"Ġfamam":12614,"Ġmutatur":12615,"Ġbeatissimum":12616,"them":12617,"Ġcognosceret":12618,"Ġpetit":12619,"Ġpeteret":12620,"ĠExp":12621,"Ġappellati":12622,"Ġceterum":12623,"Ġstudiose":12624,"Ġlaudis":12625,"Ġ132":12626,"Ġ133":12627,"Ġ138":12628,"ĠConv":12629,"Ġprocre":12630,"Ġprocedit":12631,"iform":12632,"Ġsenectus":12633,"Ġ147":12634,"Ġ113":12635,"Ġintelligentiae":12636,"Ġmensam":12637,"Ġ107":12638,"Ġaccusatus":12639,"Ġaperitur":12640,"ĠBras":12641,"Ġpeccat":12642,"Ġmoreretur":12643,"ãģª":12644,"Ġsignificet":12645,"ĠOmnium":12646,"Ġaequa":12647,"ÑģÑı":12648,"Ġgravem":12649,"Ġsimulac":12650,"ricem":12651,"Ġdifferant":12652,"Ġcontrariae":12653,"Ġtributa":12654,"Ġadversariis":12655,"Ġchat":12656,"Ġmandavi":12657,"Ġobsid":12658,"Ġlicitum":12659,"Ġaeternus":12660,"Ġsecundae":12661,"Ġmiseram":12662,"Ġrevera":12663,"Ġinstitu":12664,"Ġalleg":12665,"Ġfideicomm":12666,"Ġlaeta":12667,"Ġpermut":12668,"Ġpugnam":12669,"Ġdelector":12670,"Ġmyst":12671,"Ġreperio":12672,"Ġpaucorum":12673,"ĠNova":12674,"Ġnobili":12675,"Ġmeliores":12676,"Ġnuntiatum":12677,"Ġlacess":12678,"Ġdoes":12679,"Ð°Ð¹":12680,"Ġpassim":12681,"Ġcorrip":12682,"Ġrogare":12683,"Ġpericuli":12684,"Ġ1948":12685,"Ġ1949":12686,"Ġnarravit":12687,"Ġmissi":12688,"Ġludo":12689,"Ġaugur":12690,"Ġfeminarum":12691,"Ġsorore":12692,"Ġpretiosa":12693,"Ġcastrum":12694,"Ġambulabat":12695,"Ġhoram":12696,"Ġdivisio":12697,"Ġdiversum":12698,"Ġcomposuit":12699,"Ġforens":12700,"Ġiniquum":12701,"Ġmaritum":12702,"Ġmarito":12703,"Ġcircumcid":12704,"ackson":12705,"Ġindex":12706,"Ġparentum":12707,"Ġnatalis":12708,"Ġnationibus":12709,"Ġvincitur":12710,"Ġfeles":12711,"Ġscelera":12712,"Ġfundi":12713,"Ġperpetua":12714,"Ġcrimina":12715,"ĠDolores":12716,"Ġfeceritis":12717,"Ġcondicionem":12718,"ĠParisi":12719,"Ġconcedi":12720,"ĠLucius":12721,"Ġcommoda":12722,"Ġsempiternam":12723,"ĠCatholica":12724,"Ġelegantiam":12725,"Ġgeneratio":12726,"Ġaltius":12727,"Ġaltitudo":12728,"Ġsingular":12729,"Ġindiget":12730,"Ġrelinquere":12731,"Ġinstar":12732,"ĠAfricae":12733,"Ġ1853":12734,"Ġxii":12735,"Ġdelictum":12736,"Ġparticipes":12737,"Ġproficisci":12738,"Ġsomnium":12739,"Ġcadunt":12740,"Ġcommendat":12741,"Ġdeducta":12742,"Ġmunicipia":12743,"Ġsumptum":12744,"Ġ1860":12745,"Ġaccepti":12746,"ĠXVII":12747,"Ġmeminit":12748,"Ġnubes":12749,"Ġintegra":12750,"ĠXXI":12751,"Ġdurius":12752,"Ġinquiunt":12753,"ĠZenonis":12754,"Ġquaerebamus":12755,"ĠSequi":12756,"Ġcapitulo":12757,"Ġgrass":12758,"Ġgregem":12759,"Ġinsipientes":12760,"Ġinsipientium":12761,"Ġueritate":12762,"Ġuoluntate":12763,"ĠFlorent":12764,"Ġ1806":12765,"Ġpollicetur":12766,"Ġacceperat":12767,"Ġpercept":12768,"Ġmultiplex":12769,"ĠMaxime":12770,"ĠMaximum":12771,"Ġcontentione":12772,"Ġtext":12773,"Ġpastor":12774,"Ġnonnullis":12775,"Ġuiuere":12776,"Ġparticeps":12777,"Ġremansit":12778,"Ġconsummati":12779,"ĠJudae":12780,"Ġcotidieque":12781,"ĠSabaudiae":12782,"Ġsplendid":12783,"Ġevangeliz":12784,"iously":12785,"Ġconsiderata":12786,"ĠAvic":12787,"ighly":12788,"Ġprimogenitus":12789,"Ġcenam":12790,"Ġbasil":12791,"ĠNapoleo":12792,"Ġdextram":12793,"Ġvestigia":12794,"ĠEvangelium":12795,"Ġsince":12796,"Ġegregium":12797,"Sicut":12798,"Ġabbas":12799,"ĠDeserunt":12800,"????????":12801,"ĠPomponius":12802,"Ġabscondit":12803,"Ġabscondi":12804,"æĹ¥":12805,"Ġexhered":12806,"Ġlarge":12807,"Ġprouinc":12808,"ĠTreb":12809,"Ġconfiteor":12810,"ĠDemocritus":12811,"10883628":12812,"Ġdiluvii":12813,"Ġtranquill":12814,"Lingua":12815,"ĠFridericus":12816,"Ġdeterritum":12817,"Ġsystem":12818,"Ġinflammat":12819,"Ġpernici":12820,"ipublicae":12821,"Ġoporteret":12822,"!)":12823,"839":12824,"90":12825,"95":12826,"All":12827,"Autem":12828,"Ep":12829,"For":12830,"Hab":12831,"Joh":12832,"OD":12833,"RI":12834,"SU":12835,"Sunt":12836,"Tum":12837,"Vel":12838,"XIV":12839,"Yes":12840,"bec":12841,"cas":12842,"der":12843,"dia":12844,"dific":12845,"ford":12846,"git":12847,"ges":12848,"gar":12849,"ged":12850,"hum":12851,"hrot":12852,"ki":12853,"kes":12854,"ls":12855,"lay":12856,"ml":12857,"nesc":12858,"ual":12859,"xisse":12860,"Î®":12861,"å½":12862,"åĨ":12863,"è¡":12864,"ï»¿":12865,"Ġ_":12866,"Ġ01":12867,"Ġlius":12868,"Ġelic":12869,"Ġerect":12870,"inone":12871,"Ġphil":12872,"Ġpensa":12873,"onos":12874,"Ġcale":12875,"Ġceperunt":12876,"ĠcÅĵ":12877,"Ġnuc":12878,"Ġdate":12879,"Ġdaretur":12880,"Ġindi":12881,"Ġinitia":12882,"Ġinquir":12883,"Ġineptum":12884,"Ġtar":12885,"Ġtarn":12886,"Ġvov":12887,"Ġviarum":12888,"Ġferat":12889,"Ġhat":12890,"image":12891,"iditas":12892,"Ġpror":12893,"ĠprÃ¦c":12894,"olvit":12895,"Ġly":12896,"Ġlitus":12897,"Ġadfic":12898,"udit":12899,"aca":12900,"Ġutar":12901,"Ġutilis":12902,"Ġuteretur":12903,"opat":12904,"ilo":12905,"ĠAdi":12906,"Ġexstat":12907,"Ġquamque":12908,"ager":12909,"agement":12910,"Ġbes":12911,"ende":12912,"ipiam":12913,"ĠPut":12914,"ĠPun":12915,"ĠPisc":12916,"ĠQuaec":12917,"Ġcogitur":12918,"quamquam":12919,"enso":12920,"Ġhabuisse":12921,"Ġscias":12922,"Ġsciri":12923,"Ġsciebat":12924,"ĠMard":12925,"Ġpoteram":12926,"Ġseat":12927,"Ġverso":12928,"Ġipsarum":12929,"Ġuic":12930,"available":12931,"ĠLet":12932,"ĠHos":12933,"ĠHorum":12934,"ĠHarum":12935,"Ġope":12936,"Ġopert":12937,"ĠRa":12938,"ĠRup":12939,"Ġamamus":12940,"ĠTab":12941,"ĠTanta":12942,"ĠFerdin":12943,"Ġpaginae":12944,"Ġparoch":12945,"Ġincepit":12946,"Ġplay":12947,"Ġplanum":12948,"ĠVil":12949,"ĠVbi":12950,"Ġsolitudo":12951,"Ġran":12952,"Ġcontendere":12953,"Ġcommissa":12954,"resso":12955,"Ġfuere":12956,"Ġfuisses":12957,"Ġsto":12958,"Ġlibrorum":12959,"Ġsecuta":12960,"Ġdixerim":12961,"ĠOg":12962,"Ġlegs":12963,"Ġsero":12964,"Ġsubdit":12965,"Ġaudeat":12966,"Ġaudiet":12967,"Ġobed":12968,"Ġinvito":12969,"Ġcuiusmodi":12970,"Ġagendi":12971,"Ġsimilibus":12972,"chi":12973,"uga":12974,"Ġdebebat":12975,"Ġasino":12976,"Ġputantur":12977,"Ġputavit":12978,"Ġistos":12979,"Ġreprob":12980,"Ġdivino":12981,"ĠâĢŀ":12982,"Ġdecur":12983,"Ġdeduct":12984,"Ġdeserta":12985,"Ġintellecta":12986,"ĠFrancorum":12987,"Ġgratius":12988,"Ġscribimus":12989,"Ġconferunt":12990,"Ġelse":12991,"Ġvivus":12992,"Ġplaceret":12993,"Ġinsunt":12994,"Ġinscrib":12995,"Ġfratern":12996,"ĠAmic":12997,"Ġteneat":12998,"Ġdefini":12999,"Ġconventum":13000,"ĠJer":13001,"ĠJerusalem":13002,"Ġfiebant":13003,"Ġprovidere":13004,"Ġfecitque":13005,"Ġvideas":13006,"Ġvisionem":13007,"Ġprobabis":13008,"Ġglob":13009,"Ġsalub":13010,"Ġegest":13011,"ĠWil":13012,"Ġhome":13013,"Ġhomic":13014,"Ġingem":13015,"Ġtestem":13016,"Ġ122":13017,"Ġ126":13018,"Ġ127":13019,"Ġintellegis":13020,"Ġmutata":13021,"Ġmutuam":13022,"Ġvicem":13023,"Ġaccipiatur":13024,"thing":13025,"though":13026,"Ġreliquorum":13027,"Ġiuribus":13028,"Ġceteras":13029,"possumus":13030,"position":13031,"Ġ131":13032,"Ġ134":13033,"ĠPros":13034,"ĠProph":13035,"Ġstatuta":13036,"Ġstatutum":13037,"ĠConstit":13038,"inamur":13039,"Ġ116":13040,"Ġflu":13041,"Ġintelligatur":13042,"Ġmensem":13043,"Ġsacris":13044,"Ġ102":13045,"Ġ104":13046,"Ġsubiect":13047,"Ġsubiecit":13048,"ĠKol":13049,"Ġsignificantur":13050,"Ġcupit":13051,"Ġrectissime":13052,"ĠThese":13053,"Ġdonata":13054,"Ġmovent":13055,"rico":13056,"ricis":13057,"ĠIoanne":13058,"Ġlife":13059,"Ġultro":13060,"Ġultimo":13061,"Ġnoctu":13062,"Ġnoctibus":13063,"Ġmillia":13064,"Ġperfectiones":13065,"Ġquaestionis":13066,"Ġuniversum":13067,"Ġferoc":13068,"Ġferri":13069,"Ġargenti":13070,"Ġmirabantur":13071,"Ġdebetis":13072,"Ġamput":13073,"Ġexplicare":13074,"Ġfamiliarem":13075,"Ġcru":13076,"Ġscriptoribus":13077,"Ġcogitationibus":13078,"Ġpraestet":13079,"ĠAlii":13080,"ĠAlio":13081,"Ġcalor":13082,"Ġcallid":13083,"landia":13084,"Ġloquamur":13085,"Ġdelectant":13086,"ĠIntern":13087,"Ġhonesta":13088,"Ġopiniones":13089,"Ġcupiditatem":13090,"Ð°Ð²":13091,"Ġprivatae":13092,"Ġpassiones":13093,"Ġfuroris":13094,"Ġpropositio":13095,"Ġiuvare":13096,"Ġcasibus":13097,"Ġ1992":13098,"Ġafflic":13099,"ĠHispaniam":13100,"Ġgestorum":13101,"Ġeuangeli":13102,"ĠGalaad":13103,"ĠSeptem":13104,"Ġconiunctionem":13105,"Ġnavium":13106,"Ġscripserit":13107,"Ġcompositionem":13108,"Ġadhibetur":13109,"Ġignorare":13110,"Ġscholis":13111,"face":13112,"Ġaudiret":13113,"Ġiniquitas":13114,"Ġmariti":13115,"Ġordinatus":13116,"Ġcomparatur":13117,"Ġconsumere":13118,"Ġturpiter":13119,"Ġturpitudinem":13120,"Ġ1960":13121,"echn":13122,"Ġcreaturam":13123,"Ġpauperes":13124,"Ġsuscept":13125,"ĠParlam":13126,"Ġrestitui":13127,"ĠBritannicus":13128,"Ġfesto":13129,"Ġfestiv":13130,"Ġaccedunt":13131,"Ġgenerationem":13132,"Ġsingularis":13133,"Ġcibo":13134,"Ġscitote":13135,"ĠEsiae":13136,"Ġ1858":13137,"Ġconfirmatae":13138,"Ġtaberna":13139,"Ġtabernac":13140,"Ġtabernaculo":13141,"Ġapostolis":13142,"Ġ1958":13143,"Ġsollicitudin":13144,"Ġadiuvat":13145,"ĠPotes":13146,"ĠGenesis":13147,"Ġproportionem":13148,"Ġsolidum":13149,"Ġcessat":13150,"ĠScipione":13151,"ventore":13152,"Ġtyp":13153,"Ġperficere":13154,"Ġdecrevit":13155,"ERO":13156,"Ġministerium":13157,"Ġaccesseris":13158,"Ġfingunt":13159,"Ġadulescens":13160,"Ġventurus":13161,"Ġ1893":13162,"Ġrequirit":13163,"Ġblasph":13164,"ĠMarcellus":13165,"Ġproprietates":13166,"ÎµÎ¹":13167,"20000":13168,"Ġcatholicae":13169,"Ġpopularis":13170,"Ġconvenerunt":13171,"ĠAcademiam":13172,"Ġedicto":13173,"Ġconfusionem":13174,"Ġpoetarum":13175,"Ġpictura":13176,"Ġconcupisces":13177,"Ġhodiernum":13178,"Ġnext":13179,"errimus":13180,"Ġnutri":13181,"Ġpermittitur":13182,"Ġexprimere":13183,"Ġclericus":13184,"Ġconcipi":13185,"Ġoblivisc":13186,"Ġcrescit":13187,"ĠSyriam":13188,"ĠMalmog":13189,"Ġadmirationis":13190,"ĠPraeses":13191,"Ġimportat":13192,"domad":13193,"Ġnudus":13194,"Praeterea":13195,"Ġmaledicta":13196,"Ġprocurator":13197,"Ġsacramentum":13198,"Ġlacrimae":13199,"Ġrationalis":13200,"ĠDietam":13201,"Ġmediocri":13202,"Ġobtulit":13203,"Ġmalle":13204,"Ġfontes":13205,"Ġpontificatus":13206,"ĠCeltae":13207,"Ġpersev":13208,"ĠÐ¾Ð±":13209,"APTER":13210,"Marcus":13211,"Ġbrought":13212,"Ġcomplexus":13213,"Ġbenedicat":13214,"Ġterminos":13215,"Ġmedicina":13216,"ÑĨÐ¸":13217,"Ġescape":13218,"ĠElisatia":13219,"Ġexamin":13220,"Ġredeamus":13221,"Ġcarmina":13222,"Ġillustris":13223,"Ġverecund":13224,"Ġmaerore":13225,"ĠCredo":13226,"Ġcoercendi":13227,"\":[\"":13228,"ĠFrater":13229,"Ġceleritate":13230,"Ġturned":13231,"ĠOrient":13232,"Variants":13233,"Ġadiunxit":13234,"ĠCongreg":13235,"Ġpraediti":13236,"ĠNorvegiae":13237,"Ġnongentesimo":13238,"ĠHierosoly":13239,"ĠHieronymus":13240,"ĠEphraim":13241,"ĠTennesiae":13242,"97":13243,"://":13244,"=\"":13245,">.":13246,"?âĢĿ.":13247,"Cat":13248,"Do":13249,"Download":13250,"Iab":13251,"KG":13252,"Multa":13253,"Numquam":13254,"Or":13255,"Sum":13256,"aque":13257,"cle":13258,"crow":13259,"eantur":13260,"featured":13261,"gl":13262,"loc":13263,"liter":13264,"sub":13265,"tas":13266,"tionis":13267,"uz":13268,"vus":13269,"vimus":13270,"Ã¸":13271,"áŀ":13272,"å°":13273,"åĩ":13274,"æ°":13275,"ĠÏĥ":13276,"Ġole":13277,"Ġedixit":13278,"eru":13279,"Ġavers":13280,"Ġaev":13281,"Ġses":13282,"Ġqualiter":13283,"Ġpont":13284,"Ġpsal":13285,"Ġcf":13286,"Ġcedit":13287,"aest":13288,"Ġdetur":13289,"Ġdentes":13290,"Ġdans":13291,"Ġdatam":13292,"Ġdiac":13293,"Ġmight":13294,"Ġinpr":13295,"iculae":13296,"Ġtold":13297,"Ġtaed":13298,"Ġtiny":13299,"Ġviat":13300,"utiae":13301,"Ġfato":13302,"Ġfreg":13303,"lixit":13304,"omi":13305,"Ġhyp":13306,"Ġhaving":13307,"imet":13308,"imarum":13309,"etia":13310,"ularibus":13311,"entae":13312,"Ġnonaginta":13313,"Ġpriori":13314,"Ġprison":13315,"ederland":13316,"Ġlot":13317,"Ġlatus":13318,"Ġlow":13319,"Ġadaequ":13320,"asque":13321,"Ġdeae":13322,"Ġdest":13323,"Ġdear":13324,"Ġexord":13325,"Ġexinde":13326,"Ġexponere":13327,"alitatis":13328,"ĠSta":13329,"ĠSup":13330,"ĠSoph":13331,"ĠCen":13332,"ĠCab":13333,"ĠCop":13334,"ĠCath":13335,"elo":13336,"ĠDid":13337,"ĠDuae":13338,"omnis":13339,"Ġpersequi":13340,"ĠPKG":13341,"Ġgentis":13342,"Ġgeruntur":13343,"ratione":13344,"ĠQuarum":13345,"ĠQuinct":13346,"Ġcoempt":13347,"omina":13348,"oming":13349,"Ġenunt":13350,"ensam":13351,"ensione":13352,"Ġhabito":13353,"Ġposc":13354,"Ġposit":13355,"ĠMM":13356,"ĠMore":13357,"ĠMex":13358,"ĠModo":13359,"undam":13360,"ebimus":13361,"Ġpotentes":13362,"Ġ250":13363,"orth":13364,"ortus":13365,"ortis":13366,"Ġthing":13367,"Ġposses":13368,"Ġabhinc":13369,"ĠLy":13370,"ĠLup":13371,"ĠHol":13372,"Ġerrat":13373,"Ġerog":13374,"Ġcaud":13375,"Ġcastr":13376,"ĠTul":13377,"ĠFann":13378,"ingere":13379,"Ġaliquantum":13380,"Ġplene":13381,"Ġplease":13382,"ĠVero":13383,"ĠVenit":13384,"Ġnecati":13385,"essi":13386,"ertatis":13387,"Ġpotestati":13388,"ĠBis":13389,"Ġsolvit":13390,"Ġintrav":13391,"Ġcontulit":13392,"Ġwon":13393,"Ġcommis":13394,"Ġorationes":13395,"Ġstar":13396,"Ġstand":13397,"Ġstans":13398,"Ġresusc":13399,"Ġsecuti":13400,"Ġsicc":13401,"over":13402,"adis":13403,"Ġanimis":13404,"Ġminu":13405,"Ġminimo":13406,"ĠOdit":13407,"ĠOth":13408,"ĠOce":13409,"Ġlegiones":13410,"Ġfecissem":13411,"Ġ1912":13412,"Ġ1934":13413,"Ġloquente":13414,"Ġaudiamus":13415,"Ġalong":13416,"Ġalways":13417,"ley":13418,"Ġmagnos":13419,"Ġmagnarum":13420,"Ġimpii":13421,"ĠAnimi":13422,"ĠRome":13423,"Ġnaturali":13424,"Ġnaturales":13425,"Ġdeberi":13426,"Ġacadem":13427,"Ġnullas":13428,"Ġputabant":13429,"ernis":13430,"Ġexpell":13431,"Ġiudicibus":13432,"Ġamice":13433,"Ġdiscimus":13434,"Ġnominati":13435,"Ġdedocendi":13436,"Ġnothing":13437,"Ġdesuper":13438,"Ġtotidem":13439,"Ġactionis":13440,"Ġconfestim":13441,"Ġcla":13442,"Ġclus":13443,"Ġclarum":13444,"ĠÐ°":13445,"Ġeludet":13446,"Ġinfans":13447,"Ġpraecepi":13448,"Ġcariorem":13449,"Ġcredas":13450,"Ġdocendi":13451,"Ġoptimo":13452,"Ġdelecta":13453,"Ġcirculum":13454,"Ġprobabantur":13455,"Ġproblem":13456,"Ġyet":13457,"Ġprincipalis":13458,"ĠArd":13459,"Ġfugam":13460,"ĠGraecam":13461,"Ġsalt":13462,"Ġtumultus":13463,"Ġaeterno":13464,"Ġimperfectum":13465,"Ġingress":13466,"Ġofficiorum":13467,"Ġsuspectum":13468,"Ġcogitet":13469,"iosis":13470,"Ġintellegimus":13471,"Ġsatisf":13472,"Ġsapientium":13473,"owing":13474,"Ġhonorum":13475,"Ġhumili":13476,"erven":13477,"there":13478,"Ġreliquiae":13479,"ienses":13480,"Ġaedem":13481,"Ġappellari":13482,"Ġappellatio":13483,"Ġsuperest":13484,"Ġlaudari":13485,"Ġconstituere":13486,"Ġsenatui":13487,"Ġdiscipulum":13488,"Ġemitt":13489,"Ġintelligimus":13490,"Ġodisse":13491,"Ġmensuram":13492,"Ġfactionem":13493,"Ġsubstantias":13494,"Ġmuneris":13495,"Ġlatet":13496,"Ġlatron":13497,"ĠQuamobrem":13498,"Ġpraedicari":13499,"Ġmulieri":13500,"Ġkind":13501,"ĠIllae":13502,"Ġsocios":13503,"Ġunaquaeque":13504,"Ġostendi":13505,"ĠMaiores":13506,"Ġaequalia":13507,"ĠThis":13508,"Ġheart":13509,"Ġregna":13510,"cripsit":13511,"Ġadditum":13512,"Ġsingulae":13513,"Ġperfectionis":13514,"Ġpraecipiendum":13515,"ĠIulio":13516,"Ġcontrib":13517,"Ġearumque":13518,"Ġconsulere":13519,"Ġmandatis":13520,"Ġmandato":13521,"Ġhabitaverunt":13522,"Ġfamiliari":13523,"Ġnoluisti":13524,"Ġarbitra":13525,"Ġinstituti":13526,"Ġrefell":13527,"Ġreprehendit":13528,"ĠAntiqu":13529,"ĠAntoni":13530,"ĠPho":13531,"Ġeodemque":13532,"ĠPraemium":13533,"ĠIdque":13534,"ĠIdibus":13535,"Ġpermulta":13536,"Ġparvo":13537,"ĠScot":13538,"Ġepistularum":13539,"Ġdictator":13540,"Ġerrores":13541,"Ġdilecta":13542,"Ġpugnat":13543,"Ġdelectet":13544,"Ġreperitur":13545,"Ġdescisc":13546,"ĠPerse":13547,"Ġliberti":13548,"Ġlibertus":13549,"iction":13550,"Ð°Ð±":13551,"Ġprivatio":13552,"Ġdisputatum":13553,"Ġdisputationibus":13554,"Ġtenebitur":13555,"Ġmoriar":13556,"Ġarea":13557,"Ġ1996":13558,"Ġ1997":13559,"Ġaugeri":13560,"Ġpedil":13561,"Ġcognoverunt":13562,"Ġsonat":13563,"Ġfortunas":13564,"Ġnavem":13565,"Ġmercator":13566,"ĠAugusto":13567,"ĠPauli":13568,"Ġdivisa":13569,"Ġmanifesta":13570,"Ġsocietates":13571,"Ġpossideat":13572,"Ġhorto":13573,"Ġreleg":13574,"Ġmerita":13575,"Ġmentiri":13576,"Ġagnum":13577,"Ġvinculum":13578,"Ġhier":13579,"Ġhair":13580,"Ġ1965":13581,"Ġ1966":13582,"Ġ1968":13583,"Ġcustodia":13584,"Ġbestiarum":13585,"ĠUrbis":13586,"Ġsalva":13587,"Ġcomede":13588,"Ġpraesides":13589,"ĠÎ¼":13590,"Ġvulner":13591,"Ġpraemitt":13592,"Ġcelebrat":13593,"Ġtacere":13594,"Ġstultitiam":13595,"Ġdeposita":13596,"Ġplenitudinem":13597,"Ġsilentio":13598,"Ġ1982":13599,"ÐµÐ²":13600,"ÑģÑĤÐ²":13601,"Ġtollendam":13602,"ĠAnglia":13603,"Ġclamat":13604,"ĠRead":13605,"Ġabsolvi":13606,"Ġsuspicio":13607,"Ġsuspicione":13608,"Ġgladius":13609,"ocket":13610,"Ġconscientiam":13611,"rown":13612,"Ġimpetu":13613,"Ġadducet":13614,"Ð¸Ð´":13615,"Ġentis":13616,"Ġturbae":13617,"Ġmontibus":13618,"Ġpraepositum":13619,"Ġsciebam":13620,"Ġinquies":13621,"Ġuocatur":13622,"ĠQuinto":13623,"Ġartificio":13624,"Ġ1870":13625,"Ġquaerebatis":13626,"Ġuberiora":13627,"Ġdissimile":13628,"Ġcapitulum":13629,"Ġgreges":13630,"ĠBooks":13631,"Ġlapis":13632,"Ġinvidiae":13633,"Ġprotest":13634,"Ġ1803":13635,"Ġeloquentiae":13636,"Ġpraebet":13637,"There":13638,"aldus":13639,"Ġpopulari":13640,"Ġcubiculum":13641,"Ġorigine":13642,"Ġconfitetur":13643,"Ġbecome":13644,"Ãłm":13645,"Ġnuptiae":13646,"Ġgloriatio":13647,"ĠApostolus":13648,"burgum":13649,"Ġsuffragio":13650,"Ġsupplicium":13651,"Ġgloriose":13652,"Ġprocedunt":13653,"Ġpellentesque":13654,"ĠGeorgiae":13655,"Ġcolloquium":13656,"Ġdimitte":13657,"ĠPlaceat":13658,"ĠOccitania":13659,"Ġeffugere":13660,"Ġconcordiae":13661,"Ġrespicit":13662,"Ġsuperbia":13663,"Ġsuperbiam":13664,"Ġborealis":13665,"Ġinvocabo":13666,"ĠHerod":13667,"ĠHerac":13668,"Ġselectio":13669,"ĠMacedoniam":13670,"ĠTorquate":13671,"Ġinconstant":13672,"Ġinconveniens":13673,"ĠAtheni":13674,"ĠLudovici":13675,"Ġfollowed":13676,"æľ¬":13677,"ibiliora":13678,"Ġconloqu":13679,"Ġbroad":13680,"Ġobscura":13681,"Ġinterdictum":13682,"Ġceterarum":13683,"Ġploravit":13684,"Temporibus":13685,"Ġredditae":13686,"Ġparens":13687,"ĠTriarius":13688,"Ġbetter":13689,"Ġspecialiter":13690,"Ġsupponat":13691,"Ġsudden":13692,"CHAPTER":13693,"Caput":13694,"Ġpraeponunt":13695,"ĠSalomon":13696,"Ġhilaretur":13697,"Ġaemul":13698,"Ġpueritia":13699,"ivoce":13700,"Ġdiapente":13701,"Ġdisciplinam":13702,"https":13703,"ĠFoederalem":13704,"1450839":13705,"Ġsepeli":13706,"Ġulterius":13707,"ĠBucarest":13708,"ĠOrbis":13709,"ĠNobelianum":13710,"ĠÄĮerven":13711,"Ġproconsul":13712,"ĠOportet":13713,"ĠLugd":13714,"ĠHannib":13715,"Ġprophetis":13716,"ĠRuscinone":13717,"\").":13718,"':":13719,"').":13720,"();":13721,"98":13722,">,":13723,"AB":13724,"Aug":13725,"Die":13726,"Eureka":13727,"Mat":13728,"Med":13729,"Not":13730,"SPD":13731,"Sanct":13732,"Unde":13733,"Vers":13734,"XI":13735,"Zeb":13736,"ces":13737,"dius":13738,"fit":13739,"frag":13740,"gent":13741,"iop":13742,"know":13743,"mas":13744,"mate":13745,"mentum":13746,"noc":13747,"ness":13748,"pol":13749,"pad":13750,"ple":13751,"rist":13752,"vum":13753,"viae":13754,"well":13755,"wood":13756,"xisset":13757,"Âº":13758,"ÂĹ":13759,"Ã£":13760,"Ãı":13761,"Äĩ":13762,"ÅĤ":13763,"Ñī":13764,"åĽ":13765,"ĠÚ":13766,"Ġothers":13767,"Ŀ¼":13768,"quant":13769,"ument":13770,"Ġaerum":13771,"ush":13772,"usandae":13773,"Ġpendere":13774,"ativum":13775,"onas":13776,"Ġce":13777,"Ġcut":13778,"Ġcul":13779,"Ġnunquid":13780,"aeo":13781,"stis":13782,"Ġdando":13783,"Ġdurum":13784,"Ġdraw":13785,"Ġmili":13786,"Ġmavis":13787,"rel":13788,"revit":13789,"emn":13790,"Ġtir":13791,"Ġtro":13792,"Ġtectum":13793,"orae":13794,"urt":13795,"uriam":13796,"urrent":13797,"Ġvil":13798,"Ġventum":13799,"Ġvini":13800,"utor":13801,"utorum":13802,"Ġivit":13803,"Ġfulg":13804,"Ġfelix":13805,"imes":13806,"ardi":13807,"uler":13808,"Ġpriore":13809,"Ġreo":13810,"Ġreal":13811,"Ġrequis":13812,"Ġlove":13813,"aberis":13814,"abimur":13815,"asch":13816,"otograph":13817,"Ġdeal":13818,"Ġdelig":13819,"Ġdestruct":13820,"ils":13821,"Ġsuarum":13822,"ĠEae":13823,"Ġconantur":13824,"ĠAri":13825,"Ġexstit":13826,"Ġexquir":13827,"ĠCed":13828,"elum":13829,"ĠDon":13830,"ĠDaniae":13831,"Ġdiligo":13832,"Ġquilibet":13833,"Ġdicent":13834,"Ġauth":13835,"Ġpraep":13836,"ĠPen":13837,"ĠPage":13838,"ĠPuto":13839,"Ġsedebat":13840,"Ġcoem":13841,"ĠNem":13842,"ĠNav":13843,"Ġpositus":13844,"Ġposito":13845,"arecrow":13846,"ĠMic":13847,"ĠMur":13848,"ĠMach":13849,"Ġ218":13850,"issam":13851,"Ġseen":13852,"ortes":13853,"Ġuelle":13854,"aven":13855,"Ġvidebam":13856,"Ġviduae":13857,"ĠLB":13858,"ĠLo":13859,"ĠHo":13860,"ĠHir":13861,"Ġeras":13862,"Ġamissa":13863,"ĠTin":13864,"ĠTecum":13865,"ĠFem":13866,"Ġpaginas":13867,"Ġcuipiam":13868,"Ġincrem":13869,"Ġplat":13870,"Ġpleni":13871,"ĠVers":13872,"essum":13873,"essor":13874,"Ġungu":13875,"ĠGod":13876,"ĠGracch":13877,"Ġaccidunt":13878,"Ġaccident":13879,"Ġcontigit":13880,"Ġoratores":13881,"Ġinteritum":13882,"Ġstatio":13883,"Ġstrang":13884,"Ġresum":13885,"Ġrespect":13886,"Ġpatientiam":13887,"Ġpatienter":13888,"Ġbonitatis":13889,"Ġarbor":13890,"Ġnostrud":13891,"Ġ1930":13892,"Ġ1932":13893,"Ġlocutionem":13894,"Ġloquimini":13895,"Ġquispiam":13896,"Ġincolis":13897,"Ġposter":13898,"Ġalta":13899,"Ġalmost":13900,"remum":13901,"Ġscripti":13902,"Ġimpius":13903,"Ġimpub":13904,"Ġcommunionem":13905,"Ġassequ":13906,"Ġrationi":13907,"Ġvitulum":13908,"Ġvocamus":13909,"Ġistarum":13910,"Ġeamdem":13911,"Ġ1814":13912,"Ġ1836":13913,"iationis":13914,"Ġdivini":13915,"urent":13916,"ĠSign":13917,"Ġcompreh":13918,"Ġpopulis":13919,"Ġcognomen":13920,"Ġconcessit":13921,"irca":13922,"Ġactibus":13923,"Ġconfl":13924,"Ġconferebamus":13925,"Ġvivimus":13926,"Ġpossitne":13927,"Ġinsidi":13928,"Ġinsitam":13929,"Ġsignavit":13930,"Ġconvinc":13931,"Ġjur":13932,"Ġnovas":13933,"Ġnoverunt":13934,"asses":13935,"Ġdocebit":13936,"Ġoption":13937,"Ġhuiusce":13938,"allust":13939,"Ġcirculo":13940,"anna":13941,"Ġprobantur":13942,"Ġprobabile":13943,"Ġyo":13944,"ĠArn":13945,"Ġcertior":13946,"Ġvestimenta":13947,"eau":13948,"ĠQuaest":13949,"Ġquaeratur":13950,"Ġpecuniis":13951,"Ġpecunias":13952,"Ġevol":13953,"Ġdiligentiae":13954,"Ġcogites":13955,"cribi":13956,"Ġdignos":13957,"Ġdignitati":13958,"Ġfaciebant":13959,"Ġexercere":13960,"Ġvicti":13961,"ÐµÑģ":13962,"ferendis":13963,"Ġcognosces":13964,"Ġpetivit":13965,"ĠXL":13966,"Ġaedium":13967,"posita":13968,"Ġpatrono":13969,"Ġproclam":13970,"Ġprocedere":13971,"Ġbelle":13972,"Ġprovinciis":13973,"Ġ114":13974,"Ġemolum":13975,"Ġflore":13976,"Ġexistis":13977,"Ġaperuit":13978,"ãģĵ":13979,"Ġspecialis":13980,"Ġimmorta":13981,"Ġsignificans":13982,"Ġrectus":13983,"Ġoneris":13984,"ĠGermanicae":13985,"Ġmoventur":13986,"Ġregnavitque":13987,"Ġepiscopos":13988,"Ġdifflu":13989,"crips":13990,"Ġlucri":13991,"Ġnocet":13992,"Ġnocent":13993,"Ġprodux":13994,"Ġtradita":13995,"Ġmonast":13996,"Ġfalsi":13997,"Ġchili":13998,"Ġedidit":13999,"Ġlicere":14000,"Ġlicentia":14001,"ĠNihilominus":14002,"Ġimaginamur":14003,"Ġexempli":14004,"Ġpermans":14005,"Ġparvae":14006,"ĠAlias":14007,"Ġdissip":14008,"ĠScis":14009,"Ġattulit":14010,"ĠTheoph":14011,"Ġaves":14012,"Ġavia":14013,"ĠChristianae":14014,"ĠÂ§.":14015,"Ð¾Ðº":14016,"Ġverax":14017,"Ġreperi":14018,"ĠCaroli":14019,"ĠMagist":14020,"Ġhonestius":14021,"Ġproxima":14022,"Ġproximis":14023,"Ġdimic":14024,"rend":14025,"ĠCatone":14026,"Ġquotidi":14027,"Ġportum":14028,"Ġportas":14029,"Ġsuscipere":14030,"Ġalienae":14031,"Ġequorum":14032,"Ġweek":14033,"Ġpassuum":14034,"Ġ1943":14035,"Ġperditum":14036,"Ġludere":14037,"Ġaugetur":14038,"Ġpedum":14039,"Ġdamni":14040,"Ġgestis":14041,"recta":14042,"Ġambulat":14043,"Ġradi":14044,"Ġconiunctae":14045,"ologia":14046,"Theod":14047,"Ġrelinquo":14048,"Ġduxerit":14049,"Ġexspectamus":14050,"ĠClaus":14051,"ĠIacobi":14052,"ennae":14053,"ĠVideo":14054,"Ġrelationem":14055,"Ġordinatur":14056,"Ġmerid":14057,"Ġmilitari":14058,"Ġmentio":14059,"Ġvincla":14060,"Ġfelices":14061,"Ġ1975":14062,"Ġfundamenta":14063,
[...]
